/*
 * Auto-generated from: fomo96_vela.npz
 * Do not edit by hand.
 *
 * Generated for Ethos-U direct driver invocation (no TFLM).
 * Assumes a single NPU command stream with no CPU fallback.
 */
#pragma once
#include <stdint.h>
#include <stddef.h>

static const uint8_t fomo96.tflite_cmd_data[] = {
    0x43, 0x4F, 0x50, 0x31, 0x01, 0x00, 0x10, 0x00, 0x18, 0x01, 0x00, 0x20,
    0x00, 0x70, 0x00, 0x20, 0x05, 0x00, 0x00, 0x00, 0x05, 0x00, 0x00, 0x00,
    0x05, 0x00, 0x00, 0x00, 0x02, 0x00, 0x84, 0x07, 0x30, 0x01, 0x00, 0x00,
    0x30, 0x40, 0x00, 0x00, 0x00, 0x00, 0x00, 0x00, 0x31, 0x01, 0x02, 0x00,
    0x31, 0x40, 0x00, 0x00, 0x00, 0x90, 0x00, 0x00, 0x32, 0x40, 0x00, 0x00,
    0xB0, 0x01, 0x00, 0x00, 0x10, 0x00, 0x00, 0x00, 0x24, 0x40, 0x27, 0x00,
    0x60, 0x3A, 0xF7, 0x78, 0x05, 0x01, 0x01, 0x00, 0x0F, 0x01, 0x01, 0x00,
    0x00, 0x40, 0x00, 0x00, 0x00, 0x00, 0x00, 0x00, 0x01, 0x40, 0x00, 0x00,
    0x00, 0x00, 0x00, 0x00, 0x02, 0x40, 0x00, 0x00, 0x00, 0x00, 0x00, 0x00,
    0x03, 0x40, 0x00, 0x00, 0x00, 0x00, 0x00, 0x00, 0x0B, 0x01, 0x5F, 0x00,
    0x0C, 0x01, 0x5F, 0x00, 0x0A, 0x01, 0x5F, 0x00, 0x04, 0x01, 0x00, 0x00,
    0x05, 0x40, 0x00, 0x00, 0x60, 0x00, 0x00, 0x00, 0x04, 0x40, 0x00, 0x00,
    0x01, 0x00, 0x00, 0x00, 0x06, 0x40, 0x00, 0x00, 0x01, 0x00, 0x00, 0x00,
    0x09, 0x01, 0x80, 0xFF, 0x07, 0x01, 0x00, 0x00, 0x00, 0x01, 0x00, 0x00,
    0x01, 0x01, 0x00, 0x00, 0x03, 0x01, 0x01, 0x00, 0x02, 0x01, 0x01, 0x00,
    0x14, 0x01, 0x41, 0x00, 0x1F, 0x01, 0x02, 0x00, 0x10, 0x40, 0x00, 0x00,
    0x00, 0x00, 0x00, 0x00, 0x11, 0x40, 0x00, 0x00, 0x00, 0x00, 0x00, 0x00,
    0x12, 0x40, 0x00, 0x00, 0x00, 0x00, 0x00, 0x00, 0x13, 0x40, 0x00, 0x00,
    0x00, 0x00, 0x00, 0x00, 0x12, 0x01, 0x2F, 0x00, 0x11, 0x01, 0x2F, 0x00,
    0x13, 0x01, 0x0F, 0x00, 0x1B, 0x01, 0x2F, 0x00, 0x1C, 0x01, 0x2F, 0x00,
    0x1A, 0x01, 0x2F, 0x00, 0x15, 0x40, 0x00, 0x00, 0x00, 0x03, 0x00, 0x00,
    0x14, 0x40, 0x00, 0x00, 0x10, 0x00, 0x00, 0x00, 0x16, 0x40, 0x00, 0x00,
    0x00, 0x03, 0x00, 0x00, 0x18, 0x01, 0x80, 0xFF, 0x21, 0x01, 0x02, 0x00,
    0x20, 0x01, 0x02, 0x00, 0x22, 0x01, 0x07, 0x00, 0x2E, 0x01, 0x10, 0x00,
    0x28, 0x01, 0x02, 0x00, 0x20, 0x40, 0x00, 0x00, 0xA0, 0x90, 0x00, 0x00,
    0x21, 0x40, 0x00, 0x00, 0x10, 0x01, 0x00, 0x00, 0x29, 0x01, 0x02, 0x00,
    0x22, 0x40, 0x00, 0x00, 0x00, 0x90, 0x00, 0x00, 0x23, 0x40, 0x00, 0x00,
    0xA0, 0x00, 0x00, 0x00, 0x25, 0x01, 0x00, 0x00, 0x26, 0x01, 0x80, 0xFF,
    0x27, 0x01, 0x7F, 0x00, 0x16, 0x01, 0x03, 0x00, 0x15, 0x01, 0x17, 0x00,
    0x17, 0x01, 0x0F, 0x00, 0x24, 0x01, 0x00, 0x02, 0x2F, 0x01, 0x00, 0x00,
    0x11, 0x00, 0x00, 0x00, 0x02, 0x00, 0x00, 0x00, 0x30, 0x40, 0x00, 0x00,
    0xB0, 0x01, 0x00, 0x00, 0x31, 0x40, 0x00, 0x00, 0x90, 0x21, 0x01, 0x00,
    0x32, 0x40, 0x00, 0x00, 0x40, 0x01, 0x00, 0x00, 0x10, 0x00, 0x00, 0x00,
    0x24, 0x40, 0x27, 0x00, 0x76, 0xD7, 0x38, 0x62, 0x05, 0x01, 0x41, 0x00,
    0x0F, 0x01, 0x02, 0x00, 0x0B, 0x01, 0x2F, 0x00, 0x0C, 0x01, 0x2F, 0x00,
    0x0A, 0x01, 0x2F, 0x00, 0x04, 0x01, 0x0F, 0x00, 0x05, 0x40, 0x00, 0x00,
    0x00, 0x03, 0x00, 0x00, 0x04, 0x40, 0x00, 0x00, 0x10, 0x00, 0x00, 0x00,
    0x06, 0x40, 0x00, 0x00, 0x00, 0x03, 0x00, 0x00, 0x00, 0x01, 0x01, 0x00,
    0x01, 0x01, 0x01, 0x00, 0x10, 0x40, 0x00, 0x00, 0x00, 0x90, 0x00, 0x00,
    0x22, 0x01, 0x00, 0x00, 0x2E, 0x01, 0x00, 0x00, 0x20, 0x40, 0x00, 0x00,
    0x30, 0x22, 0x01, 0x00, 0x21, 0x40, 0x00, 0x00, 0xA0, 0x00, 0x00, 0x00,
    0x22, 0x40, 0x00, 0x00, 0x90, 0x21, 0x01, 0x00, 0x16, 0x01, 0x0F, 0x00,
    0x15, 0x01, 0x0F, 0x00, 0x24, 0x01, 0x00, 0x01, 0x2F, 0x01, 0x07, 0x00,
    0x11, 0x00, 0x00, 0x00, 0x03, 0x00, 0x00, 0x00, 0x30, 0x40, 0x00, 0x00,
    0xF0, 0x02, 0x00, 0x00, 0x31, 0x40, 0x00, 0x00, 0x00, 0x20, 0x01, 0x00,
    0x32, 0x40, 0x00, 0x00, 0x90, 0x01, 0x00, 0x00, 0x10, 0x00, 0x00, 0x00,
    0x24, 0x40, 0x26, 0x00, 0x5A, 0xB6, 0x87, 0x46, 0x00, 0x40, 0x00, 0x00,
    0x00, 0x90, 0x00, 0x00, 0x00, 0x01, 0x00, 0x00, 0x01, 0x01, 0x00, 0x00,
    0x03, 0x01, 0x00, 0x00, 0x02, 0x01, 0x00, 0x00, 0x10, 0x40, 0x00, 0x00,
    0x00, 0x00, 0x00, 0x00, 0x13, 0x01, 0x07, 0x00, 0x18, 0x01, 0x04, 0x00,
    0x21, 0x01, 0x00, 0x00, 0x20, 0x01, 0x00, 0x00, 0x22, 0x01, 0x04, 0x00,
    0x20, 0x40, 0x00, 0x00, 0xA0, 0x20, 0x01, 0x00, 0x21, 0x40, 0x00, 0x00,
    0xF0, 0x00, 0x00, 0x00, 0x22, 0x40, 0x00, 0x00, 0x00, 0x20, 0x01, 0x00,
    0x16, 0x01, 0x07, 0x00, 0x24, 0x01, 0x00, 0x02, 0x11, 0x00, 0x00, 0x00,
    0x02, 0x00, 0x00, 0x00, 0x30, 0x40, 0x00, 0x00, 0x80, 0x04, 0x00, 0x00,
    0x31, 0x40, 0x00, 0x00, 0x00, 0x40, 0x02, 0x00, 0x32, 0x40, 0x00, 0x00,
    0x60, 0x04, 0x00, 0x00, 0x10, 0x00, 0x00, 0x00, 0x24, 0x40, 0x25, 0x00,
    0x52, 0x4D, 0x41, 0x4F, 0x00, 0x40, 0x00, 0x00, 0x00, 0x00, 0x00, 0x00,
    0x04, 0x01, 0x07, 0x00, 0x09, 0x01, 0x04, 0x00, 0x10, 0x40, 0x00, 0x00,
    0x00, 0x90, 0x00, 0x00, 0x13, 0x01, 0x2F, 0x00, 0x15, 0x40, 0x00, 0x00,
    0x00, 0x09, 0x00, 0x00, 0x18, 0x01, 0x80, 0xFF, 0x20, 0x40, 0x00, 0x00,
    0xE0, 0x41, 0x02, 0x00, 0x21, 0x40, 0x00, 0x00, 0x80, 0x02, 0x00, 0x00,
    0x22, 0x40, 0x00, 0x00, 0x00, 0x40, 0x02, 0x00, 0x23, 0x40, 0x00, 0x00,
    0xE0, 0x01, 0x00, 0x00, 0x16, 0x01, 0x04, 0x00, 0x15, 0x01, 0x07, 0x00,
    0x17, 0x01, 0x2F, 0x00, 0x11, 0x00, 0x00, 0x00, 0x02, 0x00, 0x00, 0x00,
    0x30, 0x40, 0x00, 0x00, 0xE0, 0x08, 0x00, 0x00, 0x31, 0x40, 0x00, 0x00,
    0x60, 0x44, 0x02, 0x00, 0x32, 0x40, 0x00, 0x00, 0xD0, 0x03, 0x00, 0x00,
    0x10, 0x00, 0x00, 0x00, 0x24, 0x40, 0x27, 0x00, 0x00, 0xDB, 0x36, 0x76,
    0x00, 0x40, 0x00, 0x00, 0x00, 0x90, 0x00, 0x00, 0x04, 0x01, 0x2F, 0x00,
    0x05, 0x40, 0x00, 0x00, 0x00, 0x09, 0x00, 0x00, 0x09, 0x01, 0x80, 0xFF,
    0x03, 0x01, 0x01, 0x00, 0x02, 0x01, 0x01, 0x00, 0x10, 0x40, 0x00, 0x00,
    0x00, 0x00, 0x00, 0x00, 0x12, 0x01, 0x17, 0x00, 0x11, 0x01, 0x17, 0x00,
    0x1B, 0x01, 0x17, 0x00, 0x1C, 0x01, 0x17, 0x00, 0x1A, 0x01, 0x17, 0x00,
    0x15, 0x40, 0x00, 0x00, 0x80, 0x04, 0x00, 0x00, 0x16, 0x40, 0x00, 0x00,
    0x80, 0x01, 0x00, 0x00, 0x21, 0x01, 0x02, 0x00, 0x20, 0x01, 0x02, 0x00,
    0x22, 0x01, 0x03, 0x00, 0x20, 0x40, 0x00, 0x00, 0x40, 0x46, 0x02, 0x00,
    0x21, 0x40, 0x00, 0x00, 0xF0, 0x01, 0x00, 0x00, 0x22, 0x40, 0x00, 0x00,
    0x60, 0x44, 0x02, 0x00, 0x16, 0x01, 0x0F, 0x00, 0x15, 0x01, 0x0B, 0x00,
    0x17, 0x01, 0x0F, 0x00, 0x24, 0x01, 0x00, 0x01, 0x11, 0x00, 0x00, 0x00,
    0x03, 0x00, 0x00, 0x00, 0x30, 0x40, 0x00, 0x00, 0xB0, 0x0C, 0x00, 0x00,
    0x31, 0x40, 0x00, 0x00, 0x00, 0x6C, 0x00, 0x00, 0x32, 0x40, 0x00, 0x00,
    0x60, 0x02, 0x00, 0x00, 0x12, 0x00, 0x01, 0x00, 0x10, 0x00, 0x00, 0x00,
    0x24, 0x40, 0x27, 0x00, 0xFC, 0x31, 0xC5, 0x6C, 0x00, 0x40, 0x00, 0x00,
    0x00, 0x00, 0x00, 0x00, 0x0B, 0x01, 0x17, 0x00, 0x0C, 0x01, 0x17, 0x00,
    0x0A, 0x01, 0x17, 0x00, 0x05, 0x40, 0x00, 0x00, 0x80, 0x04, 0x00, 0x00,
    0x06, 0x40, 0x00, 0x00, 0x80, 0x01, 0x00, 0x00, 0x03, 0x01, 0x00, 0x00,
    0x02, 0x01, 0x00, 0x00, 0x10, 0x40, 0x00, 0x00, 0x60, 0x6E, 0x00, 0x00,
    0x13, 0x01, 0x07, 0x00, 0x15, 0x40, 0x00, 0x00, 0x80, 0x01, 0x00, 0x00,
    0x18, 0x01, 0xFE, 0xFF, 0x21, 0x01, 0x00, 0x00, 0x20, 0x01, 0x00, 0x00,
    0x22, 0x01, 0x00, 0x00, 0x20, 0x40, 0x00, 0x00, 0xA0, 0x6C, 0x00, 0x00,
    0x21, 0x40, 0x00, 0x00, 0xC0, 0x01, 0x00, 0x00, 0x22, 0x40, 0x00, 0x00,
    0x00, 0x6C, 0x00, 0x00, 0x23, 0x40, 0x00, 0x00, 0xA0, 0x00, 0x00, 0x00,
    0x16, 0x01, 0x04, 0x00, 0x15, 0x01, 0x17, 0x00, 0x24, 0x01, 0x00, 0x02,
    0x2F, 0x01, 0x03, 0x00, 0x11, 0x00, 0x00, 0x00, 0x02, 0x00, 0x00, 0x00,
    0x30, 0x40, 0x00, 0x00, 0x10, 0x0F, 0x00, 0x00, 0x31, 0x40, 0x00, 0x00,
    0x60, 0x92, 0x00, 0x00, 0x32, 0x40, 0x00, 0x00, 0x60, 0x04, 0x00, 0x00,
    0x12, 0x00, 0x01, 0x00, 0x10, 0x00, 0x00, 0x00, 0x24, 0x40, 0x25, 0x00,
    0x4F, 0x08, 0x8D, 0x4F, 0x00, 0x40, 0x00, 0x00, 0x60, 0x6E, 0x00, 0x00,
    0x04, 0x01, 0x07, 0x00, 0x05, 0x40, 0x00, 0x00, 0x80, 0x01, 0x00, 0x00,
    0x09, 0x01, 0xFE, 0xFF, 0x10, 0x40, 0x00, 0x00, 0x00, 0x00, 0x00, 0x00,
    0x13, 0x01, 0x2F, 0x00, 0x15, 0x40, 0x00, 0x00, 0x80, 0x04, 0x00, 0x00,
    0x18, 0x01, 0x80, 0xFF, 0x22, 0x01, 0x04, 0x00, 0x20, 0x40, 0x00, 0x00,
    0x40, 0x94, 0x00, 0x00, 0x21, 0x40, 0x00, 0x00, 0x80, 0x02, 0x00, 0x00,
    0x22, 0x40, 0x00, 0x00, 0x60, 0x92, 0x00, 0x00, 0x23, 0x40, 0x00, 0x00,
    0xE0, 0x01, 0x00, 0x00, 0x15, 0x01, 0x07, 0x00, 0x17, 0x01, 0x2F, 0x00,
    0x2F, 0x01, 0x04, 0x00, 0x11, 0x00, 0x00, 0x00, 0x02, 0x00, 0x00, 0x00,
    0x30, 0x40, 0x00, 0x00, 0x70, 0x13, 0x00, 0x00, 0x31, 0x40, 0x00, 0x00,
    0x60, 0xFE, 0x00, 0x00, 0x32, 0x40, 0x00, 0x00, 0xE0, 0x03, 0x00, 0x00,
    0x10, 0x00, 0x00, 0x00, 0x24, 0x40, 0x25, 0x00, 0x80, 0x84, 0xC2, 0x5A,
    0x00, 0x40, 0x00, 0x00, 0x00, 0x00, 0x00, 0x00, 0x04, 0x01, 0x2F, 0x00,
    0x05, 0x40, 0x00, 0x00, 0x80, 0x04, 0x00, 0x00, 0x09, 0x01, 0x80, 0xFF,
    0x00, 0x01, 0x01, 0x00, 0x01, 0x01, 0x01, 0x00, 0x03, 0x01, 0x01, 0x00,
    0x02, 0x01, 0x01, 0x00, 0x10, 0x40, 0x00, 0x00, 0x60, 0x92, 0x00, 0x00,
    0x21, 0x01, 0x02, 0x00, 0x20, 0x01, 0x02, 0x00, 0x22, 0x01, 0x00, 0x00,
    0x20, 0x40, 0x00, 0x00, 0x40, 0x00, 0x01, 0x00, 0x21, 0x40, 0x00, 0x00,
    0x00, 0x02, 0x00, 0x00, 0x22, 0x40, 0x00, 0x00, 0x60, 0xFE, 0x00, 0x00,
    0x16, 0x01, 0x14, 0x00, 0x15, 0x01, 0x0B, 0x00, 0x17, 0x01, 0x0F, 0x00,
    0x24, 0x01, 0x00, 0x01, 0x2F, 0x01, 0x01, 0x00, 0x11, 0x00, 0x00, 0x00,
    0x03, 0x00, 0x00, 0x00, 0x30, 0x40, 0x00, 0x00, 0x50, 0x17, 0x00, 0x00,
    0x31, 0x40, 0x00, 0x00, 0x40, 0x02, 0x01, 0x00, 0x32, 0x40, 0x00, 0x00,
    0x70, 0x02, 0x00, 0x00, 0x10, 0x00, 0x00, 0x00, 0x24, 0x40, 0x28, 0x00,
    0x66, 0x8D, 0x52, 0x45, 0x05, 0x01, 0x41, 0x00, 0x0F, 0x01, 0x02, 0x00,
    0x00, 0x40, 0x00, 0x00, 0x60, 0x92, 0x00, 0x00, 0x01, 0x40, 0x00, 0x00,
    0x00, 0x00, 0x00, 0x00, 0x02, 0x40, 0x00, 0x00, 0x00, 0x00, 0x00, 0x00,
    0x03, 0x40, 0x00, 0x00, 0x00, 0x00, 0x00, 0x00, 0x0B, 0x01, 0x17, 0x00,
    0x0C, 0x01, 0x17, 0x00, 0x0A, 0x01, 0x17, 0x00, 0x05, 0x40, 0x00, 0x00,
    0x80, 0x04, 0x00, 0x00, 0x04, 0x40, 0x00, 0x00, 0x10, 0x00, 0x00, 0x00,
    0x06, 0x40, 0x00, 0x00, 0x80, 0x01, 0x00, 0x00, 0x09, 0x01, 0x80, 0xFF,
    0x00, 0x01, 0x00, 0x00, 0x01, 0x01, 0x00, 0x00, 0x03, 0x01, 0x00, 0x00,
    0x02, 0x01, 0x00, 0x00, 0x14, 0x01, 0x41, 0x80, 0x1F, 0x01, 0x00, 0x00,
    0x13, 0x01, 0x07, 0x00, 0x18, 0x01, 0xE0, 0xFF, 0x21, 0x01, 0x00, 0x00,
    0x20, 0x01, 0x00, 0x00, 0x20, 0x40, 0x00, 0x00, 0xE0, 0x02, 0x01, 0x00,
    0x21, 0x40, 0x00, 0x00, 0xD0, 0x01, 0x00, 0x00, 0x22, 0x40, 0x00, 0x00,
    0x40, 0x02, 0x01, 0x00, 0x23, 0x40, 0x00, 0x00, 0xA0, 0x00, 0x00, 0x00,
    0x16, 0x01, 0x04, 0x00, 0x15, 0x01, 0x17, 0x00, 0x24, 0x01, 0x00, 0x02,
    0x2F, 0x01, 0x00, 0x00, 0x11, 0x00, 0x00, 0x00, 0x02, 0x00, 0x00, 0x00,
    0x25, 0x40, 0x0C, 0x05, 0x27, 0x12, 0xD4, 0x62, 0x26, 0x40, 0x0B, 0x05,
    0x00, 0x00, 0x00, 0x40, 0x24, 0x40, 0x32, 0x00, 0xBC, 0xE2, 0xB4, 0x5E,
    0x05, 0x01, 0x41, 0x00, 0x0F, 0x01, 0x02, 0x00, 0x00, 0x40, 0x00, 0x00,
    0x60, 0x6E, 0x00, 0x00, 0x01, 0x40, 0x00, 0x00, 0x00, 0x00, 0x00, 0x00,
    0x02, 0x40, 0x00, 0x00, 0x00, 0x00, 0x00, 0x00, 0x03, 0x40, 0x00, 0x00,
    0x00, 0x00, 0x00, 0x00, 0x0B, 0x01, 0x17, 0x00, 0x0C, 0x01, 0x17, 0x00,
    0x0A, 0x01, 0x17, 0x00, 0x05, 0x40, 0x00, 0x00, 0x80, 0x01, 0x00, 0x00,
    0x04, 0x40, 0x00, 0x00, 0x10, 0x00, 0x00, 0x00, 0x06, 0x40, 0x00, 0x00,
    0x80, 0x01, 0x00, 0x00, 0x09, 0x01, 0xFE, 0xFF, 0x14, 0x01, 0x41, 0x01,
    0x1F, 0x01, 0x02, 0x00, 0x10, 0x40, 0x00, 0x00, 0x00, 0x00, 0x00, 0x00,
    0x15, 0x40, 0x00, 0x00, 0x80, 0x01, 0x00, 0x00, 0x18, 0x01, 0xE1, 0xFF,
    0x85, 0x01, 0x41, 0x80, 0x8F, 0x01, 0x00, 0x00, 0x89, 0x01, 0xE0, 0xFF,
    0x08, 0x01, 0x00, 0x00, 0x80, 0x01, 0x00, 0x00, 0x06, 0x00, 0x01, 0x00,
    0x30, 0x40, 0x00, 0x00, 0xC0, 0x19, 0x00, 0x00, 0x31, 0x40, 0x00, 0x00,
    0x00, 0x24, 0x00, 0x00, 0x32, 0x40, 0x00, 0x00, 0x70, 0x04, 0x00, 0x00,
    0x12, 0x00, 0x01, 0x00, 0x10, 0x00, 0x00, 0x00, 0x24, 0x40, 0x25, 0x00,
    0x17, 0xD3, 0xAB, 0x69, 0x05, 0x01, 0x41, 0x00, 0x0F, 0x01, 0x02, 0x00,
    0x00, 0x40, 0x00, 0x00, 0x00, 0x00, 0x00, 0x00, 0x01, 0x40, 0x00, 0x00,
    0x00, 0x00, 0x00, 0x00, 0x02, 0x40, 0x00, 0x00, 0x00, 0x00, 0x00, 0x00,
    0x03, 0x40, 0x00, 0x00, 0x00, 0x00, 0x00, 0x00, 0x0B, 0x01, 0x17, 0x00,
    0x0C, 0x01, 0x17, 0x00, 0x0A, 0x01, 0x17, 0x00, 0x04, 0x01, 0x07, 0x00,
    0x05, 0x40, 0x00, 0x00, 0x80, 0x01, 0x00, 0x00, 0x04, 0x40, 0x00, 0x00,
    0x10, 0x00, 0x00, 0x00, 0x06, 0x40, 0x00, 0x00, 0x80, 0x01, 0x00, 0x00,
    0x09, 0x01, 0xE1, 0xFF, 0x14, 0x01, 0x41, 0x00, 0x10, 0x40, 0x00, 0x00,
    0x70, 0x28, 0x00, 0x00, 0x13, 0x01, 0x2F, 0x00, 0x15, 0x40, 0x00, 0x00,
    0x80, 0x04, 0x00, 0x00, 0x18, 0x01, 0x80, 0xFF, 0x22, 0x01, 0x04, 0x00,
    0x20, 0x40, 0x00, 0x00, 0xE0, 0x25, 0x00, 0x00, 0x21, 0x40, 0x00, 0x00,
    0x90, 0x02, 0x00, 0x00, 0x22, 0x40, 0x00, 0x00, 0x00, 0x24, 0x00, 0x00,
    0x23, 0x40, 0x00, 0x00, 0xE0, 0x01, 0x00, 0x00, 0x15, 0x01, 0x07, 0x00,
    0x17, 0x01, 0x2F, 0x00, 0x2F, 0x01, 0x04, 0x00, 0x11, 0x00, 0x00, 0x00,
    0x02, 0x00, 0x00, 0x00, 0x24, 0x40, 0x27, 0x00, 0x80, 0x85, 0x20, 0x79,
    0x00, 0x40, 0x00, 0x00, 0x70, 0x28, 0x00, 0x00, 0x04, 0x01, 0x2F, 0x00,
    0x05, 0x40, 0x00, 0x00, 0x80, 0x04, 0x00, 0x00, 0x09, 0x01, 0x80, 0xFF,
    0x03, 0x01, 0x01, 0x00, 0x02, 0x01, 0x01, 0x00, 0x10, 0x40, 0x00, 0x00,
    0x00, 0x00, 0x00, 0x00, 0x12, 0x01, 0x0B, 0x00, 0x11, 0x01, 0x0B, 0x00,
    0x1B, 0x01, 0x0B, 0x00, 0x1C, 0x01, 0x0B, 0x00, 0x1A, 0x01, 0x0B, 0x00,
    0x15, 0x40, 0x00, 0x00, 0x40, 0x02, 0x00, 0x00, 0x16, 0x40, 0x00, 0x00,
    0xC0, 0x00, 0x00, 0x00, 0x21, 0x01, 0x02, 0x00, 0x20, 0x01, 0x02, 0x00,
    0x22, 0x01, 0x03, 0x00, 0x28, 0x01, 0x00, 0x00, 0x20, 0x40, 0x00, 0x00,
    0x10, 0x20, 0x00, 0x00, 0x21, 0x40, 0x00, 0x00, 0xF0, 0x01, 0x00, 0x00,
    0x29, 0x01, 0x00, 0x00, 0x22, 0x40, 0x00, 0x00, 0x30, 0x1E, 0x00, 0x00,
    0x16, 0x01, 0x0B, 0x00, 0x15, 0x01, 0x0B, 0x00, 0x17, 0x01, 0x0F, 0x00,
    0x24, 0x01, 0x00, 0x01, 0x2F, 0x01, 0x00, 0x00, 0x03, 0x00, 0x00, 0x00,
    0x30, 0x40, 0x00, 0x00, 0x00, 0x22, 0x00, 0x00, 0x31, 0x40, 0x00, 0x00,
    0x00, 0x1B, 0x00, 0x00, 0x32, 0x40, 0x00, 0x00, 0x20, 0x04, 0x00, 0x00,
    0x12, 0x00, 0x01, 0x00, 0x10, 0x00, 0x00, 0x00, 0x24, 0x40, 0x27, 0x00,
    0x08, 0x57, 0x14, 0x41, 0x00, 0x40, 0x00, 0x00, 0x00, 0x00, 0x00, 0x00,
    0x0B, 0x01, 0x0B, 0x00, 0x0C, 0x01, 0x0B, 0x00, 0x0A, 0x01, 0x0B, 0x00,
    0x05, 0x40, 0x00, 0x00, 0x40, 0x02, 0x00, 0x00, 0x06, 0x40, 0x00, 0x00,
    0xC0, 0x00, 0x00, 0x00, 0x03, 0x01, 0x00, 0x00, 0x02, 0x01, 0x00, 0x00,
    0x10, 0x40, 0x00, 0x00, 0x20, 0x1F, 0x00, 0x00, 0x13, 0x01, 0x0F, 0x00,
    0x15, 0x40, 0x00, 0x00, 0xC0, 0x00, 0x00, 0x00, 0x18, 0x01, 0xE8, 0xFF,
    0x21, 0x01, 0x00, 0x00, 0x20, 0x01, 0x00, 0x00, 0x22, 0x01, 0x00, 0x00,
    0x28, 0x01, 0x02, 0x00, 0x20, 0x40, 0x00, 0x00, 0xA0, 0x1B, 0x00, 0x00,
    0x21, 0x40, 0x00, 0x00, 0x80, 0x03, 0x00, 0x00, 0x29, 0x01, 0x02, 0x00,
    0x22, 0x40, 0x00, 0x00, 0x00, 0x1B, 0x00, 0x00, 0x23, 0x40, 0x00, 0x00,
    0xA0, 0x00, 0x00, 0x00, 0x16, 0x01, 0x05, 0x00, 0x24, 0x01, 0x00, 0x02,
    0x11, 0x00, 0x00, 0x00, 0x02, 0x00, 0x00, 0x00, 0x30, 0x40, 0x00, 0x00,
    0x20, 0x26, 0x00, 0x00, 0x31, 0x40, 0x00, 0x00, 0x20, 0x5E, 0x00, 0x00,
    0x32, 0x40, 0x00, 0x00, 0x80, 0x08, 0x00, 0x00, 0x12, 0x00, 0x01, 0x00,
    0x10, 0x00, 0x00, 0x00, 0x24, 0x40, 0x25, 0x00, 0x58, 0x1C, 0x04, 0x6E,
    0x00, 0x40, 0x00, 0x00, 0x20, 0x1F, 0x00, 0x00, 0x04, 0x01, 0x0F, 0x00,
    0x05, 0x40, 0x00, 0x00, 0xC0, 0x00, 0x00, 0x00, 0x09, 0x01, 0xE8, 0xFF,
    0x10, 0x40, 0x00, 0x00, 0x20, 0x28, 0x00, 0x00, 0x13, 0x01, 0x3F, 0x00,
    0x15, 0x40, 0x00, 0x00, 0x80, 0x04, 0x00, 0x00, 0x18, 0x01, 0x80, 0xFF,
    0x22, 0x01, 0x04, 0x00, 0x20, 0x40, 0x00, 0x00, 0xA0, 0x60, 0x00, 0x00,
    0x21, 0x40, 0x00, 0x00, 0x00, 0x06, 0x00, 0x00, 0x22, 0x40, 0x00, 0x00,
    0x20, 0x5E, 0x00, 0x00, 0x23, 0x40, 0x00, 0x00, 0x80, 0x02, 0x00, 0x00,
    0x16, 0x01, 0x06, 0x00, 0x11, 0x00, 0x00, 0x00, 0x02, 0x00, 0x00, 0x00,
    0x30, 0x40, 0x00, 0x00, 0xA0, 0x2E, 0x00, 0x00, 0x31, 0x40, 0x00, 0x00,
    0xA0, 0x66, 0x00, 0x00, 0x32, 0x40, 0x00, 0x00, 0x50, 0x04, 0x00, 0x00,
    0x10, 0x00, 0x00, 0x00, 0x10, 0x40, 0x00, 0x00, 0x20, 0x2B, 0x00, 0x00,
    0x13, 0x01, 0x1F, 0x00, 0x20, 0x40, 0x00, 0x00, 0xE0, 0x67, 0x00, 0x00,
    0x21, 0x40, 0x00, 0x00, 0x10, 0x03, 0x00, 0x00, 0x22, 0x40, 0x00, 0x00,
    0xA0, 0x66, 0x00, 0x00, 0x23, 0x40, 0x00, 0x00, 0x40, 0x01, 0x00, 0x00,
    0x2F, 0x01, 0x07, 0x00, 0x11, 0x00, 0x00, 0x00, 0x02, 0x00, 0x00, 0x00,
    0x24, 0x40, 0x26, 0x00, 0x80, 0x40, 0x0E, 0x4F, 0x00, 0x40, 0x00, 0x00,
    0x20, 0x28, 0x00, 0x00, 0x04, 0x01, 0x5F, 0x00, 0x05, 0x40, 0x00, 0x00,
    0x80, 0x04, 0x00, 0x00, 0x09, 0x01, 0x80, 0xFF, 0x00, 0x01, 0x01, 0x00,
    0x01, 0x01, 0x01, 0x00, 0x03, 0x01, 0x01, 0x00, 0x02, 0x01, 0x01, 0x00,
    0x10, 0x40, 0x00, 0x00, 0x20, 0x5E, 0x00, 0x00, 0x13, 0x01, 0x5F, 0x00,
    0x21, 0x01, 0x02, 0x00, 0x20, 0x01, 0x02, 0x00, 0x22, 0x01, 0x00, 0x00,
    0x28, 0x01, 0x00, 0x00, 0x20, 0x40, 0x00, 0x00, 0xB0, 0x36, 0x00, 0x00,
    0x21, 0x40, 0x00, 0x00, 0xD0, 0x03, 0x00, 0x00, 0x29, 0x01, 0x00, 0x00,
    0x22, 0x40, 0x00, 0x00, 0xF0, 0x32, 0x00, 0x00, 0x23, 0x40, 0x00, 0x00,
    0xC0, 0x03, 0x00, 0x00, 0x16, 0x01, 0x0B, 0x00, 0x24, 0x01, 0x00, 0x01,
    0x2F, 0x01, 0x04, 0x00, 0x03, 0x00, 0x00, 0x00, 0x30, 0x40, 0x00, 0x00,
    0x80, 0x3A, 0x00, 0x00, 0x31, 0x40, 0x00, 0x00, 0x00, 0x09, 0x00, 0x00,
    0x32, 0x40, 0x00, 0x00, 0x60, 0x07, 0x00, 0x00, 0x10, 0x00, 0x00, 0x00,
    0x24, 0x40, 0x28, 0x00, 0xC7, 0xF2, 0x68, 0x4B, 0x05, 0x01, 0x41, 0x00,
    0x0F, 0x01, 0x02, 0x00, 0x00, 0x40, 0x00, 0x00, 0x20, 0x5E, 0x00, 0x00,
    0x01, 0x40, 0x00, 0x00, 0x00, 0x00, 0x00, 0x00, 0x02, 0x40, 0x00, 0x00,
    0x00, 0x00, 0x00, 0x00, 0x03, 0x40, 0x00, 0x00, 0x00, 0x00, 0x00, 0x00,
    0x0B, 0x01, 0x0B, 0x00, 0x0C, 0x01, 0x0B, 0x00, 0x0A, 0x01, 0x0B, 0x00,
    0x05, 0x40, 0x00, 0x00, 0x80, 0x04, 0x00, 0x00, 0x04, 0x40, 0x00, 0x00,
    0x10, 0x00, 0x00, 0x00, 0x06, 0x40, 0x00, 0x00, 0xC0, 0x00, 0x00, 0x00,
    0x09, 0x01, 0x80, 0xFF, 0x00, 0x01, 0x00, 0x00, 0x01, 0x01, 0x00, 0x00,
    0x03, 0x01, 0x00, 0x00, 0x02, 0x01, 0x00, 0x00, 0x14, 0x01, 0x41, 0x80,
    0x1F, 0x01, 0x00, 0x00, 0x13, 0x01, 0x0F, 0x00, 0x18, 0x01, 0xF9, 0xFF,
    0x21, 0x01, 0x00, 0x00, 0x20, 0x01, 0x00, 0x00, 0x28, 0x01, 0x02, 0x00,
    0x20, 0x40, 0x00, 0x00, 0xA0, 0x09, 0x00, 0x00, 0x21, 0x40, 0x00, 0x00,
    0xC0, 0x06, 0x00, 0x00, 0x29, 0x01, 0x02, 0x00, 0x22, 0x40, 0x00, 0x00,
    0x00, 0x09, 0x00, 0x00, 0x23, 0x40, 0x00, 0x00, 0xA0, 0x00, 0x00, 0x00,
    0x16, 0x01, 0x09, 0x00, 0x24, 0x01, 0x00, 0x02, 0x2F, 0x01, 0x00, 0x00,
    0x11, 0x00, 0x00, 0x00, 0x02, 0x00, 0x00, 0x00, 0x25, 0x40, 0x0B, 0x05,
    0x00, 0x00, 0x00, 0x40, 0x26, 0x40, 0x0C, 0x05, 0x61, 0xC8, 0x17, 0x6C,
    0x24, 0x40, 0x32, 0x00, 0x06, 0x68, 0x05, 0x56, 0x05, 0x01, 0x41, 0x00,
    0x0F, 0x01, 0x02, 0x00, 0x00, 0x40, 0x00, 0x00, 0x20, 0x1F, 0x00, 0x00,
    0x01, 0x40, 0x00, 0x00, 0x00, 0x00, 0x00, 0x00, 0x02, 0x40, 0x00, 0x00,
    0x00, 0x00, 0x00, 0x00, 0x03, 0x40, 0x00, 0x00, 0x00, 0x00, 0x00, 0x00,
    0x0B, 0x01, 0x0B, 0x00, 0x0C, 0x01, 0x0B, 0x00, 0x0A, 0x01, 0x0B, 0x00,
    0x05, 0x40, 0x00, 0x00, 0xC0, 0x00, 0x00, 0x00, 0x04, 0x40, 0x00, 0x00,
    0x10, 0x00, 0x00, 0x00, 0x06, 0x40, 0x00, 0x00, 0xC0, 0x00, 0x00, 0x00,
    0x09, 0x01, 0xE8, 0xFF, 0x14, 0x01, 0x41, 0x01, 0x1F, 0x01, 0x02, 0x00,
    0x10, 0x40, 0x00, 0x00, 0x00, 0x00, 0x00, 0x00, 0x15, 0x40, 0x00, 0x00,
    0xC0, 0x00, 0x00, 0x00, 0x18, 0x01, 0xED, 0xFF, 0x85, 0x01, 0x41, 0x80,
    0x8F, 0x01, 0x00, 0x00, 0x89, 0x01, 0xF9, 0xFF, 0x06, 0x00, 0x01, 0x00,
    0x30, 0x40, 0x00, 0x00, 0xE0, 0x41, 0x00, 0x00, 0x31, 0x40, 0x00, 0x00,
    0x00, 0x3F, 0x00, 0x00, 0x32, 0x40, 0x00, 0x00, 0xC0, 0x0C, 0x00, 0x00,
    0x12, 0x00, 0x01, 0x00, 0x10, 0x00, 0x00, 0x00, 0x24, 0x40, 0x26, 0x00,
    0x2E, 0x86, 0x78, 0x73, 0x05, 0x01, 0x41, 0x00, 0x0F, 0x01, 0x02, 0x00,
    0x00, 0x40, 0x00, 0x00, 0x00, 0x00, 0x00, 0x00, 0x01, 0x40, 0x00, 0x00,
    0x00, 0x00, 0x00, 0x00, 0x02, 0x40, 0x00, 0x00, 0x00, 0x00, 0x00, 0x00,
    0x03, 0x40, 0x00, 0x00, 0x00, 0x00, 0x00, 0x00, 0x0B, 0x01, 0x0B, 0x00,
    0x0C, 0x01, 0x0B, 0x00, 0x0A, 0x01, 0x0B, 0x00, 0x04, 0x01, 0x0F, 0x00,
    0x05, 0x40, 0x00, 0x00, 0xC0, 0x00, 0x00, 0x00, 0x04, 0x40, 0x00, 0x00,
    0x10, 0x00, 0x00, 0x00, 0x06, 0x40, 0x00, 0x00, 0xC0, 0x00, 0x00, 0x00,
    0x09, 0x01, 0xED, 0xFF, 0x14, 0x01, 0x41, 0x00, 0x10, 0x40, 0x00, 0x00,
    0x00, 0x09, 0x00, 0x00, 0x13, 0x01, 0x5F, 0x00, 0x15, 0x40, 0x00, 0x00,
    0x80, 0x04, 0x00, 0x00, 0x18, 0x01, 0x80, 0xFF, 0x22, 0x01, 0x04, 0x00,
    0x20, 0x40, 0x00, 0x00, 0xC0, 0x42, 0x00, 0x00, 0x21, 0x40, 0x00, 0x00,
    0x00, 0x09, 0x00, 0x00, 0x22, 0x40, 0x00, 0x00, 0x00, 0x3F, 0x00, 0x00,
    0x23, 0x40, 0x00, 0x00, 0xC0, 0x03, 0x00, 0x00, 0x16, 0x01, 0x06, 0x00,
    0x2F, 0x01, 0x01, 0x00, 0x11, 0x00, 0x00, 0x00, 0x02, 0x00, 0x00, 0x00,
    0x24, 0x40, 0x25, 0x00, 0x80, 0x7B, 0x07, 0x61, 0x00, 0x40, 0x00, 0x00,
    0x00, 0x09, 0x00, 0x00, 0x04, 0x01, 0x5F, 0x00, 0x05, 0x40, 0x00, 0x00,
    0x80, 0x04, 0x00, 0x00, 0x09, 0x01, 0x80, 0xFF, 0x00, 0x01, 0x01, 0x00,
    0x01, 0x01, 0x01, 0x00, 0x03, 0x01, 0x01, 0x00, 0x02, 0x01, 0x01, 0x00,
    0x10, 0x40, 0x00, 0x00, 0x00, 0x3F, 0x00, 0x00, 0x21, 0x01, 0x02, 0x00,
    0x20, 0x01, 0x02, 0x00, 0x22, 0x01, 0x00, 0x00, 0x28, 0x01, 0x00, 0x00,
    0x20, 0x40, 0x00, 0x00, 0x60, 0x52, 0x00, 0x00, 0x21, 0x40, 0x00, 0x00,
    0xE0, 0x03, 0x00, 0x00, 0x29, 0x01, 0x00, 0x00, 0x22, 0x40, 0x00, 0x00,
    0xA0, 0x4E, 0x00, 0x00, 0x16, 0x01, 0x0B, 0x00, 0x24, 0x01, 0x00, 0x01,
    0x2F, 0x01, 0x05, 0x00, 0x03, 0x00, 0x00, 0x00, 0x30, 0x40, 0x00, 0x00,
    0x40, 0x56, 0x00, 0x00, 0x31, 0x40, 0x00, 0x00, 0x00, 0x75, 0x00, 0x00,
    0x32, 0x40, 0x00, 0x00, 0x90, 0x07, 0x00, 0x00, 0x10, 0x00, 0x00, 0x00,
    0x24, 0x40, 0x29, 0x00, 0xC4, 0x44, 0xF9, 0x7D, 0x05, 0x01, 0x41, 0x00,
    0x0F, 0x01, 0x02, 0x00, 0x00, 0x40, 0x00, 0x00, 0x00, 0x3F, 0x00, 0x00,
    0x01, 0x40, 0x00, 0x00, 0x00, 0x00, 0x00, 0x00, 0x02, 0x40, 0x00, 0x00,
    0x00, 0x00, 0x00, 0x00, 0x03, 0x40, 0x00, 0x00, 0x00, 0x00, 0x00, 0x00,
    0x0B, 0x01, 0x0B, 0x00, 0x0C, 0x01, 0x0B, 0x00, 0x0A, 0x01, 0x0B, 0x00,
    0x05, 0x40, 0x00, 0x00, 0x80, 0x04, 0x00, 0x00, 0x04, 0x40, 0x00, 0x00,
    0x10, 0x00, 0x00, 0x00, 0x06, 0x40, 0x00, 0x00, 0xC0, 0x00, 0x00, 0x00,
    0x09, 0x01, 0x80, 0xFF, 0x00, 0x01, 0x00, 0x00, 0x01, 0x01, 0x00, 0x00,
    0x03, 0x01, 0x00, 0x00, 0x02, 0x01, 0x00, 0x00, 0x14, 0x01, 0x41, 0x80,
    0x1F, 0x01, 0x00, 0x00, 0x13, 0x01, 0x0F, 0x00, 0x18, 0x01, 0xFE, 0xFF,
    0x21, 0x01, 0x00, 0x00, 0x20, 0x01, 0x00, 0x00, 0x28, 0x01, 0x02, 0x00,
    0x20, 0x40, 0x00, 0x00, 0xA0, 0x75, 0x00, 0x00, 0x21, 0x40, 0x00, 0x00,
    0xF0, 0x06, 0x00, 0x00, 0x29, 0x01, 0x02, 0x00, 0x22, 0x40, 0x00, 0x00,
    0x00, 0x75, 0x00, 0x00, 0x23, 0x40, 0x00, 0x00, 0xA0, 0x00, 0x00, 0x00,
    0x16, 0x01, 0x09, 0x00, 0x24, 0x01, 0x00, 0x02, 0x2F, 0x01, 0x00, 0x00,
    0x11, 0x00, 0x00, 0x00, 0x02, 0x00, 0x00, 0x00, 0x26, 0x40, 0x0C, 0x05,
    0xD3, 0x8D, 0x2D, 0x41, 0x24, 0x40, 0x32, 0x00, 0x7E, 0xF4, 0xD8, 0x5E,
    0x05, 0x01, 0x41, 0x00, 0x0F, 0x01, 0x02, 0x00, 0x00, 0x40, 0x00, 0x00,
    0x00, 0x00, 0x00, 0x00, 0x01, 0x40, 0x00, 0x00, 0x00, 0x00, 0x00, 0x00,
    0x02, 0x40, 0x00, 0x00, 0x00, 0x00, 0x00, 0x00, 0x03, 0x40, 0x00, 0x00,
    0x00, 0x00, 0x00, 0x00, 0x0B, 0x01, 0x0B, 0x00, 0x0C, 0x01, 0x0B, 0x00,
    0x0A, 0x01, 0x0B, 0x00, 0x05, 0x40, 0x00, 0x00, 0xC0, 0x00, 0x00, 0x00,
    0x04, 0x40, 0x00, 0x00, 0x10, 0x00, 0x00, 0x00, 0x06, 0x40, 0x00, 0x00,
    0xC0, 0x00, 0x00, 0x00, 0x09, 0x01, 0xED, 0xFF, 0x14, 0x01, 0x41, 0x01,
    0x1F, 0x01, 0x02, 0x00, 0x10, 0x40, 0x00, 0x00, 0x00, 0x09, 0x00, 0x00,
    0x15, 0x40, 0x00, 0x00, 0xC0, 0x00, 0x00, 0x00, 0x18, 0x01, 0xEE, 0xFF,
    0x85, 0x01, 0x41, 0x80, 0x8F, 0x01, 0x00, 0x00, 0x89, 0x01, 0xFE, 0xFF,
    0x06, 0x00, 0x01, 0x00, 0x30, 0x40, 0x00, 0x00, 0xD0, 0x5D, 0x00, 0x00,
    0x31, 0x40, 0x00, 0x00, 0x00, 0x12, 0x00, 0x00, 0x32, 0x40, 0x00, 0x00,
    0xC0, 0x0C, 0x00, 0x00, 0x12, 0x00, 0x01, 0x00, 0x10, 0x00, 0x00, 0x00,
    0x24, 0x40, 0x25, 0x00, 0xEF, 0x09, 0xF6, 0x46, 0x05, 0x01, 0x41, 0x00,
    0x0F, 0x01, 0x02, 0x00, 0x00, 0x40, 0x00, 0x00, 0x00, 0x09, 0x00, 0x00,
    0x01, 0x40, 0x00, 0x00, 0x00, 0x00, 0x00, 0x00, 0x02, 0x40, 0x00, 0x00,
    0x00, 0x00, 0x00, 0x00, 0x03, 0x40, 0x00, 0x00, 0x00, 0x00, 0x00, 0x00,
    0x0B, 0x01, 0x0B, 0x00, 0x0C, 0x01, 0x0B, 0x00, 0x0A, 0x01, 0x0B, 0x00,
    0x04, 0x01, 0x0F, 0x00, 0x05, 0x40, 0x00, 0x00, 0xC0, 0x00, 0x00, 0x00,
    0x04, 0x40, 0x00, 0x00, 0x10, 0x00, 0x00, 0x00, 0x06, 0x40, 0x00, 0x00,
    0xC0, 0x00, 0x00, 0x00, 0x09, 0x01, 0xEE, 0xFF, 0x14, 0x01, 0x41, 0x00,
    0x10, 0x40, 0x00, 0x00, 0xC0, 0x1E, 0x00, 0x00, 0x13, 0x01, 0x5F, 0x00,
    0x15, 0x40, 0x00, 0x00, 0x80, 0x04, 0x00, 0x00, 0x18, 0x01, 0x80, 0xFF,
    0x22, 0x01, 0x04, 0x00, 0x20, 0x40, 0x00, 0x00, 0xC0, 0x15, 0x00, 0x00,
    0x21, 0x40, 0x00, 0x00, 0x00, 0x09, 0x00, 0x00, 0x22, 0x40, 0x00, 0x00,
    0x00, 0x12, 0x00, 0x00, 0x23, 0x40, 0x00, 0x00, 0xC0, 0x03, 0x00, 0x00,
    0x16, 0x01, 0x06, 0x00, 0x2F, 0x01, 0x01, 0x00, 0x11, 0x00, 0x00, 0x00,
    0x02, 0x00, 0x00, 0x00, 0x30, 0x40, 0x00, 0x00, 0x90, 0x6A, 0x00, 0x00,
    0x31, 0x40, 0x00, 0x00, 0xC0, 0x54, 0x00, 0x00, 0x32, 0x40, 0x00, 0x00,
    0x40, 0x0F, 0x00, 0x00, 0x12, 0x00, 0x01, 0x00, 0x10, 0x00, 0x00, 0x00,
    0x24, 0x40, 0x29, 0x00, 0x3D, 0x36, 0x2E, 0x6E, 0x00, 0x40, 0x00, 0x00,
    0xC0, 0x1E, 0x00, 0x00, 0x04, 0x01, 0x5F, 0x00, 0x05, 0x40, 0x00, 0x00,
    0x80, 0x04, 0x00, 0x00, 0x09, 0x01, 0x80, 0xFF, 0x10, 0x40, 0x00, 0x00,
    0x00, 0x00, 0x00, 0x00, 0x13, 0x01, 0x1F, 0x00, 0x15, 0x40, 0x00, 0x00,
    0x80, 0x01, 0x00, 0x00, 0x22, 0x01, 0x00, 0x00, 0x20, 0x40, 0x00, 0x00,
    0x00, 0x56, 0x00, 0x00, 0x21, 0x40, 0x00, 0x00, 0x00, 0x0E, 0x00, 0x00,
    0x22, 0x40, 0x00, 0x00, 0xC0, 0x54, 0x00, 0x00, 0x23, 0x40, 0x00, 0x00,
    0x40, 0x01, 0x00, 0x00, 0x16, 0x01, 0x09, 0x00, 0x11, 0x00, 0x00, 0x00,
    0x02, 0x00, 0x00, 0x00, 0x30, 0x40, 0x00, 0x00, 0xD0, 0x79, 0x00, 0x00,
    0x31, 0x40, 0x00, 0x00, 0x00, 0x12, 0x00, 0x00, 0x32, 0x40, 0x00, 0x00,
    0x30, 0x01, 0x00, 0x00, 0x12, 0x00, 0x01, 0x00, 0x10, 0x00, 0x00, 0x00,
    0x24, 0x40, 0x26, 0x00, 0xFF, 0xE6, 0x68, 0x4E, 0x00, 0x40, 0x00, 0x00,
    0x00, 0x00, 0x00, 0x00, 0x04, 0x01, 0x1F, 0x00, 0x05, 0x40, 0x00, 0x00,
    0x80, 0x01, 0x00, 0x00, 0x14, 0x01, 0x01, 0x00, 0x10, 0x40, 0x00, 0x00,
    0x00, 0x24, 0x00, 0x00, 0x13, 0x01, 0x01, 0x00, 0x15, 0x40, 0x00, 0x00,
    0x18, 0x00, 0x00, 0x00, 0x14, 0x40, 0x00, 0x00, 0x02, 0x00, 0x00, 0x00,
    0x16, 0x40, 0x00, 0x00, 0x01, 0x00, 0x00, 0x00, 0x18, 0x01, 0x87, 0xFF,
    0x22, 0x01, 0x04, 0x00, 0x20, 0x40, 0x00, 0x00, 0xA0, 0x12, 0x00, 0x00,
    0x21, 0x40, 0x00, 0x00, 0x90, 0x00, 0x00, 0x00, 0x22, 0x40, 0x00, 0x00,
    0x00, 0x12, 0x00, 0x00, 0x23, 0x40, 0x00, 0x00, 0xA0, 0x00, 0x00, 0x00,
    0x16, 0x01, 0x05, 0x00, 0x2F, 0x01, 0x03, 0x00, 0x11, 0x00, 0x00, 0x00,
    0x02, 0x00, 0x00, 0x00, 0x05, 0x01, 0x01, 0x00, 0x00, 0x40, 0x00, 0x00,
    0x00, 0x24, 0x00, 0x00, 0x0B, 0x01, 0x8F, 0x00, 0x0C, 0x01, 0x8F, 0x00,
    0x0A, 0x01, 0x01, 0x00, 0x04, 0x01, 0x00, 0x00, 0x05, 0x40, 0x00, 0x00,
    0x02, 0x00, 0x00, 0x00, 0x04, 0x40, 0x00, 0x00, 0x01, 0x00, 0x00, 0x00,
    0x06, 0x40, 0x00, 0x00, 0x01, 0x00, 0x00, 0x00, 0x09, 0x01, 0x87, 0xFF,
    0x14, 0x01, 0x01, 0x01, 0x10, 0x40, 0x00, 0x00, 0x20, 0x25, 0x00, 0x00,
    0x12, 0x01, 0x8F, 0x00, 0x11, 0x01, 0x00, 0x00, 0x13, 0x01, 0x00, 0x00,
    0x1B, 0x01, 0x8F, 0x00, 0x1C, 0x01, 0x8F, 0x00, 0x1A, 0x01, 0x00, 0x00,
    0x15, 0x40, 0x00, 0x00, 0x01, 0x00, 0x00, 0x00, 0x14, 0x40, 0x00, 0x00,
    0x01, 0x00, 0x00, 0x00, 0x20, 0x01, 0x01, 0x00, 0x22, 0x01, 0x00, 0x00,
    0x24, 0x40, 0x00, 0x00, 0x01, 0x00, 0x00, 0x00, 0x16, 0x01, 0x7F, 0x00,
    0x15, 0x01, 0x01, 0x00, 0x24, 0x01, 0x00, 0x01, 0x2F, 0x01, 0x00, 0x00,
    0x05, 0x00, 0x00, 0x00, 0x30, 0x40, 0x00, 0x00, 0x00, 0x7B, 0x00, 0x00,
    0x31, 0x01, 0x03, 0x01, 0x31, 0x40, 0x00, 0x00, 0x00, 0x00, 0x00, 0x00,
    0x32, 0x40, 0x00, 0x00, 0x00, 0x04, 0x00, 0x00, 0x10, 0x00, 0x00, 0x00,
    0x25, 0x40, 0x00, 0x05, 0x01, 0x00, 0x00, 0x00, 0x26, 0x40, 0x00, 0x05,
    0x01, 0x00, 0x00, 0x00, 0x0B, 0x01, 0x0B, 0x00, 0x0C, 0x01, 0x0B, 0x00,
    0x0A, 0x01, 0x0B, 0x00, 0x04, 0x01, 0x01, 0x00, 0x05, 0x40, 0x00, 0x00,
    0x18, 0x00, 0x00, 0x00, 0x04, 0x40, 0x00, 0x00, 0x02, 0x00, 0x00, 0x00,
    0x14, 0x01, 0x45, 0x01, 0x10, 0x40, 0x00, 0x00, 0x00, 0x00, 0x00, 0x00,
    0x12, 0x01, 0x0B, 0x00, 0x11, 0x01, 0x0B, 0x00, 0x13, 0x01, 0x01, 0x00,
    0x1B, 0x01, 0x0B, 0x00, 0x1C, 0x01, 0x0B, 0x00, 0x1A, 0x01, 0x0B, 0x00,
    0x15, 0x40, 0x00, 0x00, 0x00, 0x03, 0x00, 0x00, 0x14, 0x40, 0x00, 0x00,
    0x40, 0x00, 0x00, 0x00, 0x16, 0x40, 0x00, 0x00, 0x00, 0x03, 0x00, 0x00,
    0x18, 0x01, 0x7F, 0x00, 0x25, 0x01, 0x07, 0x00, 0x85, 0x01, 0x01, 0x00,
    0x8F, 0x01, 0x02, 0x00, 0x80, 0x40, 0x00, 0x00, 0x20, 0x25, 0x00, 0x00,
    0x81, 0x40, 0x00, 0x00, 0x00, 0x00, 0x00, 0x00, 0x82, 0x40, 0x00, 0x00,
    0x00, 0x00, 0x00, 0x00, 0x83, 0x40, 0x00, 0x00, 0x00, 0x00, 0x00, 0x00,
    0x8B, 0x01, 0x0B, 0x00, 0x8C, 0x01, 0x0B, 0x00, 0x8A, 0x01, 0x0B, 0x00,
    0x85, 0x40, 0x00, 0x00, 0x0C, 0x00, 0x00, 0x00, 0x84, 0x40, 0x00, 0x00,
    0x01, 0x00, 0x00, 0x00, 0x86, 0x40, 0x00, 0x00, 0x01, 0x00, 0x00, 0x00,
    0x89, 0x01, 0x87, 0xFF, 0x80, 0x01, 0x04, 0x00, 0x16, 0x01, 0x00, 0x00,
    0x15, 0x01, 0x0F, 0x00, 0x24, 0x01, 0x00, 0x02, 0x11, 0x00, 0x00, 0x00,
    0x06, 0x00, 0x02, 0x00, 0x25, 0x40, 0x00, 0x00, 0x01, 0x00, 0x00, 0x00,
    0x26, 0x40, 0x00, 0x00, 0x01, 0x00, 0x00, 0x00, 0x24, 0x40, 0x00, 0x20,
    0x01, 0x00, 0x00, 0x00, 0x05, 0x01, 0x49, 0x00, 0x00, 0x40, 0x00, 0x00,
    0x00, 0x00, 0x00, 0x00, 0x05, 0x40, 0x00, 0x00, 0x00, 0x03, 0x00, 0x00,
    0x04, 0x40, 0x00, 0x00, 0x40, 0x00, 0x00, 0x00, 0x06, 0x40, 0x00, 0x00,
    0x00, 0x03, 0x00, 0x00, 0x09, 0x01, 0x00, 0x00, 0x14, 0x01, 0x05, 0x01,
    0x10, 0x40, 0x00, 0x00, 0x00, 0x24, 0x00, 0x00, 0x15, 0x40, 0x00, 0x00,
    0x60, 0x00, 0x00, 0x00, 0x14, 0x40, 0x00, 0x00, 0x08, 0x00, 0x00, 0x00,
    0x16, 0x40, 0x00, 0x00, 0x04, 0x00, 0x00, 0x00, 0x18, 0x01, 0x00, 0x00,
    0x25, 0x01, 0x00, 0x10, 0x26, 0x01, 0x00, 0x80, 0x27, 0x01, 0xFF, 0xFF,
    0x85, 0x01, 0x09, 0xC0, 0x27, 0x40, 0x00, 0x00, 0x0C, 0x00, 0x00, 0x00,
    0x89, 0x01, 0x00, 0x00, 0x80, 0x01, 0x08, 0x00, 0x16, 0x01, 0x0B, 0x00,
    0x15, 0x01, 0x1F, 0x00, 0x06, 0x00, 0x08, 0x00, 0x05, 0x01, 0x09, 0x00,
    0x00, 0x40, 0x00, 0x00, 0x00, 0x24, 0x00, 0x00, 0x05, 0x40, 0x00, 0x00,
    0x60, 0x00, 0x00, 0x00, 0x04, 0x40, 0x00, 0x00, 0x08, 0x00, 0x00, 0x00,
    0x06, 0x40, 0x00, 0x00, 0x04, 0x00, 0x00, 0x00, 0x14, 0x01, 0x45, 0x01,
    0x10, 0x40, 0x00, 0x00, 0x00, 0x6C, 0x00, 0x00, 0x13, 0x01, 0x00, 0x00,
    0x15, 0x40, 0x00, 0x00, 0x00, 0x03, 0x00, 0x00, 0x14, 0x40, 0x00, 0x00,
    0x40, 0x00, 0x00, 0x00, 0x16, 0x40, 0x00, 0x00, 0x00, 0x03, 0x00, 0x00,
    0x20, 0x01, 0x00, 0x00, 0x15, 0x01, 0x0B, 0x00, 0x05, 0x00, 0x02, 0x00,
    0x24, 0x40, 0x00, 0x00, 0x01, 0x00, 0x00, 0x00, 0x05, 0x01, 0x49, 0x00,
    0x00, 0x40, 0x00, 0x00, 0x00, 0x6C, 0x00, 0x00, 0x04, 0x01, 0x00, 0x00,
    0x05, 0x40, 0x00, 0x00, 0x00, 0x03, 0x00, 0x00, 0x04, 0x40, 0x00, 0x00,
    0x40, 0x00, 0x00, 0x00, 0x06, 0x40, 0x00, 0x00, 0x00, 0x03, 0x00, 0x00,
    0x10, 0x40, 0x00, 0x00, 0x00, 0x90, 0x00, 0x00, 0x80, 0x01, 0x00, 0x00,
    0x15, 0x01, 0x1F, 0x00, 0x06, 0x00, 0x07, 0x00, 0x25, 0x40, 0xC0, 0x03,
    0x01, 0x00, 0x00, 0x00, 0x26, 0x40, 0xC0, 0x03, 0x01, 0x00, 0x00, 0x00,
    0x05, 0x01, 0x09, 0xC0, 0x27, 0x40, 0x00, 0x00, 0x23, 0x00, 0x00, 0x00,
    0x10, 0x40, 0x00, 0x00, 0x00, 0x24, 0x00, 0x00, 0x85, 0x01, 0x49, 0x00,
    0x80, 0x40, 0x00, 0x00, 0x00, 0x90, 0x00, 0x00, 0x85, 0x40, 0x00, 0x00,
    0x00, 0x03, 0x00, 0x00, 0x84, 0x40, 0x00, 0x00, 0x40, 0x00, 0x00, 0x00,
    0x86, 0x40, 0x00, 0x00, 0x00, 0x03, 0x00, 0x00, 0x08, 0x01, 0x08, 0x00,
    0x06, 0x00, 0x02, 0x00, 0x05, 0x01, 0x49, 0x00, 0x0F, 0x01, 0x02, 0x00,
    0x00, 0x40, 0x00, 0x00, 0x00, 0x90, 0x00, 0x00, 0x01, 0x40, 0x00, 0x00,
    0x00, 0x00, 0x00, 0x00, 0x02, 0x40, 0x00, 0x00, 0x00, 0x00, 0x00, 0x00,
    0x03, 0x40, 0x00, 0x00, 0x00, 0x00, 0x00, 0x00, 0x0B, 0x01, 0x0B, 0x00,
    0x0C, 0x01, 0x0B, 0x00, 0x0A, 0x01, 0x0B, 0x00, 0x05, 0x40, 0x00, 0x00,
    0x00, 0x03, 0x00, 0x00, 0x04, 0x40, 0x00, 0x00, 0x40, 0x00, 0x00, 0x00,
    0x06, 0x40, 0x00, 0x00, 0x00, 0x03, 0x00, 0x00, 0x09, 0x01, 0x00, 0x00,
    0x14, 0x01, 0x45, 0x81, 0x1F, 0x01, 0x00, 0x00, 0x85, 0x01, 0x09, 0xC0,
    0x27, 0x40, 0x00, 0x00, 0x01, 0x00, 0x00, 0x00, 0x89, 0x01, 0x00, 0x00,
    0x08, 0x01, 0x00, 0x00, 0x80, 0x01, 0x08, 0x00, 0x06, 0x00, 0x02, 0x00,
    0x25, 0x40, 0x00, 0x00, 0x01, 0x00, 0x00, 0x00, 0x26, 0x40, 0x00, 0x00,
    0x01, 0x00, 0x00, 0x00, 0x05, 0x01, 0x49, 0x00, 0x0F, 0x01, 0x02, 0x00,
    0x00, 0x40, 0x00, 0x00, 0x00, 0x6C, 0x00, 0x00, 0x01, 0x40, 0x00, 0x00,
    0x00, 0x00, 0x00, 0x00, 0x02, 0x40, 0x00, 0x00, 0x00, 0x00, 0x00, 0x00,
    0x03, 0x40, 0x00, 0x00, 0x00, 0x00, 0x00, 0x00, 0x0B, 0x01, 0x0B, 0x00,
    0x0C, 0x01, 0x0B, 0x00, 0x0A, 0x01, 0x0B, 0x00, 0x05, 0x40, 0x00, 0x00,
    0x00, 0x03, 0x00, 0x00, 0x04, 0x40, 0x00, 0x00, 0x40, 0x00, 0x00, 0x00,
    0x06, 0x40, 0x00, 0x00, 0x00, 0x03, 0x00, 0x00, 0x09, 0x01, 0x00, 0x00,
    0x14, 0x01, 0x45, 0x01, 0x1F, 0x01, 0x02, 0x00, 0x10, 0x40, 0x00, 0x00,
    0x00, 0x48, 0x00, 0x00, 0x85, 0x01, 0x49, 0x80, 0x8F, 0x01, 0x00, 0x00,
    0x89, 0x01, 0x00, 0x00, 0x80, 0x01, 0x00, 0x00, 0x06, 0x00, 0x09, 0x00,
    0x24, 0x40, 0x1F, 0x00, 0x00, 0x00, 0x00, 0x40, 0x05, 0x01, 0x49, 0x00,
    0x0F, 0x01, 0x02, 0x00, 0x00, 0x40, 0x00, 0x00, 0x00, 0x48, 0x00, 0x00,
    0x01, 0x40, 0x00, 0x00, 0x00, 0x00, 0x00, 0x00, 0x02, 0x40, 0x00, 0x00,
    0x00, 0x00, 0x00, 0x00, 0x03, 0x40, 0x00, 0x00, 0x00, 0x00, 0x00, 0x00,
    0x0B, 0x01, 0x0B, 0x00, 0x0C, 0x01, 0x0B, 0x00, 0x0A, 0x01, 0x0B, 0x00,
    0x05, 0x40, 0x00, 0x00, 0x00, 0x03, 0x00, 0x00, 0x04, 0x40, 0x00, 0x00,
    0x40, 0x00, 0x00, 0x00, 0x06, 0x40, 0x00, 0x00, 0x00, 0x03, 0x00, 0x00,
    0x09, 0x01, 0x00, 0x00, 0x14, 0x01, 0x45, 0x81, 0x1F, 0x01, 0x00, 0x00,
    0x85, 0x01, 0x09, 0xC0, 0x27, 0x40, 0x00, 0x00, 0xC4, 0xC3, 0xC3, 0xC3,
    0x89, 0x01, 0x00, 0x00, 0x80, 0x01, 0x08, 0x00, 0x06, 0x00, 0x00, 0x00,
    0x25, 0x40, 0xC0, 0x03, 0x01, 0x00, 0x00, 0x00, 0x26, 0x40, 0xC0, 0x03,
    0x01, 0x00, 0x00, 0x00, 0x24, 0x40, 0x00, 0x00, 0x01, 0x00, 0x00, 0x00,
    0x05, 0x01, 0x49, 0x80, 0x0F, 0x01, 0x00, 0x00, 0x09, 0x01, 0x00, 0x00,
    0x14, 0x01, 0x45, 0x01, 0x1F, 0x01, 0x02, 0x00, 0x10, 0x40, 0x00, 0x00,
    0x00, 0x90, 0x00, 0x00, 0x85, 0x01, 0x09, 0xC0, 0x27, 0x40, 0x00, 0x00,
    0x5A, 0x5A, 0x5A, 0x5A, 0x89, 0x01, 0x00, 0x00, 0x06, 0x00, 0x01, 0x00,
    0x25, 0x40, 0x00, 0x00, 0x01, 0x00, 0x00, 0x00, 0x26, 0x40, 0x00, 0x00,
    0x01, 0x00, 0x00, 0x00, 0x24, 0x40, 0x1F, 0x00, 0x00, 0x00, 0x00, 0x40,
    0x05, 0x01, 0x49, 0x00, 0x0F, 0x01, 0x02, 0x00, 0x00, 0x40, 0x00, 0x00,
    0x00, 0x90, 0x00, 0x00, 0x01, 0x40, 0x00, 0x00, 0x00, 0x00, 0x00, 0x00,
    0x02, 0x40, 0x00, 0x00, 0x00, 0x00, 0x00, 0x00, 0x03, 0x40, 0x00, 0x00,
    0x00, 0x00, 0x00, 0x00, 0x0B, 0x01, 0x0B, 0x00, 0x0C, 0x01, 0x0B, 0x00,
    0x0A, 0x01, 0x0B, 0x00, 0x05, 0x40, 0x00, 0x00, 0x00, 0x03, 0x00, 0x00,
    0x04, 0x40, 0x00, 0x00, 0x40, 0x00, 0x00, 0x00, 0x06, 0x40, 0x00, 0x00,
    0x00, 0x03, 0x00, 0x00, 0x09, 0x01, 0x00, 0x00, 0x14, 0x01, 0x45, 0x81,
    0x1F, 0x01, 0x00, 0x00, 0x85, 0x01, 0x49, 0x00, 0x8F, 0x01, 0x02, 0x00,
    0x80, 0x40, 0x00, 0x00, 0x00, 0x48, 0x00, 0x00, 0x81, 0x40, 0x00, 0x00,
    0x00, 0x00, 0x00, 0x00, 0x82, 0x40, 0x00, 0x00, 0x00, 0x00, 0x00, 0x00,
    0x83, 0x40, 0x00, 0x00, 0x00, 0x00, 0x00, 0x00, 0x8B, 0x01, 0x0B, 0x00,
    0x8C, 0x01, 0x0B, 0x00, 0x8A, 0x01, 0x0B, 0x00, 0x85, 0x40, 0x00, 0x00,
    0x00, 0x03, 0x00, 0x00, 0x84, 0x40, 0x00, 0x00, 0x40, 0x00, 0x00, 0x00,
    0x86, 0x40, 0x00, 0x00, 0x00, 0x03, 0x00, 0x00, 0x89, 0x01, 0x00, 0x00,
    0x80, 0x01, 0x00, 0x00, 0x06, 0x00, 0x00, 0x00, 0x25, 0x40, 0xC0, 0x03,
    0x01, 0x00, 0x00, 0x00, 0x26, 0x40, 0xC0, 0x03, 0x01, 0x00, 0x00, 0x00,
    0x24, 0x40, 0x00, 0x00, 0x01, 0x00, 0x00, 0x00, 0x05, 0x01, 0x09, 0xC0,
    0x27, 0x40, 0x00, 0x00, 0x00, 0x00, 0x00, 0x20, 0x09, 0x01, 0x00, 0x00,
    0x14, 0x01, 0x45, 0x81, 0x1F, 0x01, 0x01, 0x00, 0x85, 0x01, 0x49, 0x80,
    0x8F, 0x01, 0x00, 0x00, 0x89, 0x01, 0x00, 0x00, 0x08, 0x01, 0x08, 0x00,
    0x06, 0x00, 0x02, 0x00, 0x25, 0x40, 0x00, 0x00, 0x01, 0x00, 0x00, 0x00,
    0x26, 0x40, 0x00, 0x00, 0x01, 0x00, 0x00, 0x00, 0x24, 0x40, 0x1F, 0x00,
    0x00, 0x00, 0x00, 0x40, 0x05, 0x01, 0x49, 0x00, 0x0F, 0x01, 0x02, 0x00,
    0x00, 0x40, 0x00, 0x00, 0x00, 0x90, 0x00, 0x00, 0x01, 0x40, 0x00, 0x00,
    0x00, 0x00, 0x00, 0x00, 0x02, 0x40, 0x00, 0x00, 0x00, 0x00, 0x00, 0x00,
    0x03, 0x40, 0x00, 0x00, 0x00, 0x00, 0x00, 0x00, 0x0B, 0x01, 0x0B, 0x00,
    0x0C, 0x01, 0x0B, 0x00, 0x0A, 0x01, 0x0B, 0x00, 0x05, 0x40, 0x00, 0x00,
    0x00, 0x03, 0x00, 0x00, 0x04, 0x40, 0x00, 0x00, 0x40, 0x00, 0x00, 0x00,
    0x06, 0x40, 0x00, 0x00, 0x00, 0x03, 0x00, 0x00, 0x09, 0x01, 0x00, 0x00,
    0x14, 0x01, 0x45, 0x81, 0x1F, 0x01, 0x02, 0x00, 0x85, 0x01, 0x49, 0x80,
    0x8F, 0x01, 0x01, 0x00, 0x89, 0x01, 0x00, 0x00, 0x08, 0x01, 0x00, 0x00,
    0x06, 0x00, 0x00, 0x00, 0x24, 0x40, 0x00, 0x00, 0x01, 0x00, 0x00, 0x00,
    0x05, 0x01, 0x49, 0x80, 0x0F, 0x01, 0x02, 0x00, 0x09, 0x01, 0x00, 0x00,
    0x14, 0x01, 0x45, 0x01, 0x10, 0x40, 0x00, 0x00, 0x00, 0x6C, 0x00, 0x00,
    0x85, 0x01, 0x09, 0xC0, 0x27, 0x40, 0x00, 0x00, 0x04, 0x00, 0x00, 0x00,
    0x89, 0x01, 0x00, 0x00, 0x80, 0x01, 0x08, 0x00, 0x06, 0x00, 0x00, 0x00,
    0x25, 0x40, 0xC0, 0x03, 0x01, 0x00, 0x00, 0x00, 0x26, 0x40, 0xC0, 0x03,
    0x01, 0x00, 0x00, 0x00, 0x05, 0x01, 0x49, 0x00, 0x0F, 0x01, 0x02, 0x00,
    0x00, 0x40, 0x00, 0x00, 0x00, 0x90, 0x00, 0x00, 0x01, 0x40, 0x00, 0x00,
    0x00, 0x00, 0x00, 0x00, 0x02, 0x40, 0x00, 0x00, 0x00, 0x00, 0x00, 0x00,
    0x03, 0x40, 0x00, 0x00, 0x00, 0x00, 0x00, 0x00, 0x0B, 0x01, 0x0B, 0x00,
    0x0C, 0x01, 0x0B, 0x00, 0x0A, 0x01, 0x0B, 0x00, 0x05, 0x40, 0x00, 0x00,
    0x00, 0x03, 0x00, 0x00, 0x04, 0x40, 0x00, 0x00, 0x40, 0x00, 0x00, 0x00,
    0x06, 0x40, 0x00, 0x00, 0x00, 0x03, 0x00, 0x00, 0x09, 0x01, 0x00, 0x00,
    0x14, 0x01, 0x45, 0x01, 0x85, 0x01, 0x49, 0x00, 0x8F, 0x01, 0x02, 0x00,
    0x80, 0x40, 0x00, 0x00, 0x00, 0x6C, 0x00, 0x00, 0x81, 0x40, 0x00, 0x00,
    0x00, 0x00, 0x00, 0x00, 0x82, 0x40, 0x00, 0x00, 0x00, 0x00, 0x00, 0x00,
    0x83, 0x40, 0x00, 0x00, 0x00, 0x00, 0x00, 0x00, 0x8B, 0x01, 0x0B, 0x00,
    0x8C, 0x01, 0x0B, 0x00, 0x8A, 0x01, 0x0B, 0x00, 0x85, 0x40, 0x00, 0x00,
    0x00, 0x03, 0x00, 0x00, 0x84, 0x40, 0x00, 0x00, 0x40, 0x00, 0x00, 0x00,
    0x86, 0x40, 0x00, 0x00, 0x00, 0x03, 0x00, 0x00, 0x89, 0x01, 0x00, 0x00,
    0x80, 0x01, 0x00, 0x00, 0x06, 0x00, 0x01, 0x00, 0x25, 0x40, 0x00, 0x00,
    0x01, 0x00, 0x00, 0x00, 0x26, 0x40, 0x00, 0x00, 0x01, 0x00, 0x00, 0x00,
    0x24, 0x40, 0x1F, 0x00, 0x00, 0x00, 0x00, 0x40, 0x05, 0x01, 0x49, 0x00,
    0x0F, 0x01, 0x02, 0x00, 0x00, 0x40, 0x00, 0x00, 0x00, 0x6C, 0x00, 0x00,
    0x01, 0x40, 0x00, 0x00, 0x00, 0x00, 0x00, 0x00, 0x02, 0x40, 0x00, 0x00,
    0x00, 0x00, 0x00, 0x00, 0x03, 0x40, 0x00, 0x00, 0x00, 0x00, 0x00, 0x00,
    0x0B, 0x01, 0x0B, 0x00, 0x0C, 0x01, 0x0B, 0x00, 0x0A, 0x01, 0x0B, 0x00,
    0x05, 0x40, 0x00, 0x00, 0x00, 0x03, 0x00, 0x00, 0x04, 0x40, 0x00, 0x00,
    0x40, 0x00, 0x00, 0x00, 0x06, 0x40, 0x00, 0x00, 0x00, 0x03, 0x00, 0x00,
    0x09, 0x01, 0x00, 0x00, 0x14, 0x01, 0x45, 0x81, 0x1F, 0x01, 0x00, 0x00,
    0x85, 0x01, 0x49, 0x00, 0x8F, 0x01, 0x02, 0x00, 0x80, 0x40, 0x00, 0x00,
    0x00, 0x48, 0x00, 0x00, 0x81, 0x40, 0x00, 0x00, 0x00, 0x00, 0x00, 0x00,
    0x82, 0x40, 0x00, 0x00, 0x00, 0x00, 0x00, 0x00, 0x83, 0x40, 0x00, 0x00,
    0x00, 0x00, 0x00, 0x00, 0x8B, 0x01, 0x0B, 0x00, 0x8C, 0x01, 0x0B, 0x00,
    0x8A, 0x01, 0x0B, 0x00, 0x85, 0x40, 0x00, 0x00, 0x00, 0x03, 0x00, 0x00,
    0x84, 0x40, 0x00, 0x00, 0x40, 0x00, 0x00, 0x00, 0x86, 0x40, 0x00, 0x00,
    0x00, 0x03, 0x00, 0x00, 0x89, 0x01, 0x00, 0x00, 0x06, 0x00, 0x00, 0x00,
    0x25, 0x40, 0xC0, 0x03, 0x01, 0x00, 0x00, 0x00, 0x26, 0x40, 0xC0, 0x03,
    0x01, 0x00, 0x00, 0x00, 0x24, 0x40, 0x00, 0x00, 0x01, 0x00, 0x00, 0x00,
    0x05, 0x01, 0x09, 0xC0, 0x27, 0x40, 0x00, 0x00, 0x00, 0x00, 0x00, 0x20,
    0x09, 0x01, 0x00, 0x00, 0x14, 0x01, 0x45, 0x81, 0x1F, 0x01, 0x01, 0x00,
    0x85, 0x01, 0x49, 0x80, 0x8F, 0x01, 0x00, 0x00, 0x89, 0x01, 0x00, 0x00,
    0x08, 0x01, 0x08, 0x00, 0x06, 0x00, 0x02, 0x00, 0x25, 0x40, 0x00, 0x00,
    0x01, 0x00, 0x00, 0x00, 0x26, 0x40, 0x00, 0x00, 0x01, 0x00, 0x00, 0x00,
    0x24, 0x40, 0x1F, 0x00, 0x00, 0x00, 0x00, 0x40, 0x05, 0x01, 0x49, 0x00,
    0x0F, 0x01, 0x02, 0x00, 0x00, 0x40, 0x00, 0x00, 0x00, 0x6C, 0x00, 0x00,
    0x01, 0x40, 0x00, 0x00, 0x00, 0x00, 0x00, 0x00, 0x02, 0x40, 0x00, 0x00,
    0x00, 0x00, 0x00, 0x00, 0x03, 0x40, 0x00, 0x00, 0x00, 0x00, 0x00, 0x00,
    0x0B, 0x01, 0x0B, 0x00, 0x0C, 0x01, 0x0B, 0x00, 0x0A, 0x01, 0x0B, 0x00,
    0x05, 0x40, 0x00, 0x00, 0x00, 0x03, 0x00, 0x00, 0x04, 0x40, 0x00, 0x00,
    0x40, 0x00, 0x00, 0x00, 0x06, 0x40, 0x00, 0x00, 0x00, 0x03, 0x00, 0x00,
    0x09, 0x01, 0x00, 0x00, 0x14, 0x01, 0x45, 0x81, 0x1F, 0x01, 0x02, 0x00,
    0x85, 0x01, 0x49, 0x80, 0x8F, 0x01, 0x01, 0x00, 0x89, 0x01, 0x00, 0x00,
    0x08, 0x01, 0x00, 0x00, 0x06, 0x00, 0x00, 0x00, 0x24, 0x40, 0x00, 0x00,
    0x01, 0x00, 0x00, 0x00, 0x05, 0x01, 0x49, 0x80, 0x0F, 0x01, 0x02, 0x00,
    0x09, 0x01, 0x00, 0x00, 0x14, 0x01, 0x45, 0x01, 0x10, 0x40, 0x00, 0x00,
    0x00, 0x90, 0x00, 0x00, 0x85, 0x01, 0x09, 0xC0, 0x27, 0x40, 0x00, 0x00,
    0x04, 0x00, 0x00, 0x00, 0x89, 0x01, 0x00, 0x00, 0x80, 0x01, 0x08, 0x00,
    0x06, 0x00, 0x00, 0x00, 0x25, 0x40, 0xC0, 0x03, 0x01, 0x00, 0x00, 0x00,
    0x26, 0x40, 0xC0, 0x03, 0x01, 0x00, 0x00, 0x00, 0x05, 0x01, 0x49, 0x00,
    0x0F, 0x01, 0x02, 0x00, 0x00, 0x40, 0x00, 0x00, 0x00, 0x6C, 0x00, 0x00,
    0x01, 0x40, 0x00, 0x00, 0x00, 0x00, 0x00, 0x00, 0x02, 0x40, 0x00, 0x00,
    0x00, 0x00, 0x00, 0x00, 0x03, 0x40, 0x00, 0x00, 0x00, 0x00, 0x00, 0x00,
    0x0B, 0x01, 0x0B, 0x00, 0x0C, 0x01, 0x0B, 0x00, 0x0A, 0x01, 0x0B, 0x00,
    0x05, 0x40, 0x00, 0x00, 0x00, 0x03, 0x00, 0x00, 0x04, 0x40, 0x00, 0x00,
    0x40, 0x00, 0x00, 0x00, 0x06, 0x40, 0x00, 0x00, 0x00, 0x03, 0x00, 0x00,
    0x09, 0x01, 0x00, 0x00, 0x14, 0x01, 0x45, 0x01, 0x85, 0x01, 0x49, 0x00,
    0x8F, 0x01, 0x02, 0x00, 0x80, 0x40, 0x00, 0x00, 0x00, 0x90, 0x00, 0x00,
    0x81, 0x40, 0x00, 0x00, 0x00, 0x00, 0x00, 0x00, 0x82, 0x40, 0x00, 0x00,
    0x00, 0x00, 0x00, 0x00, 0x83, 0x40, 0x00, 0x00, 0x00, 0x00, 0x00, 0x00,
    0x8B, 0x01, 0x0B, 0x00, 0x8C, 0x01, 0x0B, 0x00, 0x8A, 0x01, 0x0B, 0x00,
    0x85, 0x40, 0x00, 0x00, 0x00, 0x03, 0x00, 0x00, 0x84, 0x40, 0x00, 0x00,
    0x40, 0x00, 0x00, 0x00, 0x86, 0x40, 0x00, 0x00, 0x00, 0x03, 0x00, 0x00,
    0x89, 0x01, 0x00, 0x00, 0x80, 0x01, 0x00, 0x00, 0x06, 0x00, 0x01, 0x00,
    0x25, 0x40, 0x00, 0x00, 0x01, 0x00, 0x00, 0x00, 0x26, 0x40, 0x00, 0x00,
    0x01, 0x00, 0x00, 0x00, 0x24, 0x40, 0x1F, 0x00, 0x00, 0x00, 0x00, 0x40,
    0x05, 0x01, 0x49, 0x00, 0x0F, 0x01, 0x02, 0x00, 0x00, 0x40, 0x00, 0x00,
    0x00, 0x90, 0x00, 0x00, 0x01, 0x40, 0x00, 0x00, 0x00, 0x00, 0x00, 0x00,
    0x02, 0x40, 0x00, 0x00, 0x00, 0x00, 0x00, 0x00, 0x03, 0x40, 0x00, 0x00,
    0x00, 0x00, 0x00, 0x00, 0x0B, 0x01, 0x0B, 0x00, 0x0C, 0x01, 0x0B, 0x00,
    0x0A, 0x01, 0x0B, 0x00, 0x05, 0x40, 0x00, 0x00, 0x00, 0x03, 0x00, 0x00,
    0x04, 0x40, 0x00, 0x00, 0x40, 0x00, 0x00, 0x00, 0x06, 0x40, 0x00, 0x00,
    0x00, 0x03, 0x00, 0x00, 0x09, 0x01, 0x00, 0x00, 0x14, 0x01, 0x45, 0x81,
    0x1F, 0x01, 0x00, 0x00, 0x85, 0x01, 0x49, 0x00, 0x8F, 0x01, 0x02, 0x00,
    0x80, 0x40, 0x00, 0x00, 0x00, 0x48, 0x00, 0x00, 0x81, 0x40, 0x00, 0x00,
    0x00, 0x00, 0x00, 0x00, 0x82, 0x40, 0x00, 0x00, 0x00, 0x00, 0x00, 0x00,
    0x83, 0x40, 0x00, 0x00, 0x00, 0x00, 0x00, 0x00, 0x8B, 0x01, 0x0B, 0x00,
    0x8C, 0x01, 0x0B, 0x00, 0x8A, 0x01, 0x0B, 0x00, 0x85, 0x40, 0x00, 0x00,
    0x00, 0x03, 0x00, 0x00, 0x84, 0x40, 0x00, 0x00, 0x40, 0x00, 0x00, 0x00,
    0x86, 0x40, 0x00, 0x00, 0x00, 0x03, 0x00, 0x00, 0x89, 0x01, 0x00, 0x00,
    0x06, 0x00, 0x00, 0x00, 0x25, 0x40, 0xC0, 0x03, 0x01, 0x00, 0x00, 0x00,
    0x26, 0x40, 0xC0, 0x03, 0x01, 0x00, 0x00, 0x00, 0x24, 0x40, 0x00, 0x00,
    0x01, 0x00, 0x00, 0x00, 0x05, 0x01, 0x09, 0xC0, 0x27, 0x40, 0x00, 0x00,
    0x00, 0x00, 0x00, 0x20, 0x09, 0x01, 0x00, 0x00, 0x14, 0x01, 0x45, 0x81,
    0x1F, 0x01, 0x01, 0x00, 0x85, 0x01, 0x49, 0x80, 0x8F, 0x01, 0x00, 0x00,
    0x89, 0x01, 0x00, 0x00, 0x08, 0x01, 0x08, 0x00, 0x06, 0x00, 0x02, 0x00,
    0x25, 0x40, 0x00, 0x00, 0x01, 0x00, 0x00, 0x00, 0x26, 0x40, 0x00, 0x00,
    0x01, 0x00, 0x00, 0x00, 0x24, 0x40, 0x1F, 0x00, 0x00, 0x00, 0x00, 0x40,
    0x05, 0x01, 0x49, 0x00, 0x0F, 0x01, 0x02, 0x00, 0x00, 0x40, 0x00, 0x00,
    0x00, 0x90, 0x00, 0x00, 0x01, 0x40, 0x00, 0x00, 0x00, 0x00, 0x00, 0x00,
    0x02, 0x40, 0x00, 0x00, 0x00, 0x00, 0x00, 0x00, 0x03, 0x40, 0x00, 0x00,
    0x00, 0x00, 0x00, 0x00, 0x0B, 0x01, 0x0B, 0x00, 0x0C, 0x01, 0x0B, 0x00,
    0x0A, 0x01, 0x0B, 0x00, 0x05, 0x40, 0x00, 0x00, 0x00, 0x03, 0x00, 0x00,
    0x04, 0x40, 0x00, 0x00, 0x40, 0x00, 0x00, 0x00, 0x06, 0x40, 0x00, 0x00,
    0x00, 0x03, 0x00, 0x00, 0x09, 0x01, 0x00, 0x00, 0x14, 0x01, 0x45, 0x81,
    0x1F, 0x01, 0x02, 0x00, 0x85, 0x01, 0x49, 0x80, 0x8F, 0x01, 0x01, 0x00,
    0x89, 0x01, 0x00, 0x00, 0x08, 0x01, 0x00, 0x00, 0x06, 0x00, 0x00, 0x00,
    0x24, 0x40, 0x00, 0x00, 0x01, 0x00, 0x00, 0x00, 0x05, 0x01, 0x49, 0x80,
    0x0F, 0x01, 0x02, 0x00, 0x09, 0x01, 0x00, 0x00, 0x14, 0x01, 0x45, 0x01,
    0x10, 0x40, 0x00, 0x00, 0x00, 0x6C, 0x00, 0x00, 0x85, 0x01, 0x09, 0xC0,
    0x27, 0x40, 0x00, 0x00, 0x04, 0x00, 0x00, 0x00, 0x89, 0x01, 0x00, 0x00,
    0x80, 0x01, 0x08, 0x00, 0x06, 0x00, 0x00, 0x00, 0x25, 0x40, 0xC0, 0x03,
    0x01, 0x00, 0x00, 0x00, 0x26, 0x40, 0xC0, 0x03, 0x01, 0x00, 0x00, 0x00,
    0x05, 0x01, 0x49, 0x00, 0x0F, 0x01, 0x02, 0x00, 0x00, 0x40, 0x00, 0x00,
    0x00, 0x90, 0x00, 0x00, 0x01, 0x40, 0x00, 0x00, 0x00, 0x00, 0x00, 0x00,
    0x02, 0x40, 0x00, 0x00, 0x00, 0x00, 0x00, 0x00, 0x03, 0x40, 0x00, 0x00,
    0x00, 0x00, 0x00, 0x00, 0x0B, 0x01, 0x0B, 0x00, 0x0C, 0x01, 0x0B, 0x00,
    0x0A, 0x01, 0x0B, 0x00, 0x05, 0x40, 0x00, 0x00, 0x00, 0x03, 0x00, 0x00,
    0x04, 0x40, 0x00, 0x00, 0x40, 0x00, 0x00, 0x00, 0x06, 0x40, 0x00, 0x00,
    0x00, 0x03, 0x00, 0x00, 0x09, 0x01, 0x00, 0x00, 0x14, 0x01, 0x45, 0x01,
    0x85, 0x01, 0x49, 0x00, 0x8F, 0x01, 0x02, 0x00, 0x80, 0x40, 0x00, 0x00,
    0x00, 0x6C, 0x00, 0x00, 0x81, 0x40, 0x00, 0x00, 0x00, 0x00, 0x00, 0x00,
    0x82, 0x40, 0x00, 0x00, 0x00, 0x00, 0x00, 0x00, 0x83, 0x40, 0x00, 0x00,
    0x00, 0x00, 0x00, 0x00, 0x8B, 0x01, 0x0B, 0x00, 0x8C, 0x01, 0x0B, 0x00,
    0x8A, 0x01, 0x0B, 0x00, 0x85, 0x40, 0x00, 0x00, 0x00, 0x03, 0x00, 0x00,
    0x84, 0x40, 0x00, 0x00, 0x40, 0x00, 0x00, 0x00, 0x86, 0x40, 0x00, 0x00,
    0x00, 0x03, 0x00, 0x00, 0x89, 0x01, 0x00, 0x00, 0x80, 0x01, 0x00, 0x00,
    0x06, 0x00, 0x01, 0x00, 0x25, 0x40, 0x00, 0x00, 0x01, 0x00, 0x00, 0x00,
    0x26, 0x40, 0x00, 0x00, 0x01, 0x00, 0x00, 0x00, 0x24, 0x40, 0x1E, 0x00,
    0x00, 0x00, 0x00, 0x40, 0x05, 0x01, 0x49, 0x00, 0x0F, 0x01, 0x02, 0x00,
    0x00, 0x40, 0x00, 0x00, 0x00, 0x00, 0x00, 0x00, 0x01, 0x40, 0x00, 0x00,
    0x00, 0x00, 0x00, 0x00, 0x02, 0x40, 0x00, 0x00, 0x00, 0x00, 0x00, 0x00,
    0x03, 0x40, 0x00, 0x00, 0x00, 0x00, 0x00, 0x00, 0x0B, 0x01, 0x0B, 0x00,
    0x0C, 0x01, 0x0B, 0x00, 0x0A, 0x01, 0x0B, 0x00, 0x04, 0x01, 0x01, 0x00,
    0x05, 0x40, 0x00, 0x00, 0x00, 0x03, 0x00, 0x00, 0x04, 0x40, 0x00, 0x00,
    0x40, 0x00, 0x00, 0x00, 0x06, 0x40, 0x00, 0x00, 0x00, 0x03, 0x00, 0x00,
    0x09, 0x01, 0x00, 0x00, 0x14, 0x01, 0x45, 0x81, 0x1F, 0x01, 0x00, 0x00,
    0x13, 0x01, 0x01, 0x00, 0x85, 0x01, 0x49, 0x00, 0x8F, 0x01, 0x02, 0x00,
    0x80, 0x40, 0x00, 0x00, 0x00, 0x6C, 0x00, 0x00, 0x81, 0x40, 0x00, 0x00,
    0x00, 0x00, 0x00, 0x00, 0x82, 0x40, 0x00, 0x00, 0x00, 0x00, 0x00, 0x00,
    0x83, 0x40, 0x00, 0x00, 0x00, 0x00, 0x00, 0x00, 0x8B, 0x01, 0x0B, 0x00,
    0x8C, 0x01, 0x0B, 0x00, 0x8A, 0x01, 0x0B, 0x00, 0x85, 0x40, 0x00, 0x00,
    0x00, 0x03, 0x00, 0x00, 0x84, 0x40, 0x00, 0x00, 0x40, 0x00, 0x00, 0x00,
    0x86, 0x40, 0x00, 0x00, 0x00, 0x03, 0x00, 0x00, 0x89, 0x01, 0x00, 0x00,
    0x80, 0x01, 0x04, 0x00, 0x16, 0x01, 0x00, 0x00, 0x15, 0x01, 0x03, 0x00,
    0x06, 0x00, 0x00, 0x00, 0x24, 0x40, 0x00, 0x20, 0x01, 0x00, 0x00, 0x00,
    0x05, 0x01, 0x49, 0x80, 0x0F, 0x01, 0x00, 0x00, 0x09, 0x01, 0x00, 0x00,
    0x14, 0x01, 0x01, 0x01, 0x1F, 0x01, 0x01, 0x00, 0x10, 0x40, 0x00, 0x00,
    0x00, 0x00, 0x00, 0x00, 0x15, 0x40, 0x00, 0x00, 0x18, 0x00, 0x00, 0x00,
    0x14, 0x40, 0x00, 0x00, 0x02, 0x00, 0x00, 0x00, 0x16, 0x40, 0x00, 0x00,
    0x01, 0x00, 0x00, 0x00, 0x18, 0x01, 0x80, 0xFF, 0x25, 0x01, 0x00, 0x00,
    0x26, 0x01, 0x80, 0xFF, 0x27, 0x01, 0x7F, 0x00, 0x85, 0x01, 0x49, 0x00,
    0x8F, 0x01, 0x02, 0x00, 0x80, 0x40, 0x00, 0x00, 0x00, 0x24, 0x00, 0x00,
    0x81, 0x40, 0x00, 0x00, 0x00, 0x00, 0x00, 0x00, 0x82, 0x40, 0x00, 0x00,
    0x00, 0x00, 0x00, 0x00, 0x83, 0x40, 0x00, 0x00, 0x00, 0x00, 0x00, 0x00,
    0x8B, 0x01, 0x0B, 0x00, 0x8C, 0x01, 0x0B, 0x00, 0x8A, 0x01, 0x0B, 0x00,
    0x85, 0x40, 0x00, 0x00, 0x00, 0x03, 0x00, 0x00, 0x84, 0x40, 0x00, 0x00,
    0x40, 0x00, 0x00, 0x00, 0x86, 0x40, 0x00, 0x00, 0x00, 0x03, 0x00, 0x00,
    0x89, 0x01, 0x00, 0x00, 0x06, 0x00, 0x08, 0x00, 0x00, 0x00, 0xFF, 0xFF
};
static const size_t  fomo96.tflite_cmd_size = sizeof(fomo96.tflite_cmd_data);
