/*
 * Auto-generated from: resnet_v1_8_32_tfs_int8_17_4_vela.npz
 * Do not edit by hand.
 *
 * Generated for Ethos-U direct driver invocation (no TFLM).
 * Assumes a single NPU command stream with no CPU fallback.
 */
#pragma once
#include <stdint.h>
#include <stddef.h>

// Weight region index chosen by Vela:
#define RESNET_V1_8_32_TFS_INT8_17_4_WEIGHT_REGION 0

__attribute__((aligned(32)))
static const uint8_t resnet_v1_8_32_tfs_int8_17_4_weights[] = {
    0xF9, 0x09, 0x00, 0x00, 0x4E, 0xB7, 0x6D, 0x4D, 0x26, 0x00, 0x06, 0x0E,
    0x00, 0x00, 0x26, 0xB0, 0x91, 0x50, 0x28, 0x00, 0xEF, 0x01, 0x00, 0x00,
    0x93, 0x0B, 0xA4, 0x6B, 0x27, 0x00, 0x66, 0xFE, 0xFF, 0xFF, 0x45, 0x52,
    0x62, 0x70, 0x29, 0x00, 0xBD, 0x11, 0x00, 0x00, 0x87, 0xC3, 0xF8, 0x4C,
    0x27, 0x00, 0x5B, 0x0B, 0x00, 0x00, 0x2B, 0xF3, 0xB5, 0x53, 0x27, 0x00,
    0x14, 0x0F, 0x00, 0x00, 0x77, 0xC3, 0x0A, 0x75, 0x28, 0x00, 0x44, 0x18,
    0x00, 0x00, 0xDB, 0x51, 0x6A, 0x7F, 0x28, 0x00, 0x6A, 0x1E, 0x00, 0x00,
    0x7C, 0x67, 0xC6, 0x7B, 0x29, 0x00, 0x19, 0x3A, 0x00, 0x00, 0x6E, 0x6F,
    0x6C, 0x69, 0x29, 0x00, 0xBF, 0x0E, 0x00, 0x00, 0xF8, 0x23, 0x28, 0x46,
    0x27, 0x00, 0xB9, 0x58, 0xFF, 0xFF, 0x82, 0xC0, 0xA1, 0x59, 0x2A, 0x00,
    0x33, 0x04, 0x00, 0x00, 0x5A, 0x99, 0xFB, 0x50, 0x26, 0x00, 0x6E, 0x38,
    0x00, 0x00, 0xAE, 0xC1, 0xF4, 0x7C, 0x29, 0x00, 0x32, 0xFF, 0xFF, 0xFF,
    0xAB, 0x2A, 0x7F, 0x50, 0x28, 0x00, 0xC8, 0x0F, 0x00, 0x00, 0xE5, 0xE0,
    0xCC, 0x53, 0x27, 0x00, 0x01, 0x00, 0x00, 0x00, 0x00, 0x00, 0x00, 0x00,
    0x00, 0x00, 0x00, 0x00, 0x00, 0x00, 0x3A, 0x36, 0x00, 0xB0, 0x41, 0xE2,
    0xCE, 0x01, 0x02, 0x2D, 0x3A, 0x2C, 0x28, 0x00, 0x61, 0x82, 0x9E, 0x08,
    0x1D, 0xF3, 0x00, 0x00, 0x00, 0x00, 0x00, 0x00, 0x1B, 0x12, 0xC5, 0x00,
    0x00, 0x00, 0x00, 0x00, 0x00, 0xFD, 0x02, 0x00, 0x00, 0x00, 0x00, 0x00,
    0xEA, 0xF2, 0xFB, 0x00, 0x00, 0x00, 0x00, 0x00, 0xFD, 0xFE, 0x08, 0x00,
    0x00, 0x00, 0x00, 0x00, 0xFE, 0x02, 0xF7, 0x00, 0x00, 0x00, 0x00, 0x00,
    0x3D, 0xF8, 0xC8, 0x00, 0x00, 0x00, 0x00, 0x00, 0xDC, 0x02, 0xFA, 0x00,
    0x00, 0x00, 0x00, 0x00, 0x00, 0x00, 0x00, 0x00, 0x00, 0x00, 0x00, 0x00,
    0x00, 0x00, 0x00, 0x00, 0x00, 0x00, 0x00, 0x00, 0x00, 0x00, 0x00, 0x00,
    0x00, 0x00, 0x00, 0x00, 0x00, 0x00, 0x00, 0x00, 0x00, 0x00, 0x00, 0x00,
    0x00, 0x00, 0x00, 0x00, 0x00, 0x00, 0x00, 0x00, 0x00, 0x00, 0x00, 0x00,
    0x00, 0x00, 0x00, 0x00, 0x00, 0x00, 0x00, 0x00, 0x00, 0x00, 0x00, 0x00,
    0x00, 0x00, 0x00, 0x00, 0x00, 0x00, 0x00, 0x00, 0xF8, 0xFB, 0xFE, 0x00,
    0x00, 0x00, 0x00, 0x00, 0xFF, 0x16, 0x04, 0x00, 0x00, 0x00, 0x00, 0x00,
    0x06, 0xFB, 0x01, 0x00, 0x00, 0x00, 0x00, 0x00, 0x09, 0x0F, 0xFF, 0x00,
    0x00, 0x00, 0x00, 0x00, 0x04, 0xFC, 0x08, 0x00, 0x00, 0x00, 0x00, 0x00,
    0xFC, 0x06, 0x02, 0x00, 0x00, 0x00, 0x00, 0x00, 0x7F, 0xF8, 0x91, 0x00,
    0x00, 0x00, 0x00, 0x00, 0xFC, 0x18, 0x1A, 0x00, 0x00, 0x00, 0x00, 0x00,
    0x00, 0x00, 0x00, 0x00, 0x00, 0x00, 0x00, 0x00, 0x00, 0x00, 0x00, 0x00,
    0x00, 0x00, 0x00, 0x00, 0x00, 0x00, 0x00, 0x00, 0x00, 0x00, 0x00, 0x00,
    0x00, 0x00, 0x00, 0x00, 0x00, 0x00, 0x00, 0x00, 0x00, 0x00, 0x00, 0x00,
    0x00, 0x00, 0x00, 0x00, 0x00, 0x00, 0x00, 0x00, 0x00, 0x00, 0x00, 0x00,
    0x00, 0x00, 0x00, 0x00, 0x00, 0x00, 0x00, 0x00, 0x00, 0x00, 0x00, 0x00,
    0x00, 0x00, 0x00, 0x00, 0xE8, 0x1B, 0x05, 0x00, 0x00, 0x00, 0x00, 0x00,
    0x0E, 0x08, 0xD8, 0x00, 0x00, 0x00, 0x00, 0x00, 0x02, 0xFA, 0x03, 0x00,
    0x00, 0x00, 0x00, 0x00, 0x18, 0x0D, 0x02, 0x00, 0x00, 0x00, 0x00, 0x00,
    0xF0, 0xFC, 0x02, 0x00, 0x00, 0x00, 0x00, 0x00, 0x0A, 0xFE, 0x0F, 0x00,
    0x00, 0x00, 0x00, 0x00, 0x5A, 0xE2, 0xAB, 0x00, 0x00, 0x00, 0x00, 0x00,
    0xF9, 0x00, 0xF8, 0x00, 0x00, 0x00, 0x00, 0x00, 0x00, 0x00, 0x00, 0x00,
    0x00, 0x00, 0x00, 0x00, 0x00, 0x00, 0x00, 0x00, 0x00, 0x00, 0x00, 0x00,
    0x00, 0x00, 0x00, 0x00, 0x00, 0x00, 0x00, 0x00, 0x00, 0x00, 0x00, 0x00,
    0x00, 0x00, 0x00, 0x00, 0x00, 0x00, 0x00, 0x00, 0x00, 0x00, 0x00, 0x00,
    0x00, 0x00, 0x00, 0x00, 0x00, 0x00, 0x00, 0x00, 0x00, 0x00, 0x00, 0x00,
    0x00, 0x00, 0x00, 0x00, 0x00, 0x00, 0x00, 0x00, 0x00, 0x00, 0x00, 0x00,
    0xB8, 0x2A, 0x26, 0x00, 0x00, 0x00, 0x00, 0x00, 0xD1, 0xF8, 0x3C, 0x00,
    0x00, 0x00, 0x00, 0x00, 0xF3, 0x07, 0x03, 0x00, 0x00, 0x00, 0x00, 0x00,
    0xDF, 0xD3, 0xE9, 0x00, 0x00, 0x00, 0x00, 0x00, 0x06, 0x03, 0xFF, 0x00,
    0x00, 0x00, 0x00, 0x00, 0xD4, 0x81, 0xCD, 0x00, 0x00, 0x00, 0x00, 0x00,
    0x07, 0x14, 0x00, 0x00, 0x00, 0x00, 0x00, 0x00, 0x0F, 0xFC, 0xDF, 0x00,
    0x00, 0x00, 0x00, 0x00, 0x00, 0x00, 0x00, 0x00, 0x00, 0x00, 0x00, 0x00,
    0x00, 0x00, 0x00, 0x00, 0x00, 0x00, 0x00, 0x00, 0x00, 0x00, 0x00, 0x00,
    0x00, 0x00, 0x00, 0x00, 0x00, 0x00, 0x00, 0x00, 0x00, 0x00, 0x00, 0x00,
    0x00, 0x00, 0x00, 0x00, 0x00, 0x00, 0x00, 0x00, 0x00, 0x00, 0x00, 0x00,
    0x00, 0x00, 0x00, 0x00, 0x00, 0x00, 0x00, 0x00, 0x00, 0x00, 0x00, 0x00,
    0x00, 0x00, 0x00, 0x00, 0x00, 0x00, 0x00, 0x00, 0xCF, 0xF8, 0x33, 0x00,
    0x00, 0x00, 0x00, 0x00, 0x8B, 0xE7, 0x7F, 0x00, 0x00, 0x00, 0x00, 0x00,
    0x00, 0x7F, 0x8A, 0x00, 0x00, 0x00, 0x00, 0x00, 0xEB, 0xFC, 0xDF, 0x00,
    0x00, 0x00, 0x00, 0x00, 0xD0, 0x90, 0x81, 0x00, 0x00, 0x00, 0x00, 0x00,
    0x38, 0x43, 0x4D, 0x00, 0x00, 0x00, 0x00, 0x00, 0x03, 0x05, 0xF2, 0x00,
    0x00, 0x00, 0x00, 0x00, 0x67, 0x7F, 0x68, 0x00, 0x00, 0x00, 0x00, 0x00,
    0x00, 0x00, 0x00, 0x00, 0x00, 0x00, 0x00, 0x00, 0x00, 0x00, 0x00, 0x00,
    0x00, 0x00, 0x00, 0x00, 0x00, 0x00, 0x00, 0x00, 0x00, 0x00, 0x00, 0x00,
    0x00, 0x00, 0x00, 0x00, 0x00, 0x00, 0x00, 0x00, 0x00, 0x00, 0x00, 0x00,
    0x00, 0x00, 0x00, 0x00, 0x00, 0x00, 0x00, 0x00, 0x00, 0x00, 0x00, 0x00,
    0x00, 0x00, 0x00, 0x00, 0x00, 0x00, 0x00, 0x00, 0x00, 0x00, 0x00, 0x00,
    0x00, 0x00, 0x00, 0x00, 0x7F, 0xCD, 0xAF, 0x00, 0x00, 0x00, 0x00, 0x00,
    0x15, 0x26, 0xEB, 0x00, 0x00, 0x00, 0x00, 0x00, 0xF5, 0x0A, 0xFF, 0x00,
    0x00, 0x00, 0x00, 0x00, 0x00, 0x06, 0x24, 0x00, 0x00, 0x00, 0x00, 0x00,
    0x48, 0x74, 0x68, 0x00, 0x00, 0x00, 0x00, 0x00, 0xFC, 0x0D, 0xF4, 0x00,
    0x00, 0x00, 0x00, 0x00, 0xF5, 0xE8, 0x11, 0x00, 0x00, 0x00, 0x00, 0x00,
    0xAB, 0x94, 0x90, 0x00, 0x00, 0x00, 0x00, 0x00, 0x00, 0x00, 0x00, 0x00,
    0x00, 0x00, 0x00, 0x00, 0x00, 0x00, 0x00, 0x00, 0x00, 0x00, 0x00, 0x00,
    0x00, 0x00, 0x00, 0x00, 0x00, 0x00, 0x00, 0x00, 0x00, 0x00, 0x00, 0x00,
    0x00, 0x00, 0x00, 0x00, 0x00, 0x00, 0x00, 0x00, 0x00, 0x00, 0x00, 0x00,
    0x00, 0x00, 0x00, 0x00, 0x00, 0x00, 0x00, 0x00, 0x00, 0x00, 0x00, 0x00,
    0x00, 0x00, 0x00, 0x00, 0x00, 0x00, 0x00, 0x00, 0x00, 0x00, 0x00, 0x00,
    0x27, 0xDB, 0xFC, 0x00, 0x00, 0x00, 0x00, 0x00, 0xD9, 0x52, 0xB9, 0x00,
    0x00, 0x00, 0x00, 0x00, 0x08, 0xFB, 0xFE, 0x00, 0x00, 0x00, 0x00, 0x00,
    0x50, 0x63, 0x61, 0x00, 0x00, 0x00, 0x00, 0x00, 0x1C, 0x2B, 0x31, 0x00,
    0x00, 0x00, 0x00, 0x00, 0xF9, 0x03, 0xF7, 0x00, 0x00, 0x00, 0x00, 0x00,
    0xB6, 0x14, 0x35, 0x00, 0x00, 0x00, 0x00, 0x00, 0x2F, 0x3C, 0x1E, 0x00,
    0x00, 0x00, 0x00, 0x00, 0x00, 0x00, 0x00, 0x00, 0x00, 0x00, 0x00, 0x00,
    0x00, 0x00, 0x00, 0x00, 0x00, 0x00, 0x00, 0x00, 0x00, 0x00, 0x00, 0x00,
    0x00, 0x00, 0x00, 0x00, 0x00, 0x00, 0x00, 0x00, 0x00, 0x00, 0x00, 0x00,
    0x00, 0x00, 0x00, 0x00, 0x00, 0x00, 0x00, 0x00, 0x00, 0x00, 0x00, 0x00,
    0x00, 0x00, 0x00, 0x00, 0x00, 0x00, 0x00, 0x00, 0x00, 0x00, 0x00, 0x00,
    0x00, 0x00, 0x00, 0x00, 0x00, 0x00, 0x00, 0x00, 0xE8, 0x16, 0x07, 0x00,
    0x00, 0x00, 0x00, 0x00, 0x84, 0x21, 0x69, 0x00, 0x00, 0x00, 0x00, 0x00,
    0xE4, 0x45, 0xCE, 0x00, 0x00, 0x00, 0x00, 0x00, 0x36, 0x3B, 0x12, 0x00,
    0x00, 0x00, 0x00, 0x00, 0xD2, 0xD7, 0xD6, 0x00, 0x00, 0x00, 0x00, 0x00,
    0xC3, 0xDA, 0xE0, 0x00, 0x00, 0x00, 0x00, 0x00, 0x9A, 0x28, 0x6A, 0x00,
    0x00, 0x00, 0x00, 0x00, 0xCA, 0xB9, 0xF9, 0x00, 0x00, 0x00, 0x00, 0x00,
    0x00, 0x00, 0x00, 0x00, 0x00, 0x00, 0x00, 0x00, 0x00, 0x00, 0x00, 0x00,
    0x00, 0x00, 0x00, 0x00, 0x00, 0x00, 0x00, 0x00, 0x00, 0x00, 0x00, 0x00,
    0x00, 0x00, 0x00, 0x00, 0x00, 0x00, 0x00, 0x00, 0x00, 0x00, 0x00, 0x00,
    0x00, 0x00, 0x00, 0x00, 0x00, 0x00, 0x00, 0x00, 0x00, 0x00, 0x00, 0x00,
    0x00, 0x00, 0x00, 0x00, 0x00, 0x00, 0x00, 0x00, 0x00, 0x00, 0x00, 0x00,
    0x00, 0x00, 0x00, 0x00, 0xE8, 0x1D, 0xF5, 0x00, 0x00, 0x00, 0x00, 0x00,
    0xC0, 0x18, 0x14, 0x00, 0x00, 0x00, 0x00, 0x00, 0x04, 0xFC, 0x07, 0x00,
    0x00, 0x00, 0x00, 0x00, 0xA2, 0x81, 0xA3, 0x00, 0x00, 0x00, 0x00, 0x00,
    0x04, 0xFF, 0xFD, 0x00, 0x00, 0x00, 0x00, 0x00, 0x48, 0x2C, 0x30, 0x00,
    0x00, 0x00, 0x00, 0x00, 0x89, 0x11, 0x48, 0x00, 0x00, 0x00, 0x00, 0x00,
    0x0F, 0xED, 0xF7, 0x00, 0x00, 0x00, 0x00, 0x00, 0x00, 0x00, 0x00, 0x00,
    0x00, 0x00, 0x00, 0x00, 0x00, 0x00, 0x00, 0x00, 0x00, 0x00, 0x00, 0x00,
    0x00, 0x00, 0x00, 0x00, 0x00, 0x00, 0x00, 0x00, 0x00, 0x00, 0x00, 0x00,
    0x00, 0x00, 0x00, 0x00, 0x00, 0x00, 0x00, 0x00, 0x00, 0x00, 0x00, 0x00,
    0x00, 0x00, 0x00, 0x00, 0x00, 0x00, 0x00, 0x00, 0x00, 0x00, 0x00, 0x00,
    0x00, 0x00, 0x00, 0x00, 0x00, 0x00, 0x00, 0x00, 0x00, 0x00, 0x00, 0x00,
    0x00, 0x00, 0x00, 0x00, 0x00, 0x00, 0x00, 0x00, 0x00, 0x00, 0x00, 0x00,
    0x00, 0x00, 0x00, 0x00, 0x00, 0x00, 0x00, 0x00, 0x00, 0x00, 0x00, 0x00,
    0x00, 0x00, 0x00, 0x00, 0x00, 0x00, 0x00, 0x00, 0x00, 0x00, 0x00, 0x00,
    0x00, 0x00, 0x00, 0x00, 0x00, 0x00, 0x00, 0x00, 0x00, 0x00, 0x00, 0x00,
    0x00, 0x00, 0x00, 0x00, 0x00, 0x00, 0x00, 0x00, 0x00, 0x00, 0x00, 0x00,
    0x00, 0x00, 0x00, 0x00, 0x00, 0x00, 0x00, 0x00, 0x00, 0x00, 0x00, 0x00,
    0x00, 0x00, 0x00, 0x00, 0x00, 0x00, 0x00, 0x00, 0x00, 0x00, 0x00, 0x00,
    0x00, 0x00, 0x00, 0x00, 0x00, 0x00, 0x00, 0x00, 0x00, 0x00, 0x00, 0x00,
    0x00, 0x00, 0x00, 0x00, 0x00, 0x00, 0x00, 0x00, 0x00, 0x00, 0x00, 0x00,
    0x00, 0x00, 0x00, 0x00, 0x00, 0x00, 0x00, 0x00, 0x00, 0x00, 0x00, 0x00,
    0x00, 0x00, 0x00, 0x00, 0x00, 0x00, 0x00, 0x00, 0xF5, 0xF8, 0xF3, 0x00,
    0x00, 0x00, 0x00, 0x00, 0x22, 0x46, 0x5B, 0x00, 0x00, 0x00, 0x00, 0x00,
    0xFB, 0xFC, 0x02, 0x00, 0x00, 0x00, 0x00, 0x00, 0x12, 0x08, 0x08, 0x00,
    0x00, 0x00, 0x00, 0x00, 0xFA, 0x01, 0x00, 0x00, 0x00, 0x00, 0x00, 0x00,
    0x0D, 0x36, 0xED, 0x00, 0x00, 0x00, 0x00, 0x00, 0x09, 0xEF, 0xFA, 0x00,
    0x00, 0x00, 0x00, 0x00, 0x1C, 0xE7, 0xEB, 0x00, 0x00, 0x00, 0x00, 0x00,
    0x00, 0x00, 0x00, 0x00, 0x00, 0x00, 0x00, 0x00, 0x00, 0x00, 0x00, 0x00,
    0x00, 0x00, 0x00, 0x00, 0x00, 0x00, 0x00, 0x00, 0x00, 0x00, 0x00, 0x00,
    0x00, 0x00, 0x00, 0x00, 0x00, 0x00, 0x00, 0x00, 0x00, 0x00, 0x00, 0x00,
    0x00, 0x00, 0x00, 0x00, 0x00, 0x00, 0x00, 0x00, 0x00, 0x00, 0x00, 0x00,
    0x00, 0x00, 0x00, 0x00, 0x00, 0x00, 0x00, 0x00, 0x00, 0x00, 0x00, 0x00,
    0x00, 0x00, 0x00, 0x00, 0xD1, 0x06, 0xD8, 0x00, 0x00, 0x00, 0x00, 0x00,
    0x6F, 0x61, 0x6C, 0x00, 0x00, 0x00, 0x00, 0x00, 0xEF, 0x03, 0x02, 0x00,
    0x00, 0x00, 0x00, 0x00, 0x57, 0x60, 0x5C, 0x00, 0x00, 0x00, 0x00, 0x00,
    0x19, 0xE8, 0x00, 0x00, 0x00, 0x00, 0x00, 0x00, 0xC2, 0xCB, 0x08, 0x00,
    0x00, 0x00, 0x00, 0x00, 0xEC, 0xED, 0xF6, 0x00, 0x00, 0x00, 0x00, 0x00,
    0x0C, 0xF7, 0x15, 0x00, 0x00, 0x00, 0x00, 0x00, 0x00, 0x00, 0x00, 0x00,
    0x00, 0x00, 0x00, 0x00, 0x00, 0x00, 0x00, 0x00, 0x00, 0x00, 0x00, 0x00,
    0x00, 0x00, 0x00, 0x00, 0x00, 0x00, 0x00, 0x00, 0x00, 0x00, 0x00, 0x00,
    0x00, 0x00, 0x00, 0x00, 0x00, 0x00, 0x00, 0x00, 0x00, 0x00, 0x00, 0x00,
    0x00, 0x00, 0x00, 0x00, 0x00, 0x00, 0x00, 0x00, 0x00, 0x00, 0x00, 0x00,
    0x00, 0x00, 0x00, 0x00, 0x00, 0x00, 0x00, 0x00, 0x00, 0x00, 0x00, 0x00,
    0xE1, 0x06, 0xBE, 0x00, 0x00, 0x00, 0x00, 0x00, 0x32, 0x31, 0x1E, 0x00,
    0x00, 0x00, 0x00, 0x00, 0x22, 0x2A, 0x22, 0x00, 0x00, 0x00, 0x00, 0x00,
    0x98, 0xC2, 0xFA, 0x00, 0x00, 0x00, 0x00, 0x00, 0xF5, 0x06, 0x06, 0x00,
    0x00, 0x00, 0x00, 0x00, 0x81, 0x8F, 0xF0, 0x00, 0x00, 0x00, 0x00, 0x00,
    0x04, 0xF1, 0x0A, 0x00, 0x00, 0x00, 0x00, 0x00, 0x0C, 0xF3, 0xF0, 0x00,
    0x00, 0x00, 0x00, 0x00, 0x00, 0x00, 0x00, 0x00, 0x00, 0x00, 0x00, 0x00,
    0x00, 0x00, 0x00, 0x00, 0x00, 0x00, 0x00, 0x00, 0x00, 0x00, 0x00, 0x00,
    0x00, 0x00, 0x00, 0x00, 0x00, 0x00, 0x00, 0x00, 0x00, 0x00, 0x00, 0x00,
    0x00, 0x00, 0x00, 0x00, 0x00, 0x00, 0x00, 0x00, 0x00, 0x00, 0x00, 0x00,
    0x00, 0x00, 0x00, 0x00, 0x00, 0x00, 0x00, 0x00, 0x00, 0x00, 0x00, 0x00,
    0x00, 0x00, 0x00, 0x00, 0x00, 0x00, 0x00, 0x00, 0xF1, 0x01, 0xEA, 0x00,
    0x00, 0x00, 0x00, 0x00, 0x10, 0xE4, 0xC8, 0x00, 0x00, 0x00, 0x00, 0x00,
    0x4C, 0x21, 0x0D, 0x00, 0x00, 0x00, 0x00, 0x00, 0xF9, 0xFE, 0xE9, 0x00,
    0x00, 0x00, 0x00, 0x00, 0x01, 0xF3, 0x0D, 0x00, 0x00, 0x00, 0x00, 0x00,
    0x19, 0x0C, 0x6A, 0x00, 0x00, 0x00, 0x00, 0x00, 0x7F, 0x72, 0x6F, 0x00,
    0x00, 0x00, 0x00, 0x00, 0x04, 0xF2, 0x20, 0x00, 0x00, 0x00, 0x00, 0x00,
    0x00, 0x00, 0x00, 0x00, 0x00, 0x00, 0x00, 0x00, 0x00, 0x00, 0x00, 0x00,
    0x00, 0x00, 0x00, 0x00, 0x00, 0x00, 0x00, 0x00, 0x00, 0x00, 0x00, 0x00,
    0x00, 0x00, 0x00, 0x00, 0x00, 0x00, 0x00, 0x00, 0x00, 0x00, 0x00, 0x00,
    0x00, 0x00, 0x00, 0x00, 0x00, 0x00, 0x00, 0x00, 0x00, 0x00, 0x00, 0x00,
    0x00, 0x00, 0x00, 0x00, 0x00, 0x00, 0x00, 0x00, 0x00, 0x00, 0x00, 0x00,
    0x00, 0x00, 0x00, 0x00, 0xBA, 0xE5, 0xDB, 0x00, 0x00, 0x00, 0x00, 0x00,
    0xA6, 0x81, 0xA8, 0x00, 0x00, 0x00, 0x00, 0x00, 0x81, 0x86, 0xCD, 0x00,
    0x00, 0x00, 0x00, 0x00, 0x73, 0x7F, 0x54, 0x00, 0x00, 0x00, 0x00, 0x00,
    0x7F, 0xA9, 0xDF, 0x00, 0x00, 0x00, 0x00, 0x00, 0x4D, 0x60, 0x6E, 0x00,
    0x00, 0x00, 0x00, 0x00, 0xE7, 0x12, 0x16, 0x00, 0x00, 0x00, 0x00, 0x00,
    0xA5, 0xC5, 0x7F, 0x00, 0x00, 0x00, 0x00, 0x00, 0x00, 0x00, 0x00, 0x00,
    0x00, 0x00, 0x00, 0x00, 0x00, 0x00, 0x00, 0x00, 0x00, 0x00, 0x00, 0x00,
    0x00, 0x00, 0x00, 0x00, 0x00, 0x00, 0x00, 0x00, 0x00, 0x00, 0x00, 0x00,
    0x00, 0x00, 0x00, 0x00, 0x00, 0x00, 0x00, 0x00, 0x00, 0x00, 0x00, 0x00,
    0x00, 0x00, 0x00, 0x00, 0x00, 0x00, 0x00, 0x00, 0x00, 0x00, 0x00, 0x00,
    0x00, 0x00, 0x00, 0x00, 0x00, 0x00, 0x00, 0x00, 0x00, 0x00, 0x00, 0x00,
    0xE1, 0xE3, 0xC8, 0x00, 0x00, 0x00, 0x00, 0x00, 0xD4, 0xDE, 0xE4, 0x00,
    0x00, 0x00, 0x00, 0x00, 0x01, 0x09, 0x03, 0x00, 0x00, 0x00, 0x00, 0x00,
    0x2D, 0x1E, 0x34, 0x00, 0x00, 0x00, 0x00, 0x00, 0xE8, 0x0B, 0x0A, 0x00,
    0x00, 0x00, 0x00, 0x00, 0x23, 0x1D, 0xB6, 0x00, 0x00, 0x00, 0x00, 0x00,
    0xAD, 0x9E, 0x90, 0x00, 0x00, 0x00, 0x00, 0x00, 0xFC, 0xEF, 0x24, 0x00,
    0x00, 0x00, 0x00, 0x00, 0x00, 0x00, 0x00, 0x00, 0x00, 0x00, 0x00, 0x00,
    0x00, 0x00, 0x00, 0x00, 0x00, 0x00, 0x00, 0x00, 0x00, 0x00, 0x00, 0x00,
    0x00, 0x00, 0x00, 0x00, 0x00, 0x00, 0x00, 0x00, 0x00, 0x00, 0x00, 0x00,
    0x00, 0x00, 0x00, 0x00, 0x00, 0x00, 0x00, 0x00, 0x00, 0x00, 0x00, 0x00,
    0x00, 0x00, 0x00, 0x00, 0x00, 0x00, 0x00, 0x00, 0x00, 0x00, 0x00, 0x00,
    0x00, 0x00, 0x00, 0x00, 0x00, 0x00, 0x00, 0x00, 0x3A, 0xF0, 0x26, 0x00,
    0x00, 0x00, 0x00, 0x00, 0xEA, 0x0A, 0xDE, 0x00, 0x00, 0x00, 0x00, 0x00,
    0xFA, 0x09, 0xFE, 0x00, 0x00, 0x00, 0x00, 0x00, 0xDF, 0x91, 0xF2, 0x00,
    0x00, 0x00, 0x00, 0x00, 0xFB, 0x0D, 0xF5, 0x00, 0x00, 0x00, 0x00, 0x00,
    0xEB, 0x08, 0xCE, 0x00, 0x00, 0x00, 0x00, 0x00, 0x06, 0x07, 0xF6, 0x00,
    0x00, 0x00, 0x00, 0x00, 0x20, 0xD9, 0x0D, 0x00, 0x00, 0x00, 0x00, 0x00,
    0x00, 0x00, 0x00, 0x00, 0x00, 0x00, 0x00, 0x00, 0x00, 0x00, 0x00, 0x00,
    0x00, 0x00, 0x00, 0x00, 0x00, 0x00, 0x00, 0x00, 0x00, 0x00, 0x00, 0x00,
    0x00, 0x00, 0x00, 0x00, 0x00, 0x00, 0x00, 0x00, 0x00, 0x00, 0x00, 0x00,
    0x00, 0x00, 0x00, 0x00, 0x00, 0x00, 0x00, 0x00, 0x00, 0x00, 0x00, 0x00,
    0x00, 0x00, 0x00, 0x00, 0x00, 0x00, 0x00, 0x00, 0x00, 0x00, 0x00, 0x00,
    0x00, 0x00, 0x00, 0x00, 0x5B, 0x3E, 0x7F, 0x00, 0x00, 0x00, 0x00, 0x00,
    0xD8, 0xE7, 0x02, 0x00, 0x00, 0x00, 0x00, 0x00, 0xDE, 0xE0, 0x0B, 0x00,
    0x00, 0x00, 0x00, 0x00, 0x38, 0x03, 0x1C, 0x00, 0x00, 0x00, 0x00, 0x00,
    0xEC, 0x07, 0x10, 0x00, 0x00, 0x00, 0x00, 0x00, 0x23, 0x0C, 0xE0, 0x00,
    0x00, 0x00, 0x00, 0x00, 0xEC, 0xFB, 0xF1, 0x00, 0x00, 0x00, 0x00, 0x00,
    0x0C, 0xD0, 0x20, 0x00, 0x00, 0x00, 0x00, 0x00, 0x00, 0x00, 0x00, 0x00,
    0x00, 0x00, 0x00, 0x00, 0x00, 0x00, 0x00, 0x00, 0x00, 0x00, 0x00, 0x00,
    0x00, 0x00, 0x00, 0x00, 0x00, 0x00, 0x00, 0x00, 0x00, 0x00, 0x00, 0x00,
    0x00, 0x00, 0x00, 0x00, 0x00, 0x00, 0x00, 0x00, 0x00, 0x00, 0x00, 0x00,
    0x00, 0x00, 0x00, 0x00, 0x00, 0x00, 0x00, 0x00, 0x00, 0x00, 0x00, 0x00,
    0x00, 0x00, 0x00, 0x00, 0x00, 0x00, 0x00, 0x00, 0x00, 0x00, 0x00, 0x00,
    0x2C, 0x14, 0x41, 0x00, 0x00, 0x00, 0x00, 0x00, 0xE4, 0xEB, 0xF3, 0x00,
    0x00, 0x00, 0x00, 0x00, 0x51, 0x31, 0x01, 0x00, 0x00, 0x00, 0x00, 0x00,
    0xCB, 0x9E, 0xB7, 0x00, 0x00, 0x00, 0x00, 0x00, 0xF6, 0x08, 0xFF, 0x00,
    0x00, 0x00, 0x00, 0x00, 0xEE, 0xE5, 0xDA, 0x00, 0x00, 0x00, 0x00, 0x00,
    0x07, 0x06, 0x07, 0x00, 0x00, 0x00, 0x00, 0x00, 0x24, 0xEF, 0xE3, 0x00,
    0x00, 0x00, 0x00, 0x00, 0x00, 0x00, 0x00, 0x00, 0x00, 0x00, 0x00, 0x00,
    0x00, 0x00, 0x00, 0x00, 0x00, 0x00, 0x00, 0x00, 0x00, 0x00, 0x00, 0x00,
    0x00, 0x00, 0x00, 0x00, 0x00, 0x00, 0x00, 0x00, 0x00, 0x00, 0x00, 0x00,
    0x00, 0x00, 0x00, 0x00, 0x00, 0x00, 0x00, 0x00, 0x00, 0x00, 0x00, 0x00,
    0x00, 0x00, 0x00, 0x00, 0x00, 0x00, 0x00, 0x00, 0x00, 0x00, 0x00, 0x00,
    0x00, 0x00, 0x00, 0x00, 0x00, 0x00, 0x00, 0x00, 0x00, 0x00, 0x00, 0x00,
    0x00, 0x00, 0x00, 0x00, 0x00, 0x00, 0x00, 0x00, 0x00, 0x00, 0x00, 0x00,
    0x00, 0x00, 0x00, 0x00, 0x00, 0x00, 0x00, 0x00, 0x00, 0x00, 0x00, 0x00,
    0x00, 0x00, 0x00, 0x00, 0x00, 0x00, 0x00, 0x00, 0x00, 0x00, 0x00, 0x00,
    0x00, 0x00, 0x00, 0x00, 0x00, 0x00, 0x00, 0x00, 0x00, 0x00, 0x00, 0x00,
    0x00, 0x00, 0x00, 0x00, 0x00, 0x00, 0x00, 0x00, 0x00, 0x00, 0x00, 0x00,
    0x00, 0x00, 0x00, 0x00, 0x00, 0x00, 0x00, 0x00, 0x00, 0x00, 0x00, 0x00,
    0x00, 0x00, 0x00, 0x00, 0x00, 0x00, 0x00, 0x00, 0x00, 0x00, 0x00, 0x00,
    0x00, 0x00, 0x00, 0x00, 0x00, 0x00, 0x00, 0x00, 0x00, 0x00, 0x00, 0x00,
    0x00, 0x00, 0x00, 0x00, 0x00, 0x00, 0x00, 0x00, 0x00, 0x00, 0x00, 0x00,
    0x00, 0x00, 0x00, 0x00, 0x00, 0x00, 0x00, 0x00, 0x00, 0x00, 0x00, 0x00,
    0x00, 0x00, 0x00, 0x00, 0xB6, 0x0C, 0x00, 0x00, 0x14, 0x10, 0x62, 0x40,
    0x26, 0x00, 0x2C, 0x08, 0x00, 0x00, 0x2C, 0x20, 0x6B, 0x42, 0x25, 0x00,
    0xA2, 0x10, 0x00, 0x00, 0x0D, 0x87, 0x9E, 0x64, 0x27, 0x00, 0x52, 0x15,
    0x00, 0x00, 0xCA, 0x75, 0x92, 0x40, 0x26, 0x00, 0x68, 0x0A, 0x00, 0x00,
    0xA3, 0x19, 0x42, 0x53, 0x26, 0x00, 0xF2, 0xFD, 0xFF, 0xFF, 0x90, 0xA3,
    0x45, 0x48, 0x27, 0x00, 0xA4, 0x14, 0x00, 0x00, 0x3E, 0xC1, 0x03, 0x66,
    0x27, 0x00, 0xD9, 0x22, 0x00, 0x00, 0xCA, 0xAB, 0x80, 0x41, 0x27, 0x00,
    0x33, 0x03, 0x00, 0x00, 0xF5, 0xDE, 0xBF, 0x53, 0x26, 0x00, 0xB4, 0x08,
    0x00, 0x00, 0x0D, 0x17, 0xA1, 0x69, 0x27, 0x00, 0xF1, 0x08, 0x00, 0x00,
    0xEB, 0xAC, 0x8A, 0x7C, 0x27, 0x00, 0xDD, 0x2A, 0x00, 0x00, 0x34, 0x9A,
    0x9C, 0x4F, 0x27, 0x00, 0xB0, 0x00, 0x00, 0x00, 0x9E, 0xE2, 0x1B, 0x45,
    0x26, 0x00, 0xDE, 0x04, 0x00, 0x00, 0xA1, 0x48, 0xA9, 0x59, 0x26, 0x00,
    0x86, 0x06, 0x00, 0x00, 0xF1, 0x19, 0x03, 0x50, 0x27, 0x00, 0x7C, 0x08,
    0x00, 0x00, 0x0B, 0x1E, 0xA2, 0x69, 0x26, 0x00, 0x01, 0x00, 0x00, 0x00,
    0x00, 0x00, 0x00, 0x00, 0x00, 0x00, 0x00, 0x00, 0x00, 0x00, 0x16, 0x86,
    0xC8, 0x78, 0x41, 0xC1, 0xC0, 0x02, 0x08, 0x1D, 0xBC, 0x1C, 0x90, 0x00,
    0x40, 0x04, 0x09, 0x10, 0x0B, 0xDF, 0x19, 0xE9, 0x0A, 0x03, 0xFB, 0x08,
    0xF2, 0x2F, 0xFD, 0x09, 0x00, 0x11, 0x12, 0x10, 0x01, 0xE3, 0x0D, 0xEE,
    0x30, 0x2F, 0x0F, 0xE4, 0xD9, 0xDA, 0xCB, 0xF9, 0xFF, 0x00, 0xDD, 0xF8,
    0xEE, 0xE8, 0x8A, 0x36, 0x0D, 0xD6, 0x13, 0x0B, 0xFC, 0x31, 0x00, 0xDA,
    0xFC, 0x01, 0x21, 0xED, 0xFE, 0xCF, 0xE3, 0x16, 0x21, 0x30, 0x0A, 0x0F,
    0x03, 0x16, 0xC8, 0x1A, 0xF6, 0xEB, 0xFC, 0xE4, 0xE9, 0x00, 0x14, 0x01,
    0x0C, 0x21, 0x11, 0xDF, 0xFF, 0x02, 0x0B, 0xE7, 0x15, 0x04, 0xE6, 0xFF,
    0x2C, 0xD9, 0x25, 0x1F, 0xFB, 0xCA, 0x02, 0xF6, 0x02, 0x03, 0xF2, 0xEE,
    0x18, 0xF3, 0xEC, 0x21, 0x0B, 0x05, 0x12, 0x05, 0x04, 0x1F, 0xEE, 0x2D,
    0x13, 0x16, 0xBE, 0xF8, 0xA8, 0xED, 0x2A, 0xE6, 0x02, 0x1F, 0x10, 0xDA,
    0xA3, 0xEA, 0x0A, 0xD8, 0x43, 0xE5, 0xCD, 0xFB, 0x01, 0x0F, 0x06, 0x10,
    0xE8, 0xE9, 0xD6, 0xC3, 0x00, 0xED, 0xF9, 0xFE, 0xFD, 0xE3, 0xFD, 0x00,
    0xF9, 0xFA, 0xFF, 0x0B, 0xE8, 0xE8, 0xF2, 0xD0, 0xF6, 0xAA, 0x05, 0x10,
    0x13, 0xF5, 0x92, 0xE9, 0xF3, 0x10, 0xD8, 0x0F, 0x0F, 0x0A, 0x2A, 0x20,
    0x05, 0xEB, 0xE8, 0xE1, 0x0B, 0x39, 0xEA, 0x45, 0x44, 0x04, 0xF9, 0x2D,
    0xE0, 0xA9, 0x07, 0x13, 0xF0, 0xFB, 0xD8, 0xEF, 0xFC, 0x21, 0xF3, 0xF3,
    0x05, 0xCD, 0xF8, 0x1C, 0xE3, 0x0B, 0xDF, 0xDB, 0xFC, 0xD6, 0xFD, 0xF6,
    0xF6, 0xF9, 0xFD, 0x00, 0xDE, 0x00, 0xF4, 0x03, 0x4A, 0x2D, 0x1B, 0xE5,
    0xD4, 0x00, 0xD4, 0x09, 0xF8, 0x04, 0x01, 0xF1, 0x5B, 0x12, 0x13, 0x3C,
    0xF0, 0x01, 0xF3, 0xFE, 0xF9, 0xEC, 0xEC, 0xF7, 0xF3, 0x03, 0x0C, 0xED,
    0x11, 0xFE, 0xF2, 0xE3, 0xEA, 0xED, 0x28, 0xEE, 0xCC, 0x13, 0xCC, 0x28,
    0xF8, 0x1D, 0xE0, 0x02, 0xF1, 0x11, 0xF8, 0x12, 0xF1, 0x23, 0xCD, 0xE4,
    0x04, 0xFD, 0xFF, 0xF1, 0xFD, 0xDF, 0xF4, 0xFA, 0x06, 0x02, 0xF4, 0x10,
    0x01, 0x00, 0x06, 0x22, 0x2B, 0x16, 0x04, 0xFF, 0xFF, 0xEC, 0xCD, 0x13,
    0xF2, 0x05, 0x00, 0xF2, 0x02, 0x1C, 0x7F, 0xFE, 0x0E, 0xF6, 0x00, 0x10,
    0x19, 0xD7, 0xD3, 0xFE, 0x3D, 0xFB, 0x1F, 0xF4, 0xEA, 0x97, 0xFD, 0x7F,
    0x0D, 0xFA, 0x9C, 0xF7, 0x00, 0xF3, 0xF5, 0xE0, 0xE2, 0x0B, 0x01, 0xF6,
    0xFC, 0xE4, 0x07, 0xF7, 0x0E, 0x05, 0x01, 0x19, 0x0B, 0xFF, 0xFE, 0x08,
    0x03, 0xFC, 0x01, 0x01, 0xFA, 0xE9, 0xE1, 0x0C, 0x01, 0x1E, 0x05, 0xFF,
    0x14, 0xFB, 0xF7, 0xFF, 0x4B, 0xF3, 0xFE, 0x48, 0x00, 0xEE, 0xFA, 0x0E,
    0xEA, 0xFD, 0xF3, 0xBE, 0x0F, 0xFD, 0x19, 0x04, 0xD4, 0x20, 0xD6, 0xF4,
    0xCD, 0xDE, 0xF9, 0xF3, 0xDC, 0xF0, 0x26, 0x34, 0x18, 0x1A, 0xFC, 0x11,
    0xF9, 0x22, 0xEC, 0x03, 0x11, 0x4D, 0x81, 0xEB, 0x0A, 0x07, 0xDC, 0x28,
    0x08, 0xF0, 0xF8, 0xF8, 0x02, 0x04, 0xF2, 0xF2, 0x07, 0xE1, 0xF0, 0x16,
    0x01, 0x00, 0xEB, 0x1B, 0x0C, 0x1A, 0x02, 0x11, 0xF2, 0x0A, 0x05, 0x05,
    0xFE, 0xFB, 0x5F, 0x03, 0x07, 0xF5, 0x06, 0x27, 0x87, 0xC9, 0xF4, 0xF1,
    0x7F, 0x08, 0x38, 0xA7, 0xD7, 0xA6, 0x36, 0x11, 0x0A, 0xD3, 0xF0, 0x1D,
    0x1A, 0xFF, 0x2B, 0x08, 0xD6, 0xD0, 0x13, 0xD6, 0xF2, 0xF2, 0x1B, 0x22,
    0x0E, 0x08, 0xFD, 0x41, 0xEF, 0xFF, 0x05, 0x0C, 0xFF, 0x04, 0xF6, 0xEA,
    0xB6, 0x10, 0x2E, 0x07, 0x01, 0xE9, 0x0F, 0xF7, 0x02, 0x04, 0xF9, 0x17,
    0xFD, 0xF1, 0x0B, 0x12, 0x29, 0xF8, 0x00, 0x06, 0xD0, 0xF5, 0xEB, 0xCC,
    0xDD, 0x29, 0xFF, 0x21, 0x38, 0x09, 0xBC, 0x04, 0x29, 0x3F, 0xF9, 0x0E,
    0x5F, 0x00, 0x4E, 0x25, 0x01, 0xE4, 0xFB, 0x05, 0xB4, 0xDF, 0xBA, 0x16,
    0x27, 0xDD, 0x35, 0xFE, 0xF6, 0xF6, 0xF0, 0x07, 0x81, 0xD3, 0x19, 0xF6,
    0x0B, 0xFC, 0x0E, 0xE6, 0xD5, 0xED, 0xEB, 0xED, 0xFC, 0xC4, 0x21, 0x2E,
    0x2B, 0x0E, 0xE4, 0xFD, 0x1A, 0xE5, 0xF7, 0xE9, 0x1F, 0x0C, 0x06, 0x09,
    0xFF, 0xEA, 0xF5, 0x00, 0x2F, 0x61, 0xF3, 0xD9, 0x3A, 0x27, 0xE1, 0x01,
    0x98, 0xB7, 0x55, 0xE2, 0xE9, 0x15, 0xE7, 0x00, 0xE8, 0x25, 0x5F, 0x04,
    0x3D, 0x26, 0xED, 0xF3, 0xE0, 0xF0, 0xC3, 0x0F, 0xDD, 0xD3, 0xFA, 0xF8,
    0x00, 0xFB, 0xFF, 0x0B, 0x60, 0xEE, 0x12, 0xEC, 0x74, 0x8E, 0x15, 0xFD,
    0xFF, 0x22, 0xE4, 0x24, 0xF5, 0xF0, 0xF6, 0x0F, 0x07, 0x0D, 0xC4, 0xF3,
    0xF3, 0xE1, 0xE8, 0xF5, 0xDE, 0xE8, 0x07, 0xFD, 0x11, 0x01, 0x28, 0x16,
    0xA9, 0x2B, 0x66, 0x45, 0xF5, 0x24, 0x2A, 0x0E, 0x73, 0x39, 0xC1, 0x1D,
    0xE0, 0xCD, 0x3D, 0x0D, 0x56, 0xD5, 0x06, 0x0F, 0x0F, 0xCC, 0x42, 0x11,
    0x04, 0x03, 0xE9, 0x02, 0xDD, 0x3D, 0xF3, 0x06, 0xF9, 0x10, 0x11, 0xFC,
    0x12, 0x1D, 0xF6, 0xD2, 0x05, 0x09, 0x20, 0xF7, 0x03, 0x00, 0xD0, 0xF3,
    0x07, 0x0C, 0x05, 0x1E, 0x1E, 0xDE, 0x9C, 0xFB, 0xF0, 0x2D, 0xFD, 0x11,
    0x19, 0x50, 0x50, 0x03, 0xF1, 0x47, 0xFC, 0xF1, 0xCA, 0xB3, 0xFA, 0xD9,
    0xEE, 0xF6, 0x1A, 0x18, 0xE0, 0x14, 0x11, 0x19, 0xE0, 0x58, 0xFC, 0x0E,
    0x00, 0x02, 0xF1, 0x0C, 0xC7, 0x12, 0x15, 0xB2, 0x0E, 0x0F, 0x0F, 0xF9,
    0x93, 0x08, 0x17, 0x24, 0x47, 0xBB, 0x93, 0xDF, 0x24, 0x0D, 0xF4, 0xF4,
    0xD9, 0xF2, 0x23, 0xFA, 0xC8, 0x07, 0x0B, 0x1D, 0xF6, 0xFC, 0x3A, 0x1A,
    0x2C, 0xE7, 0x01, 0x35, 0x1E, 0xF5, 0xD8, 0x19, 0x51, 0xFE, 0xE0, 0x09,
    0xE7, 0xE5, 0xF0, 0xDE, 0xF5, 0x1D, 0xC8, 0xC8, 0xEB, 0xD8, 0x23, 0xFC,
    0x3D, 0xC3, 0x01, 0xF4, 0x00, 0xFC, 0x39, 0x0F, 0x01, 0xF6, 0x0C, 0x02,
    0xFA, 0x19, 0x11, 0x03, 0xFF, 0x02, 0xF9, 0x01, 0xDC, 0x35, 0xF2, 0x1D,
    0xF2, 0xEF, 0x02, 0x0E, 0xFA, 0x0A, 0x1E, 0x01, 0x05, 0xFA, 0xE8, 0x0B,
    0xFB, 0xE5, 0xF1, 0xEE, 0x06, 0xF8, 0xF7, 0x03, 0x17, 0x16, 0x10, 0xD6,
    0x13, 0xEA, 0xF2, 0x14, 0xE3, 0x1F, 0xE1, 0x06, 0x08, 0x01, 0x09, 0xF2,
    0x27, 0xCE, 0xF0, 0xF3, 0xF9, 0xEE, 0x0A, 0xF9, 0x04, 0x18, 0x0A, 0xFE,
    0xEB, 0x18, 0xFA, 0xC0, 0xFB, 0x08, 0xF8, 0xFC, 0xE7, 0xF4, 0xFB, 0x02,
    0xC4, 0xC5, 0xD1, 0x0C, 0x28, 0xF3, 0x18, 0xFA, 0xF0, 0xE7, 0xEC, 0xDC,
    0xC6, 0xE6, 0x12, 0xD0, 0xFF, 0xE6, 0xF8, 0xF2, 0x26, 0xFB, 0x05, 0x18,
    0x13, 0xF4, 0xE8, 0x09, 0x54, 0xE4, 0xF8, 0x0D, 0x22, 0x0B, 0xE8, 0xC4,
    0xB4, 0x1B, 0x08, 0xF4, 0x01, 0x24, 0x06, 0x10, 0x4B, 0xF5, 0xEF, 0x03,
    0x0B, 0xE0, 0x39, 0x08, 0xFF, 0x03, 0x23, 0xEE, 0x04, 0xF2, 0x00, 0x01,
    0x04, 0x06, 0x0A, 0xF8, 0xEA, 0x18, 0x18, 0x3E, 0xB5, 0x0A, 0x13, 0x02,
    0xE3, 0x0B, 0x7F, 0x03, 0xFB, 0xF8, 0x0B, 0xEB, 0xF0, 0xFD, 0xD8, 0x08,
    0xFC, 0xEC, 0xEC, 0xE9, 0xC5, 0x10, 0xF8, 0xED, 0xE8, 0xF3, 0xE4, 0xEF,
    0xFE, 0xE4, 0xD2, 0xF3, 0x1E, 0xF0, 0x3C, 0xF5, 0x31, 0xE6, 0x3F, 0x10,
    0xEB, 0x38, 0xFA, 0x18, 0x0B, 0xF2, 0xFE, 0xEE, 0x07, 0xF1, 0x19, 0x12,
    0x04, 0xF7, 0x07, 0x10, 0x02, 0xF9, 0xFE, 0xF9, 0x06, 0x81, 0x0D, 0x26,
    0x09, 0x56, 0xC8, 0x01, 0x14, 0x0D, 0x07, 0x00, 0xB9, 0x1C, 0xFB, 0xA6,
    0xF4, 0x0B, 0x01, 0xE1, 0xFE, 0xDE, 0xE1, 0x07, 0x02, 0xE8, 0xEC, 0x03,
    0xFF, 0xF3, 0xE3, 0x12, 0xD8, 0xC7, 0xFB, 0x20, 0x26, 0x05, 0x10, 0xEA,
    0x0A, 0x0C, 0xE6, 0x1A, 0x7F, 0x18, 0x2E, 0x10, 0x06, 0x3A, 0xB6, 0x10,
    0xFC, 0x16, 0xDB, 0x06, 0xFA, 0x04, 0xFD, 0x05, 0x08, 0x05, 0xF3, 0x00,
    0x0B, 0xFB, 0xF9, 0xC9, 0xE1, 0x01, 0xFE, 0x14, 0xE1, 0xF8, 0x70, 0xF9,
    0x02, 0x02, 0x0A, 0x05, 0xF3, 0xF7, 0xE8, 0x07, 0xEE, 0x04, 0x0B, 0xF7,
    0x24, 0xC5, 0x14, 0x15, 0xD9, 0xFD, 0x02, 0x0C, 0xFA, 0xEB, 0xC8, 0xEF,
    0xF9, 0xDC, 0x07, 0xD9, 0x3B, 0xE6, 0x08, 0xF9, 0x06, 0xFE, 0xF9, 0x0A,
    0x16, 0xFA, 0xE1, 0xEA, 0x17, 0x23, 0x26, 0x36, 0xF4, 0x05, 0xFE, 0x01,
    0xFC, 0x0C, 0xF7, 0xFA, 0xFA, 0x1B, 0xE1, 0x03, 0xD1, 0xE0, 0x15, 0xE4,
    0xF8, 0x12, 0x0B, 0x0A, 0xCB, 0x15, 0x09, 0xA9, 0xFB, 0x12, 0xF1, 0xF4,
    0xF5, 0x01, 0x10, 0x00, 0xF2, 0x1D, 0x02, 0x09, 0x2D, 0xE3, 0xE8, 0xDB,
    0x01, 0xED, 0x0D, 0x14, 0x00, 0xBA, 0x21, 0xF7, 0x01, 0x14, 0x06, 0x0B,
    0xD5, 0x0C, 0xFC, 0x1F, 0x00, 0x00, 0x00, 0x00, 0x00, 0x00, 0x00, 0x00,
    0x00, 0x00, 0x00, 0x00, 0x00, 0x00, 0x00, 0x00, 0x00, 0x00, 0x00, 0x00,
    0x00, 0x00, 0x00, 0x00, 0x00, 0x00, 0x00, 0x00, 0x00, 0x00, 0x00, 0x00,
    0x00, 0x00, 0x00, 0x00, 0x00, 0x00, 0x00, 0x00, 0x00, 0x00, 0x00, 0x00,
    0x00, 0x00, 0x00, 0x00, 0x00, 0x00, 0x00, 0x00, 0x00, 0x00, 0x00, 0x00,
    0x00, 0x00, 0x00, 0x00, 0x00, 0x00, 0x00, 0x00, 0x00, 0x00, 0x00, 0x00,
    0x00, 0x00, 0x00, 0x00, 0x00, 0x00, 0x00, 0x00, 0x00, 0x00, 0x00, 0x00,
    0x00, 0x00, 0x00, 0x00, 0x00, 0x00, 0x00, 0x00, 0x00, 0x00, 0x00, 0x00,
    0x00, 0x00, 0x00, 0x00, 0x00, 0x00, 0x00, 0x00, 0x00, 0x00, 0x00, 0x00,
    0x00, 0x00, 0x00, 0x00, 0x00, 0x00, 0x00, 0x00, 0x00, 0x00, 0x00, 0x00,
    0x00, 0x00, 0x00, 0x00, 0x00, 0x00, 0x00, 0x00, 0x00, 0x00, 0x00, 0x00,
    0x03, 0xED, 0xFC, 0xD7, 0x01, 0xBC, 0xFA, 0x07, 0xFA, 0x09, 0xE5, 0xF8,
    0x05, 0xED, 0xFE, 0x05, 0x10, 0xE4, 0x34, 0x20, 0xFC, 0x13, 0xF9, 0xEF,
    0xF4, 0x2C, 0x25, 0xDC, 0xF7, 0x00, 0xE9, 0x16, 0xFC, 0xEA, 0xF9, 0xD7,
    0x11, 0xD2, 0x09, 0x1F, 0xF2, 0xFC, 0x0F, 0x08, 0xF8, 0xE7, 0xD8, 0xFB,
    0x08, 0x0D, 0x05, 0xF0, 0xE3, 0xBD, 0x17, 0x06, 0x03, 0xF6, 0xDA, 0xF9,
    0x03, 0x1B, 0xF0, 0xF1, 0xF2, 0xF2, 0xF8, 0xFC, 0x02, 0xF4, 0xF2, 0x09,
    0x00, 0x01, 0x0D, 0x02, 0xF1, 0xF8, 0xFC, 0x07, 0x00, 0xFC, 0x30, 0x20,
    0x21, 0x26, 0x0D, 0x15, 0x16, 0xFF, 0xFC, 0x08, 0xB2, 0xEB, 0x06, 0x12,
    0x0B, 0x05, 0x84, 0xD7, 0x02, 0x24, 0xA1, 0xFC, 0x1A, 0xF8, 0x1F, 0xFA,
    0x13, 0x11, 0xED, 0x16, 0xCA, 0x05, 0xAE, 0xDF, 0x10, 0x3C, 0x18, 0x11,
    0x16, 0x08, 0x1C, 0xF6, 0xF7, 0xED, 0x0E, 0xFC, 0xFE, 0xF9, 0xFA, 0x22,
    0x24, 0x37, 0x07, 0x0F, 0xF9, 0xF4, 0xFE, 0xE3, 0xFD, 0x39, 0xFF, 0x02,
    0xF4, 0xD6, 0xD9, 0x0D, 0x06, 0x03, 0x0B, 0xB5, 0xC7, 0x56, 0x23, 0xE2,
    0xDF, 0x07, 0xE2, 0xED, 0xE5, 0xFC, 0xCF, 0xEF, 0xDB, 0xFC, 0x0E, 0x29,
    0xEB, 0x00, 0x11, 0x0A, 0xDD, 0xB5, 0xE7, 0xE7, 0xF3, 0x0F, 0x07, 0xE9,
    0xBB, 0x04, 0xFA, 0x39, 0x11, 0xFC, 0xF4, 0xC3, 0x0D, 0x13, 0xEF, 0xF6,
    0x17, 0x14, 0x14, 0x06, 0x06, 0x0A, 0x08, 0x03, 0x06, 0x0D, 0x29, 0xF7,
    0xF9, 0x13, 0xFC, 0x12, 0x06, 0x00, 0x08, 0xDE, 0x13, 0x00, 0xF9, 0xEA,
    0x2C, 0x06, 0x14, 0xEA, 0x81, 0xF3, 0xF2, 0x30, 0xE2, 0x30, 0x04, 0x06,
    0x06, 0xEC, 0xBC, 0x16, 0xEE, 0xF5, 0xA9, 0xFC, 0x00, 0x04, 0xEC, 0xF8,
    0x81, 0x07, 0xE9, 0x17, 0x26, 0x3B, 0xF5, 0x29, 0x1F, 0xF9, 0x11, 0x06,
    0xF6, 0xF9, 0x0B, 0x0D, 0x02, 0x15, 0x0A, 0x10, 0xE4, 0x07, 0xF9, 0xE0,
    0x12, 0xD4, 0xFA, 0x1E, 0xC0, 0x07, 0x00, 0xCE, 0x10, 0xEB, 0xEC, 0xE8,
    0x1B, 0x0A, 0xF2, 0xEB, 0xE3, 0x37, 0x28, 0x18, 0xEF, 0x10, 0xF3, 0xF2,
    0xF5, 0xF8, 0xEF, 0x34, 0xD9, 0xFA, 0xF5, 0xBD, 0x06, 0x16, 0x12, 0xF5,
    0x0E, 0x0D, 0x18, 0x50, 0x14, 0xFE, 0xE5, 0x37, 0xDF, 0xF6, 0xFF, 0xDC,
    0xFD, 0xE9, 0xF7, 0x19, 0xDC, 0xFE, 0x08, 0x05, 0xFC, 0xF2, 0xF5, 0xF4,
    0xFF, 0x00, 0xFC, 0xFB, 0xEE, 0xF0, 0xF2, 0xEB, 0xFD, 0xFB, 0x00, 0xDE,
    0xE9, 0xF3, 0xE8, 0xF0, 0x07, 0xF1, 0x10, 0x12, 0x1C, 0x04, 0xF9, 0xCF,
    0x9E, 0x01, 0x29, 0x15, 0xE0, 0x0B, 0xF4, 0xDF, 0xED, 0x1E, 0xFF, 0xF9,
    0x19, 0x28, 0xF7, 0xFC, 0x2D, 0xF5, 0x1C, 0x08, 0xEB, 0x19, 0xF8, 0xE1,
    0x0C, 0x03, 0xD0, 0x0D, 0x05, 0xEB, 0x10, 0xF9, 0xEC, 0x17, 0xDD, 0xF4,
    0x06, 0x1B, 0xFB, 0xF6, 0x81, 0xFB, 0xFF, 0x62, 0xF6, 0xE3, 0x0E, 0x01,
    0x81, 0x19, 0x03, 0x55, 0xEC, 0x0B, 0xE4, 0x18, 0xD2, 0x08, 0x06, 0xFB,
    0x12, 0xF9, 0x09, 0x15, 0xEF, 0xE3, 0xE9, 0xFE, 0x0C, 0x17, 0x06, 0xE4,
    0x11, 0xF6, 0x0B, 0x10, 0x37, 0xF2, 0xBB, 0xED, 0x0D, 0x12, 0x0C, 0xA5,
    0xFA, 0x15, 0xEC, 0x01, 0x17, 0x26, 0x1B, 0xBA, 0xE2, 0x04, 0xFD, 0xF1,
    0xC0, 0xFE, 0x13, 0xDE, 0x03, 0xF0, 0x05, 0xFC, 0x0F, 0x05, 0xFD, 0xF5,
    0xFE, 0xF0, 0xFC, 0xFC, 0x27, 0x0C, 0x38, 0xEB, 0x04, 0x0F, 0xE5, 0xF8,
    0xE7, 0x26, 0xC9, 0x00, 0xE9, 0xFD, 0x09, 0xC5, 0xE3, 0x09, 0xFA, 0xCE,
    0xFF, 0x18, 0xED, 0x18, 0xFF, 0x0F, 0x0C, 0x01, 0xE5, 0xF5, 0x0C, 0x13,
    0x81, 0x02, 0xFA, 0x0E, 0xCB, 0xD9, 0x21, 0xFF, 0xE2, 0x23, 0x20, 0xE0,
    0xE4, 0x08, 0x1F, 0xF9, 0xFD, 0x0C, 0xB7, 0xF1, 0x07, 0xF6, 0xEB, 0x03,
    0x5C, 0xA2, 0x04, 0x9A, 0x04, 0x12, 0xF0, 0xFB, 0xF5, 0xB4, 0x07, 0x02,
    0x20, 0xEA, 0xC4, 0x1A, 0xD6, 0x0C, 0x13, 0x2F, 0x08, 0xF4, 0xE3, 0x0C,
    0x0C, 0x09, 0x83, 0xF7, 0x2A, 0xED, 0xFA, 0xE1, 0xD6, 0xE8, 0x13, 0x0A,
    0xEA, 0xE2, 0xFC, 0xF0, 0x3D, 0x1A, 0x04, 0x21, 0xE0, 0x12, 0x1E, 0xB4,
    0xF9, 0x03, 0xDF, 0x2B, 0xF3, 0x23, 0x3F, 0x0D, 0x34, 0xCC, 0x20, 0x21,
    0x0E, 0x2D, 0x50, 0x01, 0xFD, 0xEC, 0x11, 0xFA, 0x23, 0x2D, 0x3C, 0xFA,
    0xE7, 0x0E, 0x33, 0x1F, 0x1E, 0x08, 0xE3, 0x00, 0x81, 0x06, 0x6D, 0xE7,
    0xD1, 0x0A, 0x04, 0xE0, 0xFA, 0x14, 0xF4, 0xEA, 0x33, 0x3A, 0x68, 0x3C,
    0x06, 0xD8, 0xED, 0xF5, 0xF1, 0x01, 0xF9, 0x29, 0x33, 0x13, 0x23, 0xD7,
    0x93, 0x32, 0xED, 0x1F, 0x14, 0xED, 0xED, 0x0D, 0xE8, 0xEC, 0x81, 0x15,
    0xED, 0x15, 0xC2, 0x00, 0xF3, 0xEF, 0x02, 0xF6, 0x03, 0x48, 0xF8, 0x06,
    0x0C, 0x36, 0xFB, 0xF8, 0x00, 0x01, 0x16, 0x18, 0x23, 0xFC, 0x2A, 0x16,
    0xCC, 0xEF, 0xFC, 0xF2, 0x38, 0xFD, 0x0C, 0xEB, 0x02, 0xF7, 0xA4, 0x01,
    0x0A, 0xF2, 0x16, 0x93, 0x21, 0x16, 0x01, 0x28, 0xE7, 0xF9, 0xFD, 0xEC,
    0xFD, 0xD9, 0xDD, 0x0B, 0x0A, 0x06, 0x12, 0x06, 0x4F, 0x9E, 0xE7, 0x3B,
    0xF7, 0xF2, 0xFE, 0xF9, 0x07, 0xDC, 0x06, 0xFF, 0xF1, 0xE9, 0x91, 0x0D,
    0xEF, 0x08, 0xF7, 0x08, 0xFC, 0xFF, 0xF8, 0xE6, 0xF5, 0x03, 0xCE, 0xFA,
    0xE1, 0xCC, 0xD4, 0x47, 0x52, 0xB6, 0x31, 0x12, 0xCD, 0xF1, 0x08, 0x13,
    0x15, 0xEB, 0x1C, 0x17, 0x14, 0x25, 0x63, 0x01, 0xCE, 0x81, 0xC1, 0x07,
    0x0F, 0xE4, 0xF1, 0x17, 0x3A, 0xEE, 0xEE, 0xF3, 0xBE, 0x01, 0xEC, 0xD8,
    0x10, 0xE5, 0xF2, 0xF5, 0x08, 0xF4, 0xDE, 0xE4, 0xF3, 0xF7, 0xE8, 0xF0,
    0xFE, 0xF9, 0x01, 0xF4, 0x00, 0xFC, 0xFD, 0x0C, 0xFF, 0x26, 0x17, 0xEB,
    0xF6, 0x06, 0xFB, 0x03, 0x05, 0xFA, 0x1F, 0x13, 0x04, 0xF2, 0xFE, 0xF3,
    0xC1, 0xC3, 0xE0, 0x0D, 0xF5, 0xFC, 0xB8, 0xFF, 0xF3, 0x15, 0x1A, 0xEE,
    0x07, 0x0A, 0xFC, 0x19, 0x0A, 0xE5, 0x02, 0xFC, 0xFE, 0x04, 0x09, 0x00,
    0xFD, 0xD3, 0xDB, 0x0C, 0xE8, 0x2A, 0x1D, 0xE5, 0xFE, 0xE9, 0xFA, 0xF2,
    0xF8, 0xF5, 0xF5, 0x02, 0xF6, 0xED, 0xF5, 0xF9, 0xFF, 0x20, 0xF2, 0x03,
    0x05, 0x0D, 0x03, 0xFE, 0x10, 0x01, 0x08, 0x08, 0xE7, 0x2D, 0x22, 0x67,
    0x23, 0x09, 0xF5, 0xFA, 0xE7, 0x0A, 0xF6, 0x4F, 0x31, 0xFF, 0x1F, 0x0C,
    0x17, 0xB5, 0xA6, 0x17, 0x1D, 0x40, 0x8F, 0xF9, 0x22, 0x0D, 0x0D, 0xEF,
    0x13, 0xFA, 0x0C, 0x09, 0xF9, 0x47, 0x1C, 0x0A, 0xF6, 0xBF, 0x20, 0xF0,
    0xFF, 0xE9, 0x1F, 0xDF, 0x05, 0xF4, 0x10, 0xFD, 0xFB, 0x01, 0x0A, 0xF6,
    0x04, 0xF9, 0x0A, 0xFA, 0x0A, 0x02, 0x14, 0x0B, 0xFC, 0xFB, 0xF0, 0xF5,
    0xFF, 0x01, 0xFD, 0xEB, 0xFD, 0xF7, 0xF0, 0x13, 0xD9, 0xB5, 0xCF, 0x39,
    0x1B, 0x06, 0xA6, 0x0F, 0xEB, 0x06, 0x1A, 0xFC, 0xF6, 0x11, 0xF7, 0xE1,
    0x03, 0xFB, 0xF7, 0xFF, 0xE7, 0x08, 0x0A, 0xE3, 0x12, 0xFB, 0x01, 0x24,
    0xF4, 0x25, 0x09, 0x1D, 0x09, 0x10, 0x0D, 0x03, 0xE8, 0x1F, 0xFD, 0x10,
    0x1B, 0x26, 0x0E, 0xF5, 0xFA, 0xFE, 0x02, 0xFD, 0xDD, 0x07, 0x17, 0x0B,
    0x05, 0x06, 0x05, 0x05, 0xFD, 0xEB, 0x16, 0x2F, 0xD2, 0xE7, 0xF5, 0xFB,
    0xF4, 0xEE, 0xF3, 0x19, 0x62, 0x18, 0x08, 0xB9, 0x22, 0xAB, 0xEA, 0x21,
    0x11, 0x2F, 0xB6, 0x04, 0xFE, 0x24, 0xED, 0xFE, 0xF3, 0xE8, 0x0C, 0xEA,
    0xDE, 0x58, 0x07, 0x2C, 0xED, 0xB3, 0xB7, 0xF4, 0x0B, 0x1E, 0x0C, 0x09,
    0x17, 0xA7, 0xEC, 0xEE, 0x04, 0x0C, 0x02, 0xF7, 0x08, 0xFD, 0xF8, 0x08,
    0x03, 0xF7, 0x01, 0xF4, 0xF9, 0x05, 0xFD, 0x2C, 0x0B, 0x24, 0x03, 0x03,
    0x21, 0x04, 0x01, 0x02, 0x12, 0xDE, 0xE3, 0x05, 0x1E, 0xED, 0xC8, 0x09,
    0xF5, 0x06, 0xF4, 0xF3, 0xE8, 0x00, 0xF5, 0xFB, 0x03, 0x3A, 0x1C, 0xFB,
    0x05, 0x04, 0xF1, 0xEA, 0x11, 0x12, 0x03, 0xF1, 0x00, 0xFF, 0x16, 0x25,
    0xF6, 0x02, 0xEA, 0xE8, 0x11, 0x07, 0xE0, 0xF9, 0xF5, 0xF3, 0xFF, 0xFB,
    0x05, 0xE9, 0xFD, 0xFF, 0xFE, 0xF4, 0xEF, 0x20, 0x1B, 0xCB, 0xF9, 0xFA,
    0xFA, 0xF0, 0xF5, 0xEF, 0xDC, 0xF4, 0x09, 0xEA, 0x12, 0xBD, 0x07, 0x07,
    0x0B, 0x0F, 0xE2, 0xD0, 0x03, 0x1F, 0xED, 0x05, 0x0B, 0xEF, 0x37, 0xFE,
    0x04, 0xFC, 0xF7, 0x0C, 0xCB, 0x0F, 0xFF, 0x19, 0xF1, 0x21, 0xF6, 0x19,
    0xEA, 0xEE, 0x11, 0xF0, 0xF1, 0x4B, 0x02, 0x27, 0x1F, 0x04, 0xF4, 0x2D,
    0x00, 0x00, 0x00, 0x00, 0x00, 0x00, 0x00, 0x00, 0x00, 0x00, 0x00, 0x00,
    0x00, 0x00, 0x00, 0x00, 0x00, 0x00, 0x00, 0x00, 0x00, 0x00, 0x00, 0x00,
    0x00, 0x00, 0x00, 0x00, 0x00, 0x00, 0x00, 0x00, 0x00, 0x00, 0x00, 0x00,
    0x00, 0x00, 0x00, 0x00, 0x00, 0x00, 0x00, 0x00, 0x00, 0x00, 0x00, 0x00,
    0x00, 0x00, 0x00, 0x00, 0x00, 0x00, 0x00, 0x00, 0x00, 0x00, 0x00, 0x00,
    0x00, 0x00, 0x00, 0x00, 0x00, 0x00, 0x00, 0x00, 0x00, 0x00, 0x00, 0x00,
    0x00, 0x00, 0x00, 0x00, 0x00, 0x00, 0x00, 0x00, 0x00, 0x00, 0x00, 0x00,
    0x00, 0x00, 0x00, 0x00, 0x00, 0x00, 0x00, 0x00, 0x00, 0x00, 0x00, 0x00,
    0x00, 0x00, 0x00, 0x00, 0x00, 0x00, 0x00, 0x00, 0x00, 0x00, 0x00, 0x00,
    0x00, 0x00, 0x00, 0x00, 0x00, 0x00, 0x00, 0x00, 0x00, 0x00, 0x00, 0x00,
    0x00, 0x00, 0x00, 0x00, 0x00, 0x00, 0x00, 0x00, 0x0F, 0xF4, 0xFF, 0xFF,
    0x32, 0x1C, 0xFC, 0x43, 0x28, 0x00, 0xE1, 0x08, 0x00, 0x00, 0xE2, 0xD8,
    0x00, 0x6C, 0x27, 0x00, 0xA0, 0x26, 0x00, 0x00, 0xB4, 0xB4, 0xE1, 0x57,
    0x28, 0x00, 0x45, 0x14, 0x00, 0x00, 0x86, 0x56, 0x81, 0x64, 0x28, 0x00,
    0xA8, 0x0E, 0x00, 0x00, 0x3E, 0x4F, 0x81, 0x62, 0x27, 0x00, 0xDD, 0x16,
    0x00, 0x00, 0xF4, 0xCA, 0x72, 0x4C, 0x27, 0x00, 0xC2, 0x16, 0x00, 0x00,
    0xAA, 0xB9, 0x6F, 0x40, 0x27, 0x00, 0xDC, 0x0B, 0x00, 0x00, 0xE0, 0xBE,
    0x2E, 0x58, 0x27, 0x00, 0x68, 0xCE, 0xFF, 0xFF, 0x54, 0x3D, 0xD1, 0x43,
    0x28, 0x00, 0x4F, 0x03, 0x00, 0x00, 0xDA, 0xF9, 0x9B, 0x7C, 0x29, 0x00,
    0xAA, 0xFF, 0xFF, 0xFF, 0x2A, 0x11, 0x6E, 0x73, 0x27, 0x00, 0x33, 0x22,
    0x00, 0x00, 0x11, 0xE3, 0x80, 0x4C, 0x27, 0x00, 0xD6, 0x1D, 0x00, 0x00,
    0x66, 0x74, 0xF0, 0x5C, 0x27, 0x00, 0x65, 0xD0, 0xFF, 0xFF, 0xC4, 0x16,
    0x42, 0x7D, 0x29, 0x00, 0x3A, 0x47, 0x00, 0x00, 0xBA, 0x5C, 0xAA, 0x7D,
    0x29, 0x00, 0x80, 0x34, 0x00, 0x00, 0xF1, 0x90, 0x87, 0x4D, 0x28, 0x00,
    0x01, 0x00, 0x00, 0x00, 0x00, 0x00, 0x00, 0x00, 0x00, 0x00, 0x00, 0x00,
    0x00, 0x00, 0x6C, 0x44, 0x38, 0xB0, 0xE2, 0x42, 0x05, 0x9D, 0x28, 0x08,
    0x14, 0x68, 0x00, 0x30, 0x40, 0x42, 0x8A, 0x23, 0x36, 0x11, 0x07, 0x2B,
    0x17, 0x15, 0x3A, 0xD8, 0x04, 0x05, 0x0D, 0x04, 0x00, 0xFF, 0x09, 0xEC,
    0xDD, 0xE6, 0x18, 0x38, 0xFF, 0xF2, 0xD9, 0xF1, 0xFC, 0x1A, 0x12, 0xF9,
    0x18, 0x0D, 0xF6, 0x18, 0xF3, 0x05, 0x07, 0xFA, 0xFF, 0x0C, 0xF4, 0xF9,
    0xF8, 0xF0, 0xFB, 0xC6, 0x18, 0x01, 0x08, 0xE4, 0x16, 0x00, 0x08, 0xDD,
    0x06, 0xDA, 0x1B, 0x10, 0xDA, 0xFC, 0x01, 0xE3, 0xF5, 0x20, 0x09, 0xB4,
    0x07, 0x30, 0xFB, 0xEC, 0xFB, 0xE8, 0x0F, 0x2E, 0xFE, 0xEA, 0xFF, 0xFB,
    0xF4, 0xFB, 0xFE, 0xFA, 0x00, 0xEA, 0x05, 0xFB, 0xED, 0x11, 0xF9, 0xEC,
    0xFD, 0x0C, 0x2A, 0x03, 0xF9, 0x0B, 0x07, 0x05, 0xF4, 0xF1, 0xF0, 0x05,
    0xFC, 0xFF, 0xFB, 0x09, 0x02, 0xEB, 0xF1, 0x4F, 0xF1, 0x15, 0xE4, 0x04,
    0x03, 0x0C, 0x1D, 0xFB, 0x12, 0xF8, 0x09, 0x13, 0x0D, 0xFC, 0x11, 0xE9,
    0xFD, 0x23, 0x11, 0x17, 0x66, 0x34, 0x47, 0x08, 0xFB, 0x22, 0x36, 0x1B,
    0x0D, 0x10, 0x0A, 0xFE, 0x0E, 0x22, 0xEB, 0x06, 0x2E, 0x2D, 0x20, 0x50,
    0x17, 0x03, 0xE5, 0x81, 0x02, 0xD3, 0x1A, 0x11, 0x07, 0xE7, 0xE5, 0xE1,
    0xE8, 0x02, 0xF4, 0x12, 0x04, 0xF6, 0xF8, 0xE9, 0xFA, 0xE7, 0xF1, 0x81,
    0x15, 0xF4, 0xEC, 0xBC, 0x14, 0x0E, 0xEB, 0xF4, 0x06, 0xF5, 0x13, 0x0D,
    0xE3, 0xE7, 0xE8, 0x07, 0x12, 0xF8, 0xFC, 0xF3, 0xFC, 0x1A, 0xEE, 0xF3,
    0x21, 0x07, 0x07, 0x13, 0xFD, 0x0A, 0x1A, 0xF9, 0x04, 0x06, 0xF9, 0xF3,
    0xFC, 0x14, 0x02, 0xEB, 0xF6, 0x0F, 0xF9, 0x05, 0x14, 0x26, 0x0E, 0x1C,
    0x02, 0x0E, 0xF5, 0xE9, 0xFD, 0xF3, 0x00, 0xFC, 0xFD, 0x05, 0x06, 0x09,
    0x05, 0xDE, 0xDA, 0x1A, 0xFC, 0xFE, 0xF5, 0xF8, 0x08, 0xFE, 0x07, 0xEC,
    0x05, 0x00, 0xFA, 0x10, 0xF7, 0xE8, 0xED, 0x3B, 0x02, 0x00, 0x17, 0x10,
    0x2C, 0x23, 0x2D, 0xC9, 0x06, 0x17, 0x01, 0x0A, 0xF9, 0xF3, 0xFA, 0xF3,
    0xF7, 0x09, 0xFE, 0x00, 0x5E, 0x2A, 0x0A, 0x1D, 0x09, 0xEC, 0xF5, 0x90,
    0x04, 0x0A, 0x06, 0x05, 0x08, 0x07, 0xF7, 0x09, 0x0A, 0xFF, 0x01, 0xF3,
    0xFD, 0x03, 0xF9, 0xF4, 0xFA, 0xCE, 0xF2, 0xC8, 0x0D, 0x08, 0xF2, 0x00,
    0x07, 0xF0, 0x23, 0x03, 0xE0, 0xFB, 0x00, 0x01, 0xE2, 0x05, 0xD5, 0x08,
    0xF7, 0x08, 0xFE, 0x0A, 0xFF, 0xFA, 0x05, 0xF1, 0x19, 0xFC, 0xCF, 0xF1,
    0xF5, 0x0C, 0x05, 0xFD, 0xFA, 0x04, 0xEF, 0x00, 0xFE, 0x05, 0xFA, 0x0B,
    0x12, 0xD8, 0xFF, 0xF4, 0x33, 0xDF, 0x1B, 0xE8, 0xFB, 0x0C, 0xE1, 0xFD,
    0x07, 0xF5, 0x0D, 0x15, 0x01, 0x0D, 0x09, 0xEF, 0x02, 0xE4, 0x0E, 0x1D,
    0xFA, 0x04, 0xE8, 0x0F, 0xFE, 0x04, 0x16, 0xEC, 0x19, 0x0B, 0xFA, 0x11,
    0x0A, 0xE2, 0xFC, 0x00, 0xCF, 0x11, 0x0E, 0xF6, 0xD4, 0x67, 0x23, 0xC3,
    0x13, 0x0E, 0xED, 0x55, 0x04, 0xF5, 0xEC, 0xFF, 0x0D, 0xF7, 0x08, 0xFE,
    0x49, 0x39, 0x0B, 0xD2, 0xE9, 0xF1, 0xE6, 0xBB, 0x2D, 0xC5, 0xF9, 0x07,
    0x0A, 0x00, 0x0B, 0xEF, 0x13, 0xFB, 0xED, 0x00, 0x20, 0x1C, 0xF4, 0xE8,
    0xD8, 0xFA, 0x1B, 0xC2, 0x16, 0xD8, 0xFA, 0x04, 0x0A, 0xFD, 0x16, 0xE6,
    0xF2, 0xE8, 0xE3, 0xE9, 0x12, 0x08, 0x17, 0xF1, 0xE8, 0xBE, 0x13, 0x20,
    0xFA, 0xF6, 0x37, 0xE1, 0xF1, 0xFD, 0xD2, 0xE0, 0xFB, 0x0A, 0xF7, 0xFB,
    0x05, 0x05, 0xF4, 0xFC, 0xF5, 0xF1, 0x0B, 0x18, 0x15, 0xD9, 0xE1, 0x1A,
    0x11, 0xF6, 0x10, 0xF2, 0xF6, 0x1A, 0xEC, 0x03, 0xF4, 0x09, 0xE4, 0xF2,
    0x1A, 0x1D, 0xE3, 0xEA, 0xF1, 0x00, 0xFD, 0x1C, 0x0D, 0x0F, 0xF8, 0x18,
    0xFB, 0x04, 0x16, 0xE8, 0x02, 0xF9, 0xF1, 0x10, 0xFD, 0x12, 0x05, 0xD0,
    0xF1, 0x03, 0xE1, 0x00, 0x06, 0x6F, 0x39, 0x09, 0x4D, 0x38, 0x2A, 0x7F,
    0xFB, 0xD6, 0x0F, 0xFC, 0xF9, 0xB7, 0x08, 0xF7, 0x10, 0x23, 0xCD, 0x9F,
    0xCF, 0x0F, 0xD7, 0xB0, 0x12, 0xD9, 0xFB, 0x16, 0x16, 0x13, 0xEE, 0xF6,
    0xFE, 0xCE, 0x25, 0x10, 0xF7, 0x07, 0x1F, 0x1B, 0xFA, 0x11, 0x08, 0xA9,
    0x20, 0xDC, 0x09, 0xE2, 0xE6, 0x05, 0xED, 0x19, 0x00, 0x08, 0xF6, 0xCF,
    0x1F, 0x18, 0xC2, 0x1E, 0xEB, 0xB3, 0x0A, 0xD5, 0x06, 0xD9, 0x0A, 0xD3,
    0x02, 0xD6, 0xCA, 0x0B, 0x81, 0x64, 0x0B, 0xFF, 0x2D, 0x0C, 0x07, 0x11,
    0x10, 0x20, 0x04, 0x00, 0xF8, 0x19, 0xF9, 0xF6, 0x25, 0xFF, 0x2D, 0x0B,
    0xFB, 0x0E, 0xF3, 0xE7, 0x81, 0xD4, 0xF1, 0xF0, 0x1A, 0xE9, 0x09, 0x17,
    0xFF, 0x05, 0xE7, 0x3F, 0x0A, 0xFE, 0xF5, 0x1E, 0xF6, 0xE5, 0xFA, 0x81,
    0x03, 0x1B, 0x1F, 0xFA, 0x20, 0xD8, 0xD4, 0x3C, 0xDC, 0x2D, 0xF7, 0xF8,
    0xEB, 0xF2, 0xF1, 0x4A, 0x45, 0x20, 0x3D, 0x13, 0x15, 0x1F, 0xF8, 0xF4,
    0x0C, 0xE8, 0x17, 0x2B, 0xAE, 0xD7, 0xF7, 0xE2, 0xF7, 0xD3, 0xE8, 0x0C,
    0x1E, 0x01, 0x1F, 0xDF, 0x09, 0x11, 0xD0, 0x05, 0x01, 0x1D, 0xEE, 0xFD,
    0x02, 0x29, 0x11, 0x03, 0x0F, 0x08, 0xF2, 0xB3, 0x0B, 0xF9, 0x1C, 0x03,
    0xF6, 0xF7, 0xFF, 0x07, 0xF8, 0xFD, 0xF1, 0xF9, 0x0C, 0x2A, 0x04, 0xF5,
    0xE9, 0x56, 0x0A, 0x0E, 0xFB, 0x02, 0xEF, 0xD1, 0xE0, 0x9A, 0xCB, 0x25,
    0xD0, 0x34, 0x18, 0xF4, 0xE2, 0xEE, 0xD7, 0xFE, 0x0D, 0xFD, 0xE6, 0x16,
    0x06, 0xFE, 0xEE, 0xE2, 0x1D, 0x26, 0x28, 0xF5, 0xDF, 0x13, 0xFE, 0xE4,
    0xEC, 0x9D, 0x28, 0xFE, 0xE1, 0xFD, 0xE0, 0x18, 0x00, 0x01, 0xED, 0x3B,
    0xFB, 0x04, 0x01, 0x06, 0x00, 0xE5, 0x0E, 0xA3, 0x19, 0x17, 0x2C, 0x13,
    0xDE, 0x81, 0xD8, 0x1F, 0x1E, 0x19, 0x3C, 0x0E, 0xEC, 0xDD, 0xF6, 0x56,
    0x39, 0x0B, 0x44, 0xF3, 0x0B, 0xFD, 0x0B, 0x0B, 0x0D, 0xDE, 0xF1, 0x05,
    0x15, 0xE6, 0xEC, 0xE3, 0x3B, 0xD5, 0xB1, 0xED, 0x07, 0xEC, 0xEB, 0xD0,
    0xE4, 0xE1, 0xD0, 0xF6, 0xF8, 0x00, 0x0B, 0x0A, 0x07, 0x13, 0xEE, 0x0B,
    0x0F, 0x02, 0xFD, 0x01, 0xC7, 0x03, 0x18, 0x0A, 0xEE, 0x02, 0x00, 0x1D,
    0xE6, 0x01, 0xE6, 0x01, 0xFC, 0xF7, 0xF4, 0xF9, 0xEF, 0x06, 0x0B, 0x31,
    0xFE, 0xBA, 0xC4, 0xEC, 0xE0, 0xC5, 0xB4, 0x0E, 0xFD, 0xFE, 0x0E, 0xF5,
    0xF4, 0x06, 0x08, 0x07, 0x0D, 0x07, 0xE4, 0x2B, 0x04, 0x07, 0x1E, 0x27,
    0x2C, 0x06, 0x12, 0xDF, 0xEF, 0x12, 0x07, 0xDE, 0xFF, 0x00, 0x08, 0xFD,
    0x0B, 0x02, 0x10, 0x00, 0xFE, 0x11, 0xF8, 0xF4, 0x04, 0xF1, 0x0A, 0x0A,
    0xF7, 0xFF, 0x00, 0xFE, 0xF6, 0x1D, 0x16, 0x08, 0x02, 0x10, 0xE0, 0xF7,
    0xFB, 0x0B, 0x02, 0xF8, 0xE4, 0x15, 0xF3, 0x16, 0x57, 0x38, 0x23, 0x16,
    0xF5, 0x0C, 0xFC, 0x06, 0x01, 0xDA, 0x00, 0xF7, 0x00, 0x3C, 0xF1, 0xAC,
    0xE4, 0x28, 0xDF, 0xD5, 0x0A, 0x07, 0xED, 0x13, 0x05, 0x04, 0xED, 0xFC,
    0xFF, 0xFB, 0xF5, 0xFC, 0x0A, 0xD8, 0x09, 0x04, 0x0E, 0x02, 0x07, 0x05,
    0xF1, 0x0F, 0x18, 0x16, 0xFC, 0xD8, 0xFA, 0x08, 0x13, 0x01, 0xD8, 0xCE,
    0x08, 0xE2, 0xE9, 0x16, 0x06, 0xCD, 0x32, 0xCD, 0xFD, 0xB9, 0x05, 0xF1,
    0xDE, 0xD8, 0xBA, 0xE6, 0xF9, 0x0D, 0xFF, 0x03, 0x08, 0x0F, 0x0A, 0x06,
    0x1B, 0xFA, 0x04, 0x22, 0xF9, 0x07, 0x17, 0x1D, 0x29, 0xDB, 0x2A, 0xFB,
    0xE7, 0x12, 0xF5, 0xF8, 0x00, 0xFB, 0x03, 0xFD, 0x04, 0xEC, 0x10, 0xFE,
    0xFE, 0xEA, 0xE6, 0x18, 0x09, 0xF7, 0xFE, 0x04, 0x05, 0xF3, 0x0C, 0xFF,
    0x01, 0x07, 0x08, 0x05, 0xD8, 0x59, 0x21, 0xFD, 0xF5, 0x11, 0xBF, 0x0B,
    0xD8, 0x3A, 0xDC, 0x12, 0x30, 0x0D, 0xF3, 0x14, 0xF7, 0xFE, 0x09, 0x00,
    0x04, 0xF0, 0x01, 0xFB, 0x37, 0x31, 0x2E, 0xEF, 0xDA, 0x0E, 0xF6, 0xD8,
    0x08, 0x81, 0xFF, 0xFF, 0xE7, 0x02, 0x15, 0xE7, 0xFA, 0x0D, 0xFB, 0xFF,
    0x13, 0x0E, 0x06, 0x00, 0xE1, 0xDB, 0xFB, 0x06, 0x16, 0xF8, 0xFF, 0x27,
    0xF5, 0x16, 0xFB, 0xFF, 0x17, 0xF4, 0xE3, 0xFA, 0xED, 0xC9, 0x1E, 0x09,
    0xFE, 0xEC, 0xF2, 0x0D, 0xE8, 0xF9, 0x1E, 0xFE, 0xE5, 0xEC, 0xDA, 0xDA,
    0xFD, 0xFE, 0x0D, 0xFC, 0x0E, 0x09, 0x03, 0xFF, 0xF4, 0x1F, 0xDD, 0x0A,
    0x19, 0xF1, 0xE0, 0x01, 0xEB, 0x09, 0xF7, 0xFD, 0xFE, 0x1E, 0xF4, 0x03,
    0x02, 0xEC, 0x10, 0xFD, 0x07, 0x11, 0x02, 0x04, 0x07, 0xF8, 0x0A, 0x0B,
    0x00, 0xF8, 0x15, 0xF8, 0xFD, 0xF8, 0x03, 0x00, 0x09, 0xED, 0x12, 0x14,
    0xED, 0xF5, 0xF7, 0xDB, 0xFF, 0x0A, 0xEF, 0xF9, 0x00, 0x00, 0x00, 0x00,
    0x00, 0x00, 0x00, 0x00, 0x00, 0x00, 0x00, 0x00, 0x00, 0x00, 0x00, 0x00,
    0x00, 0x00, 0x00, 0x00, 0x00, 0x00, 0x00, 0x00, 0x00, 0x00, 0x00, 0x00,
    0x00, 0x00, 0x00, 0x00, 0x00, 0x00, 0x00, 0x00, 0x00, 0x00, 0x00, 0x00,
    0x00, 0x00, 0x00, 0x00, 0x00, 0x00, 0x00, 0x00, 0x00, 0x00, 0x00, 0x00,
    0x00, 0x00, 0x00, 0x00, 0x00, 0x00, 0x00, 0x00, 0x00, 0x00, 0x00, 0x00,
    0x00, 0x00, 0x00, 0x00, 0x00, 0x00, 0x00, 0x00, 0x00, 0x00, 0x00, 0x00,
    0x00, 0x00, 0x00, 0x00, 0x00, 0x00, 0x00, 0x00, 0x00, 0x00, 0x00, 0x00,
    0x00, 0x00, 0x00, 0x00, 0x00, 0x00, 0x00, 0x00, 0x00, 0x00, 0x00, 0x00,
    0x00, 0x00, 0x00, 0x00, 0x00, 0x00, 0x00, 0x00, 0x00, 0x00, 0x00, 0x00,
    0x00, 0x00, 0x00, 0x00, 0x00, 0x00, 0x00, 0x00, 0x00, 0x00, 0x00, 0x00,
    0x00, 0x00, 0x00, 0x00, 0x07, 0xE7, 0xFA, 0x53, 0x0E, 0x3A, 0xD7, 0x21,
    0xF8, 0x0D, 0xF0, 0x06, 0x00, 0x2E, 0x06, 0xFA, 0xF2, 0x04, 0xFB, 0x13,
    0xF7, 0x15, 0xE9, 0x26, 0xF0, 0xFD, 0x14, 0x07, 0x07, 0xFF, 0x01, 0xF4,
    0x14, 0x02, 0x20, 0x3D, 0x03, 0x23, 0xFA, 0xB7, 0xFB, 0xEB, 0x2D, 0xFE,
    0xBD, 0xBE, 0xD6, 0x22, 0x8F, 0x18, 0x1F, 0x24, 0x0D, 0xF3, 0xCA, 0xC0,
    0x2F, 0xF0, 0xFD, 0xEF, 0xEE, 0x0E, 0xFB, 0xDD, 0xEF, 0xDE, 0xD9, 0xFE,
    0x26, 0x09, 0xCB, 0xE0, 0x13, 0x02, 0xFD, 0xE9, 0x37, 0xD7, 0x0D, 0xF8,
    0xD5, 0xE8, 0xE9, 0xFA, 0xF1, 0x01, 0xF1, 0xF6, 0xF3, 0xFB, 0xED, 0x1B,
    0x0C, 0x04, 0x1C, 0x10, 0x06, 0xEE, 0xE7, 0x0B, 0x0B, 0x12, 0x15, 0x91,
    0x1B, 0x2A, 0x53, 0x05, 0x24, 0xCB, 0x00, 0x45, 0xF7, 0x13, 0x1C, 0x2B,
    0x11, 0xD0, 0xF2, 0x28, 0x08, 0xEE, 0xFA, 0xF6, 0x02, 0xF9, 0xE7, 0xFA,
    0xEE, 0xB8, 0xC8, 0x60, 0x06, 0x25, 0xD4, 0x03, 0x15, 0xEB, 0xA5, 0x2A,
    0xFF, 0xEA, 0x13, 0x01, 0xF6, 0xFD, 0x1C, 0x0E, 0xEE, 0xDF, 0x09, 0xF7,
    0xEF, 0x1E, 0x1E, 0x21, 0x29, 0x09, 0xED, 0xC6, 0x13, 0xF1, 0xC6, 0xDC,
    0xE7, 0xEF, 0x27, 0xBA, 0xB2, 0x15, 0x64, 0xFA, 0x13, 0x21, 0xFA, 0x1E,
    0xEC, 0xFA, 0x5E, 0x4F, 0x2F, 0x1C, 0x01, 0x92, 0xD3, 0x20, 0x09, 0xFA,
    0x03, 0x02, 0xD5, 0xBA, 0xDE, 0x13, 0xF4, 0x1F, 0xDA, 0xCB, 0xA0, 0x13,
    0x13, 0x3A, 0xFB, 0x29, 0xF1, 0xDD, 0x3D, 0x07, 0xBF, 0xFD, 0xF7, 0x0F,
    0x2C, 0xE9, 0xE8, 0xE6, 0xF9, 0x07, 0x01, 0xEC, 0xF7, 0xF6, 0x21, 0xFF,
    0xDB, 0x40, 0x20, 0xEC, 0xE1, 0x0A, 0x15, 0x08, 0x3C, 0xF5, 0x39, 0xD8,
    0xF8, 0xEB, 0xF9, 0x3E, 0x1E, 0xD5, 0xFC, 0x1A, 0x2E, 0x07, 0x24, 0x06,
    0x05, 0x14, 0x24, 0x0F, 0xFD, 0x1C, 0x27, 0x00, 0x45, 0x13, 0xCE, 0x2C,
    0x02, 0x34, 0x07, 0x0A, 0xF4, 0xF1, 0xA9, 0x0E, 0x10, 0xE9, 0x0A, 0x0A,
    0x01, 0x04, 0x0B, 0xF7, 0xF9, 0x02, 0xF5, 0xF6, 0x15, 0x08, 0x06, 0x0B,
    0x10, 0x18, 0x02, 0x09, 0xBF, 0xDC, 0xDF, 0xE6, 0xFB, 0xD9, 0x11, 0x08,
    0xD2, 0xF8, 0x3E, 0x24, 0xEB, 0x0F, 0xD6, 0x0D, 0xF5, 0x1D, 0x22, 0x05,
    0x2C, 0x05, 0x29, 0xC6, 0xDA, 0x08, 0xEF, 0xFB, 0xF5, 0xEC, 0x03, 0xB1,
    0xF5, 0x18, 0xEE, 0x2F, 0xF2, 0xEE, 0x02, 0x1D, 0x1F, 0x05, 0xF8, 0x0E,
    0xFA, 0xFB, 0x16, 0xE6, 0xF3, 0x03, 0xFB, 0x04, 0x11, 0x08, 0xEA, 0xFF,
    0x06, 0xFA, 0x0F, 0x16, 0x07, 0xF0, 0x0C, 0xFF, 0xFB, 0xFA, 0x1C, 0xFD,
    0x17, 0x16, 0xFA, 0x04, 0xF2, 0x0D, 0x42, 0x93, 0x66, 0xFA, 0xF1, 0x05,
    0x28, 0xB8, 0x08, 0xC7, 0x20, 0xE5, 0x25, 0x00, 0xF8, 0x15, 0x0F, 0x07,
    0x0A, 0xE6, 0x19, 0xEE, 0x00, 0x4F, 0xEC, 0xF7, 0xF6, 0xF0, 0x06, 0xF3,
    0xFD, 0xE7, 0x95, 0xFB, 0xFB, 0x08, 0x12, 0x04, 0xFB, 0xF4, 0xFD, 0x14,
    0x0A, 0xFF, 0x03, 0x10, 0xFE, 0xB9, 0x0A, 0xFD, 0xEA, 0xE3, 0x08, 0x00,
    0x11, 0x07, 0xD7, 0x0B, 0xFD, 0xC6, 0x37, 0x02, 0x43, 0x0F, 0xD0, 0x40,
    0x18, 0x7C, 0xB8, 0xF1, 0x0F, 0xDA, 0x4D, 0x09, 0xFA, 0xCE, 0x47, 0xFB,
    0xF3, 0xF8, 0xFC, 0xFC, 0x05, 0x13, 0xC4, 0x99, 0xF3, 0x27, 0xEC, 0x1B,
    0x2E, 0x19, 0x11, 0x1F, 0xFD, 0xEF, 0x19, 0x08, 0xE5, 0x06, 0x37, 0x05,
    0x1C, 0xF1, 0xE8, 0xFB, 0x28, 0x0A, 0xFB, 0xEA, 0xD7, 0x22, 0xD5, 0xF4,
    0x04, 0x09, 0xF4, 0x16, 0xEC, 0x1D, 0xEC, 0xF2, 0x21, 0xEA, 0x31, 0xE7,
    0xDE, 0x31, 0x1E, 0x38, 0xFD, 0xC1, 0x61, 0xEF, 0xF9, 0xFC, 0xD8, 0xBD,
    0xF7, 0xC3, 0xF1, 0x19, 0xFF, 0x23, 0x11, 0x1C, 0x08, 0xF5, 0xF5, 0xE2,
    0xCC, 0x14, 0x06, 0x75, 0xF5, 0xBF, 0xF6, 0x0B, 0xDC, 0x12, 0x81, 0x34,
    0x21, 0x37, 0x09, 0x04, 0x09, 0xF0, 0x1B, 0xF9, 0x23, 0x21, 0x08, 0x0C,
    0xE7, 0x81, 0x07, 0x15, 0xB8, 0xAC, 0xFD, 0xE2, 0x5A, 0x1F, 0xE5, 0x23,
    0x4B, 0x8C, 0xD0, 0x8D, 0x6B, 0x06, 0xF4, 0x07, 0xE1, 0x24, 0x98, 0x4D,
    0xB8, 0x0A, 0x4D, 0x27, 0xF8, 0xD4, 0x28, 0xAF, 0xF5, 0xE8, 0xED, 0x1D,
    0xF0, 0x1E, 0x81, 0xB9, 0xD7, 0x39, 0xEF, 0x7F, 0xE9, 0x3A, 0xEE, 0x13,
    0x1B, 0xFE, 0x1F, 0x1F, 0x1B, 0x16, 0x72, 0x3D, 0x68, 0xD6, 0x11, 0xFC,
    0x7F, 0x2A, 0xF6, 0x27, 0x88, 0x31, 0xB8, 0x08, 0x02, 0xDB, 0xFB, 0xFC,
    0x02, 0xDC, 0xC1, 0x2E, 0xF2, 0xBC, 0xE8, 0x82, 0x04, 0x0E, 0x32, 0x5F,
    0x0D, 0x9E, 0x47, 0xEF, 0xFA, 0xF8, 0x00, 0x0A, 0x2F, 0xC4, 0xD8, 0x22,
    0xF3, 0x0E, 0x5A, 0x07, 0x14, 0x21, 0xFE, 0xEA, 0x07, 0xF0, 0xD8, 0x67,
    0xED, 0x1A, 0x00, 0x0A, 0xDB, 0xE8, 0xEC, 0x21, 0x23, 0x09, 0xF6, 0xFF,
    0x14, 0xFF, 0xF9, 0xE6, 0xF9, 0xF4, 0xF9, 0xD2, 0xCF, 0x10, 0x08, 0xFF,
    0x00, 0x37, 0xF1, 0x37, 0xE2, 0x0E, 0x28, 0x0F, 0x14, 0xFB, 0xA4, 0x33,
    0x57, 0xD9, 0x48, 0xE3, 0xCB, 0xCD, 0xD0, 0x6A, 0xA7, 0x31, 0x16, 0xFE,
    0x11, 0xF0, 0xD4, 0xF4, 0x08, 0x13, 0xF0, 0xFF, 0xFB, 0x0F, 0xC3, 0xA0,
    0xF2, 0x1D, 0xED, 0x49, 0xFC, 0x4E, 0xEB, 0xFB, 0x11, 0x2A, 0x12, 0xF4,
    0x0A, 0x09, 0x2D, 0x35, 0x47, 0x2E, 0x24, 0x08, 0x04, 0x14, 0x01, 0x49,
    0xCD, 0xBB, 0x1B, 0xFB, 0xEE, 0xD3, 0xF2, 0xF5, 0xCF, 0x81, 0xED, 0xE7,
    0x10, 0x2F, 0xE1, 0x98, 0x0A, 0xB4, 0x0A, 0x7F, 0x5C, 0xB8, 0x3D, 0xE6,
    0xF8, 0x12, 0x51, 0x16, 0x17, 0xF9, 0xDB, 0xF6, 0x2A, 0xD5, 0x19, 0x02,
    0xFC, 0x2D, 0xDD, 0x01, 0xC4, 0xDA, 0x32, 0xFD, 0xE6, 0xFE, 0x1A, 0x16,
    0x01, 0xFA, 0xED, 0x07, 0x18, 0xEA, 0xF0, 0x24, 0xFB, 0xFC, 0xF6, 0x08,
    0x10, 0x16, 0x01, 0x0E, 0x03, 0xF5, 0x0D, 0xF5, 0xEF, 0x20, 0x0A, 0x25,
    0xFA, 0x04, 0xF6, 0xDD, 0xBE, 0x20, 0x1F, 0xBB, 0xF3, 0x08, 0xFD, 0xDD,
    0x2D, 0xAD, 0x51, 0x19, 0xE8, 0x31, 0xE1, 0xCC, 0x31, 0x0D, 0xD5, 0xEE,
    0xFA, 0x09, 0x01, 0xC9, 0xEA, 0x06, 0x00, 0xDF, 0x21, 0x09, 0xFE, 0x02,
    0x26, 0x4F, 0x14, 0x11, 0xF8, 0x32, 0x04, 0x07, 0xE9, 0xF4, 0x21, 0x1B,
    0xD6, 0xF1, 0xE7, 0x04, 0x00, 0xF5, 0x00, 0xF2, 0xFA, 0xDC, 0xE8, 0xF2,
    0x03, 0xF3, 0x02, 0x01, 0x2B, 0xEA, 0x16, 0xE3, 0x08, 0x14, 0xF6, 0x2E,
    0x07, 0xE7, 0x13, 0x00, 0x18, 0xBB, 0x48, 0x14, 0x18, 0x38, 0x3A, 0x08,
    0x03, 0x15, 0xF3, 0xF8, 0x1E, 0xDA, 0x14, 0x04, 0x0D, 0x1F, 0xE2, 0x03,
    0xCB, 0xF5, 0x38, 0xF9, 0xE9, 0xEF, 0x34, 0x2C, 0x03, 0x38, 0xCC, 0x11,
    0x26, 0x4B, 0xF5, 0x11, 0x00, 0xFB, 0xE2, 0xFF, 0xF8, 0xF7, 0x01, 0xFA,
    0x04, 0xFA, 0xFD, 0xE5, 0xCC, 0xE2, 0x09, 0xF0, 0xF8, 0x02, 0x21, 0x1C,
    0x0C, 0x18, 0xED, 0x33, 0x30, 0x22, 0xC3, 0xF5, 0xD4, 0xA9, 0x2B, 0x24,
    0xBF, 0x2B, 0xF1, 0xE0, 0xF9, 0x44, 0x09, 0xCC, 0x21, 0x0B, 0x21, 0xF0,
    0xEE, 0x07, 0xEC, 0xFC, 0x29, 0x21, 0x13, 0x1D, 0x24, 0x35, 0x17, 0x31,
    0x08, 0xE7, 0xFA, 0x08, 0x1B, 0xFF, 0x3F, 0x21, 0xC1, 0x0D, 0xEE, 0xEC,
    0x1D, 0xDD, 0x34, 0x00, 0xDB, 0x0C, 0xE6, 0x09, 0xF6, 0xEB, 0x08, 0xFD,
    0xFB, 0x03, 0x0F, 0xF1, 0x06, 0x16, 0xCD, 0xCE, 0xF9, 0xFC, 0x00, 0x3E,
    0x16, 0xB3, 0x44, 0xFA, 0x07, 0x2F, 0x2D, 0xD7, 0x1B, 0xC4, 0xC3, 0x10,
    0x0C, 0x18, 0x3A, 0x16, 0x05, 0x18, 0xB2, 0xF8, 0x07, 0xEE, 0x32, 0x05,
    0xF0, 0x0F, 0x38, 0x03, 0x04, 0x14, 0xB8, 0xF2, 0xF6, 0x14, 0xF9, 0xD4,
    0x02, 0xFE, 0xEE, 0xF8, 0xF7, 0x02, 0x08, 0xEE, 0x00, 0x05, 0x0F, 0x13,
    0xFA, 0x01, 0xF9, 0xF1, 0xFD, 0x25, 0xCA, 0xFE, 0x0F, 0xE9, 0xF1, 0x00,
    0x49, 0xF7, 0x83, 0x03, 0xCA, 0xEB, 0xF2, 0x00, 0xD2, 0xC7, 0x20, 0xF4,
    0xC7, 0xE9, 0x0A, 0xF1, 0x16, 0xF3, 0x2F, 0xE9, 0xFA, 0x01, 0xFF, 0xE4,
    0x22, 0xD9, 0x0A, 0x05, 0x26, 0x0C, 0x26, 0x1A, 0xF8, 0xF3, 0x0B, 0x04,
    0x04, 0xF9, 0x15, 0x0C, 0xF2, 0x04, 0x07, 0x0A, 0x18, 0x0A, 0xF3, 0x06,
    0xF6, 0xFE, 0xEE, 0xF9, 0xF2, 0x02, 0xF9, 0x03, 0x0A, 0xFE, 0xFA, 0xF4,
    0xE5, 0x0D, 0x1E, 0xEC, 0xEE, 0xF3, 0x04, 0x39, 0x4A, 0xC5, 0x55, 0xF0,
    0xEC, 0x2B, 0xCC, 0x81, 0xF0, 0xD5, 0xAE, 0x0A, 0x08, 0x10, 0x19, 0x14,
    0x0F, 0xEB, 0xDE, 0x0B, 0x00, 0x00, 0x00, 0x00, 0x00, 0x00, 0x00, 0x00,
    0x00, 0x00, 0x00, 0x00, 0x00, 0x00, 0x00, 0x00, 0x00, 0x00, 0x00, 0x00,
    0x00, 0x00, 0x00, 0x00, 0x00, 0x00, 0x00, 0x00, 0x00, 0x00, 0x00, 0x00,
    0x00, 0x00, 0x00, 0x00, 0x00, 0x00, 0x00, 0x00, 0x00, 0x00, 0x00, 0x00,
    0x00, 0x00, 0x00, 0x00, 0x00, 0x00, 0x00, 0x00, 0x00, 0x00, 0x00, 0x00,
    0x00, 0x00, 0x00, 0x00, 0x00, 0x00, 0x00, 0x00, 0x00, 0x00, 0x00, 0x00,
    0x00, 0x00, 0x00, 0x00, 0x00, 0x00, 0x00, 0x00, 0x00, 0x00, 0x00, 0x00,
    0x00, 0x00, 0x00, 0x00, 0x00, 0x00, 0x00, 0x00, 0x00, 0x00, 0x00, 0x00,
    0x00, 0x00, 0x00, 0x00, 0x00, 0x00, 0x00, 0x00, 0x00, 0x00, 0x00, 0x00,
    0x00, 0x00, 0x00, 0x00, 0x00, 0x00, 0x00, 0x00, 0x00, 0x00, 0x00, 0x00,
    0x00, 0x00, 0x00, 0x00, 0x00, 0x00, 0x00, 0x00, 0x00, 0x00, 0x00, 0x00
};
static const size_t  resnet_v1_8_32_tfs_int8_17_4_weights_size = sizeof(resnet_v1_8_32_tfs_int8_17_4_weights);
