/*
 * Auto-generated from: ic_1_vela.npz
 * Do not edit by hand.
 *
 * Generated for Ethos-U direct driver invocation (no TFLM).
 * Assumes a single NPU command stream with no CPU fallback.
 */
#pragma once
#include <stdint.h>
#include <stddef.h>

// Weight region index chosen by Vela:
#define IC_1_WEIGHT_REGION 0

__attribute__((aligned(32)))
static const uint8_t ic_1_weights[] = {
    0xB4, 0x1A, 0x00, 0x00, 0xF7, 0x99, 0x0D, 0x4A, 0x27, 0x00, 0xAC, 0x2C,
    0x00, 0x00, 0x99, 0xF0, 0xB8, 0x5D, 0x29, 0x00, 0xB4, 0x26, 0x00, 0x00,
    0x5A, 0x0F, 0xC3, 0x74, 0x28, 0x00, 0x25, 0x0D, 0x00, 0x00, 0x2C, 0x7D,
    0x69, 0x4D, 0x27, 0x00, 0x02, 0x1A, 0x00, 0x00, 0xE4, 0xBD, 0x7F, 0x7D,
    0x28, 0x00, 0xED, 0x0C, 0x00, 0x00, 0x36, 0x75, 0xB5, 0x58, 0x28, 0x00,
    0xDD, 0x1A, 0x00, 0x00, 0x25, 0xCD, 0x29, 0x7D, 0x28, 0x00, 0xD1, 0x13,
    0x00, 0x00, 0x71, 0x75, 0xA6, 0x61, 0x27, 0x00, 0xB7, 0x0D, 0x00, 0x00,
    0x00, 0x97, 0xB0, 0x56, 0x28, 0x00, 0xA8, 0x16, 0x00, 0x00, 0xD8, 0x06,
    0x48, 0x57, 0x28, 0x00, 0x9D, 0x16, 0x00, 0x00, 0x0C, 0x85, 0x91, 0x53,
    0x29, 0x00, 0x43, 0x39, 0x00, 0x00, 0x04, 0x71, 0xB1, 0x51, 0x28, 0x00,
    0xC7, 0x24, 0x00, 0x00, 0x5E, 0x39, 0xA0, 0x41, 0x27, 0x00, 0x51, 0xD1,
    0xFF, 0xFF, 0xEB, 0xC7, 0x07, 0x60, 0x2A, 0x00, 0xDC, 0x76, 0xFF, 0xFF,
    0xBB, 0x56, 0x13, 0x59, 0x29, 0x00, 0xD3, 0x21, 0x00, 0x00, 0xDE, 0x84,
    0x6B, 0x45, 0x26, 0x00, 0x01, 0x00, 0x00, 0x00, 0x00, 0x00, 0x00, 0x00,
    0x00, 0x00, 0x00, 0x00, 0x00, 0x00, 0x32, 0x84, 0x7C, 0x01, 0xB0, 0x01,
    0xC6, 0xAE, 0x3C, 0x9D, 0x90, 0x1C, 0x42, 0xE0, 0xE0, 0x1F, 0x19, 0x55,
    0x19, 0x21, 0xD1, 0x00, 0x00, 0x00, 0x00, 0x00, 0xF3, 0x18, 0xA3, 0x00,
    0x00, 0x00, 0x00, 0x00, 0xC4, 0xB2, 0x24, 0x00, 0x00, 0x00, 0x00, 0x00,
    0xBD, 0x04, 0x07, 0x00, 0x00, 0x00, 0x00, 0x00, 0x81, 0x32, 0x55, 0x00,
    0x00, 0x00, 0x00, 0x00, 0x4C, 0x17, 0x10, 0x00, 0x00, 0x00, 0x00, 0x00,
    0x3E, 0xA1, 0x41, 0x00, 0x00, 0x00, 0x00, 0x00, 0x67, 0xA2, 0xAC, 0x00,
    0x00, 0x00, 0x00, 0x00, 0x00, 0x00, 0x00, 0x00, 0x00, 0x00, 0x00, 0x00,
    0x00, 0x00, 0x00, 0x00, 0x00, 0x00, 0x00, 0x00, 0x00, 0x00, 0x00, 0x00,
    0x00, 0x00, 0x00, 0x00, 0x00, 0x00, 0x00, 0x00, 0x00, 0x00, 0x00, 0x00,
    0x00, 0x00, 0x00, 0x00, 0x00, 0x00, 0x00, 0x00, 0x00, 0x00, 0x00, 0x00,
    0x00, 0x00, 0x00, 0x00, 0x00, 0x00, 0x00, 0x00, 0x00, 0x00, 0x00, 0x00,
    0x00, 0x00, 0x00, 0x00, 0x00, 0x00, 0x00, 0x00, 0x15, 0xF0, 0xC4, 0x00,
    0x00, 0x00, 0x00, 0x00, 0x4A, 0xC0, 0xF5, 0x00, 0x00, 0x00, 0x00, 0x00,
    0x3F, 0x43, 0x20, 0x00, 0x00, 0x00, 0x00, 0x00, 0xBA, 0x3C, 0xEB, 0x00,
    0x00, 0x00, 0x00, 0x00, 0xAD, 0x25, 0xDB, 0x00, 0x00, 0x00, 0x00, 0x00,
    0xBC, 0x81, 0xAE, 0x00, 0x00, 0x00, 0x00, 0x00, 0xE8, 0xE9, 0x62, 0x00,
    0x00, 0x00, 0x00, 0x00, 0x71, 0xC2, 0xB9, 0x00, 0x00, 0x00, 0x00, 0x00,
    0x00, 0x00, 0x00, 0x00, 0x00, 0x00, 0x00, 0x00, 0x00, 0x00, 0x00, 0x00,
    0x00, 0x00, 0x00, 0x00, 0x00, 0x00, 0x00, 0x00, 0x00, 0x00, 0x00, 0x00,
    0x00, 0x00, 0x00, 0x00, 0x00, 0x00, 0x00, 0x00, 0x00, 0x00, 0x00, 0x00,
    0x00, 0x00, 0x00, 0x00, 0x00, 0x00, 0x00, 0x00, 0x00, 0x00, 0x00, 0x00,
    0x00, 0x00, 0x00, 0x00, 0x00, 0x00, 0x00, 0x00, 0x00, 0x00, 0x00, 0x00,
    0x00, 0x00, 0x00, 0x00, 0x4B, 0x11, 0x9A, 0x00, 0x00, 0x00, 0x00, 0x00,
    0x28, 0xA5, 0xEC, 0x00, 0x00, 0x00, 0x00, 0x00, 0xAC, 0x2D, 0x05, 0x00,
    0x00, 0x00, 0x00, 0x00, 0x04, 0x2D, 0xD0, 0x00, 0x00, 0x00, 0x00, 0x00,
    0x27, 0x02, 0xF0, 0x00, 0x00, 0x00, 0x00, 0x00, 0xF0, 0xC9, 0xBB, 0x00,
    0x00, 0x00, 0x00, 0x00, 0xD6, 0x18, 0x19, 0x00, 0x00, 0x00, 0x00, 0x00,
    0x21, 0x28, 0x07, 0x00, 0x00, 0x00, 0x00, 0x00, 0x00, 0x00, 0x00, 0x00,
    0x00, 0x00, 0x00, 0x00, 0x00, 0x00, 0x00, 0x00, 0x00, 0x00, 0x00, 0x00,
    0x00, 0x00, 0x00, 0x00, 0x00, 0x00, 0x00, 0x00, 0x00, 0x00, 0x00, 0x00,
    0x00, 0x00, 0x00, 0x00, 0x00, 0x00, 0x00, 0x00, 0x00, 0x00, 0x00, 0x00,
    0x00, 0x00, 0x00, 0x00, 0x00, 0x00, 0x00, 0x00, 0x00, 0x00, 0x00, 0x00,
    0x00, 0x00, 0x00, 0x00, 0x00, 0x00, 0x00, 0x00, 0x00, 0x00, 0x00, 0x00,
    0xEC, 0xD7, 0xED, 0x00, 0x00, 0x00, 0x00, 0x00, 0x7F, 0xE4, 0x60, 0x00,
    0x00, 0x00, 0x00, 0x00, 0xCF, 0xC3, 0xA7, 0x00, 0x00, 0x00, 0x00, 0x00,
    0x09, 0x18, 0xD6, 0x00, 0x00, 0x00, 0x00, 0x00, 0x0D, 0x25, 0x1B, 0x00,
    0x00, 0x00, 0x00, 0x00, 0xF0, 0x65, 0x26, 0x00, 0x00, 0x00, 0x00, 0x00,
    0x65, 0x7F, 0xEE, 0x00, 0x00, 0x00, 0x00, 0x00, 0xCF, 0x01, 0xD2, 0x00,
    0x00, 0x00, 0x00, 0x00, 0x00, 0x00, 0x00, 0x00, 0x00, 0x00, 0x00, 0x00,
    0x00, 0x00, 0x00, 0x00, 0x00, 0x00, 0x00, 0x00, 0x00, 0x00, 0x00, 0x00,
    0x00, 0x00, 0x00, 0x00, 0x00, 0x00, 0x00, 0x00, 0x00, 0x00, 0x00, 0x00,
    0x00, 0x00, 0x00, 0x00, 0x00, 0x00, 0x00, 0x00, 0x00, 0x00, 0x00, 0x00,
    0x00, 0x00, 0x00, 0x00, 0x00, 0x00, 0x00, 0x00, 0x00, 0x00, 0x00, 0x00,
    0x00, 0x00, 0x00, 0x00, 0x00, 0x00, 0x00, 0x00, 0xF9, 0x28, 0xF4, 0x00,
    0x00, 0x00, 0x00, 0x00, 0xA9, 0x8A, 0x9F, 0x00, 0x00, 0x00, 0x00, 0x00,
    0xBC, 0xB6, 0xEB, 0x00, 0x00, 0x00, 0x00, 0x00, 0xF0, 0x7F, 0x13, 0x00,
    0x00, 0x00, 0x00, 0x00, 0xA3, 0xF7, 0xE2, 0x00, 0x00, 0x00, 0x00, 0x00,
    0xCF, 0x0C, 0x09, 0x00, 0x00, 0x00, 0x00, 0x00, 0x00, 0x07, 0x99, 0x00,
    0x00, 0x00, 0x00, 0x00, 0xEB, 0x16, 0x26, 0x00, 0x00, 0x00, 0x00, 0x00,
    0x00, 0x00, 0x00, 0x00, 0x00, 0x00, 0x00, 0x00, 0x00, 0x00, 0x00, 0x00,
    0x00, 0x00, 0x00, 0x00, 0x00, 0x00, 0x00, 0x00, 0x00, 0x00, 0x00, 0x00,
    0x00, 0x00, 0x00, 0x00, 0x00, 0x00, 0x00, 0x00, 0x00, 0x00, 0x00, 0x00,
    0x00, 0x00, 0x00, 0x00, 0x00, 0x00, 0x00, 0x00, 0x00, 0x00, 0x00, 0x00,
    0x00, 0x00, 0x00, 0x00, 0x00, 0x00, 0x00, 0x00, 0x00, 0x00, 0x00, 0x00,
    0x00, 0x00, 0x00, 0x00, 0xA7, 0xF6, 0x4B, 0x00, 0x00, 0x00, 0x00, 0x00,
    0xE7, 0xF1, 0xE1, 0x00, 0x00, 0x00, 0x00, 0x00, 0x30, 0xC9, 0xF4, 0x00,
    0x00, 0x00, 0x00, 0x00, 0x01, 0x22, 0x0F, 0x00, 0x00, 0x00, 0x00, 0x00,
    0x97, 0x0E, 0x5C, 0x00, 0x00, 0x00, 0x00, 0x00, 0xB6, 0xEE, 0xEA, 0x00,
    0x00, 0x00, 0x00, 0x00, 0xCA, 0xC5, 0x0D, 0x00, 0x00, 0x00, 0x00, 0x00,
    0x1A, 0x4F, 0x0E, 0x00, 0x00, 0x00, 0x00, 0x00, 0x00, 0x00, 0x00, 0x00,
    0x00, 0x00, 0x00, 0x00, 0x00, 0x00, 0x00, 0x00, 0x00, 0x00, 0x00, 0x00,
    0x00, 0x00, 0x00, 0x00, 0x00, 0x00, 0x00, 0x00, 0x00, 0x00, 0x00, 0x00,
    0x00, 0x00, 0x00, 0x00, 0x00, 0x00, 0x00, 0x00, 0x00, 0x00, 0x00, 0x00,
    0x00, 0x00, 0x00, 0x00, 0x00, 0x00, 0x00, 0x00, 0x00, 0x00, 0x00, 0x00,
    0x00, 0x00, 0x00, 0x00, 0x00, 0x00, 0x00, 0x00, 0x00, 0x00, 0x00, 0x00,
    0xAE, 0xFF, 0x08, 0x00, 0x00, 0x00, 0x00, 0x00, 0xBA, 0x26, 0x2B, 0x00,
    0x00, 0x00, 0x00, 0x00, 0x7F, 0x05, 0xF8, 0x00, 0x00, 0x00, 0x00, 0x00,
    0x2D, 0xFA, 0xD7, 0x00, 0x00, 0x00, 0x00, 0x00, 0x69, 0x20, 0xDB, 0x00,
    0x00, 0x00, 0x00, 0x00, 0xF4, 0xFE, 0x1D, 0x00, 0x00, 0x00, 0x00, 0x00,
    0x16, 0x5C, 0x40, 0x00, 0x00, 0x00, 0x00, 0x00, 0x9F, 0x46, 0x3A, 0x00,
    0x00, 0x00, 0x00, 0x00, 0x00, 0x00, 0x00, 0x00, 0x00, 0x00, 0x00, 0x00,
    0x00, 0x00, 0x00, 0x00, 0x00, 0x00, 0x00, 0x00, 0x00, 0x00, 0x00, 0x00,
    0x00, 0x00, 0x00, 0x00, 0x00, 0x00, 0x00, 0x00, 0x00, 0x00, 0x00, 0x00,
    0x00, 0x00, 0x00, 0x00, 0x00, 0x00, 0x00, 0x00, 0x00, 0x00, 0x00, 0x00,
    0x00, 0x00, 0x00, 0x00, 0x00, 0x00, 0x00, 0x00, 0x00, 0x00, 0x00, 0x00,
    0x00, 0x00, 0x00, 0x00, 0x00, 0x00, 0x00, 0x00, 0x26, 0x3A, 0x7F, 0x00,
    0x00, 0x00, 0x00, 0x00, 0x32, 0x1F, 0xEB, 0x00, 0x00, 0x00, 0x00, 0x00,
    0x19, 0x36, 0xEA, 0x00, 0x00, 0x00, 0x00, 0x00, 0xD9, 0x07, 0xDB, 0x00,
    0x00, 0x00, 0x00, 0x00, 0x60, 0xB9, 0xD5, 0x00, 0x00, 0x00, 0x00, 0x00,
    0x52, 0xDE, 0x28, 0x00, 0x00, 0x00, 0x00, 0x00, 0xC6, 0xC5, 0x84, 0x00,
    0x00, 0x00, 0x00, 0x00, 0x81, 0x88, 0xFE, 0x00, 0x00, 0x00, 0x00, 0x00,
    0x00, 0x00, 0x00, 0x00, 0x00, 0x00, 0x00, 0x00, 0x00, 0x00, 0x00, 0x00,
    0x00, 0x00, 0x00, 0x00, 0x00, 0x00, 0x00, 0x00, 0x00, 0x00, 0x00, 0x00,
    0x00, 0x00, 0x00, 0x00, 0x00, 0x00, 0x00, 0x00, 0x00, 0x00, 0x00, 0x00,
    0x00, 0x00, 0x00, 0x00, 0x00, 0x00, 0x00, 0x00, 0x00, 0x00, 0x00, 0x00,
    0x00, 0x00, 0x00, 0x00, 0x00, 0x00, 0x00, 0x00, 0x00, 0x00, 0x00, 0x00,
    0x00, 0x00, 0x00, 0x00, 0xA8, 0xE8, 0x2C, 0x00, 0x00, 0x00, 0x00, 0x00,
    0x61, 0xAB, 0x4F, 0x00, 0x00, 0x00, 0x00, 0x00, 0x07, 0x42, 0x5D, 0x00,
    0x00, 0x00, 0x00, 0x00, 0xE0, 0x1C, 0xF7, 0x00, 0x00, 0x00, 0x00, 0x00,
    0x4E, 0xAC, 0xE9, 0x00, 0x00, 0x00, 0x00, 0x00, 0x55, 0x65, 0x22, 0x00,
    0x00, 0x00, 0x00, 0x00, 0xEB, 0x53, 0xAB, 0x00, 0x00, 0x00, 0x00, 0x00,
    0x1B, 0x37, 0x5B, 0x00, 0x00, 0x00, 0x00, 0x00, 0x00, 0x00, 0x00, 0x00,
    0x00, 0x00, 0x00, 0x00, 0x00, 0x00, 0x00, 0x00, 0x00, 0x00, 0x00, 0x00,
    0x00, 0x00, 0x00, 0x00, 0x00, 0x00, 0x00, 0x00, 0x00, 0x00, 0x00, 0x00,
    0x00, 0x00, 0x00, 0x00, 0x00, 0x00, 0x00, 0x00, 0x00, 0x00, 0x00, 0x00,
    0x00, 0x00, 0x00, 0x00, 0x00, 0x00, 0x00, 0x00, 0x00, 0x00, 0x00, 0x00,
    0x00, 0x00, 0x00, 0x00, 0x00, 0x00, 0x00, 0x00, 0x00, 0x00, 0x00, 0x00,
    0x00, 0x00, 0x00, 0x00, 0x00, 0x00, 0x00, 0x00, 0x00, 0x00, 0x00, 0x00,
    0x00, 0x00, 0x00, 0x00, 0x00, 0x00, 0x00, 0x00, 0x00, 0x00, 0x00, 0x00,
    0x00, 0x00, 0x00, 0x00, 0x00, 0x00, 0x00, 0x00, 0x00, 0x00, 0x00, 0x00,
    0x00, 0x00, 0x00, 0x00, 0x00, 0x00, 0x00, 0x00, 0x00, 0x00, 0x00, 0x00,
    0x00, 0x00, 0x00, 0x00, 0x00, 0x00, 0x00, 0x00, 0x00, 0x00, 0x00, 0x00,
    0x00, 0x00, 0x00, 0x00, 0x00, 0x00, 0x00, 0x00, 0x00, 0x00, 0x00, 0x00,
    0x00, 0x00, 0x00, 0x00, 0x00, 0x00, 0x00, 0x00, 0x00, 0x00, 0x00, 0x00,
    0x00, 0x00, 0x00, 0x00, 0x00, 0x00, 0x00, 0x00, 0x00, 0x00, 0x00, 0x00,
    0x00, 0x00, 0x00, 0x00, 0x00, 0x00, 0x00, 0x00, 0x00, 0x00, 0x00, 0x00,
    0x00, 0x00, 0x00, 0x00, 0x00, 0x00, 0x00, 0x00, 0x00, 0x00, 0x00, 0x00,
    0x00, 0x00, 0x00, 0x00, 0x00, 0x00, 0x00, 0x00, 0x2A, 0xA2, 0x15, 0x00,
    0x00, 0x00, 0x00, 0x00, 0x4C, 0xE5, 0x1F, 0x00, 0x00, 0x00, 0x00, 0x00,
    0x64, 0xCB, 0x18, 0x00, 0x00, 0x00, 0x00, 0x00, 0x02, 0xE6, 0x54, 0x00,
    0x00, 0x00, 0x00, 0x00, 0xA0, 0xC1, 0xFB, 0x00, 0x00, 0x00, 0x00, 0x00,
    0x8D, 0xE0, 0x33, 0x00, 0x00, 0x00, 0x00, 0x00, 0x24, 0xEA, 0xFE, 0x00,
    0x00, 0x00, 0x00, 0x00, 0x60, 0xDC, 0x1E, 0x00, 0x00, 0x00, 0x00, 0x00,
    0x00, 0x00, 0x00, 0x00, 0x00, 0x00, 0x00, 0x00, 0x00, 0x00, 0x00, 0x00,
    0x00, 0x00, 0x00, 0x00, 0x00, 0x00, 0x00, 0x00, 0x00, 0x00, 0x00, 0x00,
    0x00, 0x00, 0x00, 0x00, 0x00, 0x00, 0x00, 0x00, 0x00, 0x00, 0x00, 0x00,
    0x00, 0x00, 0x00, 0x00, 0x00, 0x00, 0x00, 0x00, 0x00, 0x00, 0x00, 0x00,
    0x00, 0x00, 0x00, 0x00, 0x00, 0x00, 0x00, 0x00, 0x00, 0x00, 0x00, 0x00,
    0x00, 0x00, 0x00, 0x00, 0x67, 0x59, 0x7F, 0x00, 0x00, 0x00, 0x00, 0x00,
    0xF4, 0xEE, 0xE5, 0x00, 0x00, 0x00, 0x00, 0x00, 0x5F, 0x0C, 0x24, 0x00,
    0x00, 0x00, 0x00, 0x00, 0x5C, 0x9A, 0x3C, 0x00, 0x00, 0x00, 0x00, 0x00,
    0xC5, 0xBF, 0x4C, 0x00, 0x00, 0x00, 0x00, 0x00, 0x8A, 0x2C, 0x5A, 0x00,
    0x00, 0x00, 0x00, 0x00, 0xF5, 0xD1, 0x17, 0x00, 0x00, 0x00, 0x00, 0x00,
    0xFC, 0x86, 0xCC, 0x00, 0x00, 0x00, 0x00, 0x00, 0x00, 0x00, 0x00, 0x00,
    0x00, 0x00, 0x00, 0x00, 0x00, 0x00, 0x00, 0x00, 0x00, 0x00, 0x00, 0x00,
    0x00, 0x00, 0x00, 0x00, 0x00, 0x00, 0x00, 0x00, 0x00, 0x00, 0x00, 0x00,
    0x00, 0x00, 0x00, 0x00, 0x00, 0x00, 0x00, 0x00, 0x00, 0x00, 0x00, 0x00,
    0x00, 0x00, 0x00, 0x00, 0x00, 0x00, 0x00, 0x00, 0x00, 0x00, 0x00, 0x00,
    0x00, 0x00, 0x00, 0x00, 0x00, 0x00, 0x00, 0x00, 0x00, 0x00, 0x00, 0x00,
    0x5F, 0xF3, 0xE8, 0x00, 0x00, 0x00, 0x00, 0x00, 0xD0, 0xDB, 0x04, 0x00,
    0x00, 0x00, 0x00, 0x00, 0xF2, 0x46, 0xF0, 0x00, 0x00, 0x00, 0x00, 0x00,
    0xCC, 0xA5, 0xC9, 0x00, 0x00, 0x00, 0x00, 0x00, 0x17, 0x7F, 0x35, 0x00,
    0x00, 0x00, 0x00, 0x00, 0xA7, 0xF0, 0xDE, 0x00, 0x00, 0x00, 0x00, 0x00,
    0x37, 0xFB, 0x3A, 0x00, 0x00, 0x00, 0x00, 0x00, 0x0A, 0xE4, 0x7F, 0x00,
    0x00, 0x00, 0x00, 0x00, 0x00, 0x00, 0x00, 0x00, 0x00, 0x00, 0x00, 0x00,
    0x00, 0x00, 0x00, 0x00, 0x00, 0x00, 0x00, 0x00, 0x00, 0x00, 0x00, 0x00,
    0x00, 0x00, 0x00, 0x00, 0x00, 0x00, 0x00, 0x00, 0x00, 0x00, 0x00, 0x00,
    0x00, 0x00, 0x00, 0x00, 0x00, 0x00, 0x00, 0x00, 0x00, 0x00, 0x00, 0x00,
    0x00, 0x00, 0x00, 0x00, 0x00, 0x00, 0x00, 0x00, 0x00, 0x00, 0x00, 0x00,
    0x00, 0x00, 0x00, 0x00, 0x00, 0x00, 0x00, 0x00, 0x91, 0x8A, 0xEC, 0x00,
    0x00, 0x00, 0x00, 0x00, 0xF2, 0xE8, 0x08, 0x00, 0x00, 0x00, 0x00, 0x00,
    0x38, 0x47, 0x06, 0x00, 0x00, 0x00, 0x00, 0x00, 0x7F, 0x50, 0xD7, 0x00,
    0x00, 0x00, 0x00, 0x00, 0x02, 0x24, 0xFB, 0x00, 0x00, 0x00, 0x00, 0x00,
    0xC2, 0x1E, 0x2F, 0x00, 0x00, 0x00, 0x00, 0x00, 0x34, 0x2B, 0xEA, 0x00,
    0x00, 0x00, 0x00, 0x00, 0x99, 0x09, 0x0A, 0x00, 0x00, 0x00, 0x00, 0x00,
    0x00, 0x00, 0x00, 0x00, 0x00, 0x00, 0x00, 0x00, 0x00, 0x00, 0x00, 0x00,
    0x00, 0x00, 0x00, 0x00, 0x00, 0x00, 0x00, 0x00, 0x00, 0x00, 0x00, 0x00,
    0x00, 0x00, 0x00, 0x00, 0x00, 0x00, 0x00, 0x00, 0x00, 0x00, 0x00, 0x00,
    0x00, 0x00, 0x00, 0x00, 0x00, 0x00, 0x00, 0x00, 0x00, 0x00, 0x00, 0x00,
    0x00, 0x00, 0x00, 0x00, 0x00, 0x00, 0x00, 0x00, 0x00, 0x00, 0x00, 0x00,
    0x00, 0x00, 0x00, 0x00, 0x94, 0x23, 0x66, 0x00, 0x00, 0x00, 0x00, 0x00,
    0xC5, 0xCC, 0xCF, 0x00, 0x00, 0x00, 0x00, 0x00, 0x1B, 0x89, 0xD0, 0x00,
    0x00, 0x00, 0x00, 0x00, 0xCD, 0x1E, 0x45, 0x00, 0x00, 0x00, 0x00, 0x00,
    0xEB, 0x2C, 0xCE, 0x00, 0x00, 0x00, 0x00, 0x00, 0x0F, 0x5B, 0x7F, 0x00,
    0x00, 0x00, 0x00, 0x00, 0x2E, 0x36, 0x2B, 0x00, 0x00, 0x00, 0x00, 0x00,
    0x0E, 0x56, 0xF0, 0x00, 0x00, 0x00, 0x00, 0x00, 0x00, 0x00, 0x00, 0x00,
    0x00, 0x00, 0x00, 0x00, 0x00, 0x00, 0x00, 0x00, 0x00, 0x00, 0x00, 0x00,
    0x00, 0x00, 0x00, 0x00, 0x00, 0x00, 0x00, 0x00, 0x00, 0x00, 0x00, 0x00,
    0x00, 0x00, 0x00, 0x00, 0x00, 0x00, 0x00, 0x00, 0x00, 0x00, 0x00, 0x00,
    0x00, 0x00, 0x00, 0x00, 0x00, 0x00, 0x00, 0x00, 0x00, 0x00, 0x00, 0x00,
    0x00, 0x00, 0x00, 0x00, 0x00, 0x00, 0x00, 0x00, 0x00, 0x00, 0x00, 0x00,
    0xF5, 0xEE, 0x19, 0x00, 0x00, 0x00, 0x00, 0x00, 0x7F, 0x30, 0x61, 0x00,
    0x00, 0x00, 0x00, 0x00, 0x4A, 0xE1, 0xF7, 0x00, 0x00, 0x00, 0x00, 0x00,
    0xF4, 0x01, 0x09, 0x00, 0x00, 0x00, 0x00, 0x00, 0x2A, 0xC3, 0x30, 0x00,
    0x00, 0x00, 0x00, 0x00, 0xE9, 0x00, 0xEB, 0x00, 0x00, 0x00, 0x00, 0x00,
    0xDA, 0xE9, 0xF3, 0x00, 0x00, 0x00, 0x00, 0x00, 0xFF, 0x1D, 0xB9, 0x00,
    0x00, 0x00, 0x00, 0x00, 0x00, 0x00, 0x00, 0x00, 0x00, 0x00, 0x00, 0x00,
    0x00, 0x00, 0x00, 0x00, 0x00, 0x00, 0x00, 0x00, 0x00, 0x00, 0x00, 0x00,
    0x00, 0x00, 0x00, 0x00, 0x00, 0x00, 0x00, 0x00, 0x00, 0x00, 0x00, 0x00,
    0x00, 0x00, 0x00, 0x00, 0x00, 0x00, 0x00, 0x00, 0x00, 0x00, 0x00, 0x00,
    0x00, 0x00, 0x00, 0x00, 0x00, 0x00, 0x00, 0x00, 0x00, 0x00, 0x00, 0x00,
    0x00, 0x00, 0x00, 0x00, 0x00, 0x00, 0x00, 0x00, 0x35, 0xC6, 0x13, 0x00,
    0x00, 0x00, 0x00, 0x00, 0x09, 0xF9, 0x10, 0x00, 0x00, 0x00, 0x00, 0x00,
    0xDD, 0xCA, 0xE9, 0x00, 0x00, 0x00, 0x00, 0x00, 0xBE, 0x97, 0xEF, 0x00,
    0x00, 0x00, 0x00, 0x00, 0x54, 0xBA, 0xC8, 0x00, 0x00, 0x00, 0x00, 0x00,
    0x0A, 0x1C, 0xDE, 0x00, 0x00, 0x00, 0x00, 0x00, 0xD7, 0x21, 0xE6, 0x00,
    0x00, 0x00, 0x00, 0x00, 0x11, 0xF9, 0xC7, 0x00, 0x00, 0x00, 0x00, 0x00,
    0x00, 0x00, 0x00, 0x00, 0x00, 0x00, 0x00, 0x00, 0x00, 0x00, 0x00, 0x00,
    0x00, 0x00, 0x00, 0x00, 0x00, 0x00, 0x00, 0x00, 0x00, 0x00, 0x00, 0x00,
    0x00, 0x00, 0x00, 0x00, 0x00, 0x00, 0x00, 0x00, 0x00, 0x00, 0x00, 0x00,
    0x00, 0x00, 0x00, 0x00, 0x00, 0x00, 0x00, 0x00, 0x00, 0x00, 0x00, 0x00,
    0x00, 0x00, 0x00, 0x00, 0x00, 0x00, 0x00, 0x00, 0x00, 0x00, 0x00, 0x00,
    0x00, 0x00, 0x00, 0x00, 0xF5, 0xCB, 0xC6, 0x00, 0x00, 0x00, 0x00, 0x00,
    0x13, 0xE1, 0x2E, 0x00, 0x00, 0x00, 0x00, 0x00, 0xF3, 0x81, 0xA8, 0x00,
    0x00, 0x00, 0x00, 0x00, 0xD8, 0xAB, 0xDF, 0x00, 0x00, 0x00, 0x00, 0x00,
    0x41, 0xC8, 0x1E, 0x00, 0x00, 0x00, 0x00, 0x00, 0xE7, 0x08, 0x1F, 0x00,
    0x00, 0x00, 0x00, 0x00, 0x1C, 0x2E, 0xF7, 0x00, 0x00, 0x00, 0x00, 0x00,
    0x06, 0x5F, 0xDE, 0x00, 0x00, 0x00, 0x00, 0x00, 0x00, 0x00, 0x00, 0x00,
    0x00, 0x00, 0x00, 0x00, 0x00, 0x00, 0x00, 0x00, 0x00, 0x00, 0x00, 0x00,
    0x00, 0x00, 0x00, 0x00, 0x00, 0x00, 0x00, 0x00, 0x00, 0x00, 0x00, 0x00,
    0x00, 0x00, 0x00, 0x00, 0x00, 0x00, 0x00, 0x00, 0x00, 0x00, 0x00, 0x00,
    0x00, 0x00, 0x00, 0x00, 0x00, 0x00, 0x00, 0x00, 0x00, 0x00, 0x00, 0x00,
    0x00, 0x00, 0x00, 0x00, 0x00, 0x00, 0x00, 0x00, 0x00, 0x00, 0x00, 0x00,
    0xF9, 0x0F, 0xEB, 0x00, 0x00, 0x00, 0x00, 0x00, 0xE5, 0x23, 0xBE, 0x00,
    0x00, 0x00, 0x00, 0x00, 0x1B, 0xD3, 0xBD, 0x00, 0x00, 0x00, 0x00, 0x00,
    0x28, 0x28, 0xC8, 0x00, 0x00, 0x00, 0x00, 0x00, 0x17, 0xE2, 0xF8, 0x00,
    0x00, 0x00, 0x00, 0x00, 0x21, 0x20, 0x46, 0x00, 0x00, 0x00, 0x00, 0x00,
    0x64, 0x0E, 0x81, 0x00, 0x00, 0x00, 0x00, 0x00, 0xBC, 0x04, 0x3B, 0x00,
    0x00, 0x00, 0x00, 0x00, 0x00, 0x00, 0x00, 0x00, 0x00, 0x00, 0x00, 0x00,
    0x00, 0x00, 0x00, 0x00, 0x00, 0x00, 0x00, 0x00, 0x00, 0x00, 0x00, 0x00,
    0x00, 0x00, 0x00, 0x00, 0x00, 0x00, 0x00, 0x00, 0x00, 0x00, 0x00, 0x00,
    0x00, 0x00, 0x00, 0x00, 0x00, 0x00, 0x00, 0x00, 0x00, 0x00, 0x00, 0x00,
    0x00, 0x00, 0x00, 0x00, 0x00, 0x00, 0x00, 0x00, 0x00, 0x00, 0x00, 0x00,
    0x00, 0x00, 0x00, 0x00, 0x00, 0x00, 0x00, 0x00, 0x00, 0x00, 0x00, 0x00,
    0x00, 0x00, 0x00, 0x00, 0x00, 0x00, 0x00, 0x00, 0x00, 0x00, 0x00, 0x00,
    0x00, 0x00, 0x00, 0x00, 0x00, 0x00, 0x00, 0x00, 0x00, 0x00, 0x00, 0x00,
    0x00, 0x00, 0x00, 0x00, 0x00, 0x00, 0x00, 0x00, 0x00, 0x00, 0x00, 0x00,
    0x00, 0x00, 0x00, 0x00, 0x00, 0x00, 0x00, 0x00, 0x00, 0x00, 0x00, 0x00,
    0x00, 0x00, 0x00, 0x00, 0x00, 0x00, 0x00, 0x00, 0x00, 0x00, 0x00, 0x00,
    0x00, 0x00, 0x00, 0x00, 0x00, 0x00, 0x00, 0x00, 0x00, 0x00, 0x00, 0x00,
    0x00, 0x00, 0x00, 0x00, 0x00, 0x00, 0x00, 0x00, 0x00, 0x00, 0x00, 0x00,
    0x00, 0x00, 0x00, 0x00, 0x00, 0x00, 0x00, 0x00, 0x00, 0x00, 0x00, 0x00,
    0x00, 0x00, 0x00, 0x00, 0x00, 0x00, 0x00, 0x00, 0x00, 0x00, 0x00, 0x00,
    0x00, 0x00, 0x00, 0x00, 0x00, 0x00, 0x00, 0x00, 0x00, 0x00, 0x00, 0x00,
    0x00, 0x00, 0x00, 0x00, 0xC9, 0x47, 0x00, 0x00, 0x4D, 0xBC, 0xFA, 0x56,
    0x27, 0x00, 0xEE, 0xCC, 0xFF, 0xFF, 0x76, 0xA5, 0xA1, 0x47, 0x28, 0x00,
    0xD2, 0x48, 0x00, 0x00, 0x58, 0x10, 0xDF, 0x7A, 0x28, 0x00, 0xE3, 0x22,
    0x00, 0x00, 0x78, 0x36, 0x5C, 0x7E, 0x28, 0x00, 0x40, 0x58, 0x00, 0x00,
    0x5F, 0xF6, 0x74, 0x46, 0x27, 0x00, 0xB5, 0x08, 0x00, 0x00, 0x48, 0xE9,
    0xC6, 0x60, 0x27, 0x00, 0xC1, 0xED, 0xFF, 0xFF, 0x84, 0xDE, 0x69, 0x40,
    0x27, 0x00, 0x43, 0x07, 0x00, 0x00, 0x02, 0xFB, 0xD6, 0x5F, 0x27, 0x00,
    0x1C, 0x36, 0x00, 0x00, 0xD7, 0x83, 0x0D, 0x6E, 0x28, 0x00, 0x2A, 0x00,
    0x00, 0x00, 0x97, 0x46, 0x91, 0x41, 0x26, 0x00, 0x0D, 0x90, 0xFF, 0xFF,
    0xE8, 0x73, 0x4A, 0x44, 0x27, 0x00, 0x8A, 0xEB, 0xFF, 0xFF, 0xFC, 0xB3,
    0xD8, 0x5C, 0x27, 0x00, 0xC1, 0x07, 0x00, 0x00, 0xED, 0x7D, 0x44, 0x61,
    0x27, 0x00, 0x89, 0x02, 0x00, 0x00, 0xDB, 0x7E, 0xFF, 0x59, 0x27, 0x00,
    0x45, 0x04, 0x00, 0x00, 0x77, 0xCF, 0xCE, 0x44, 0x27, 0x00, 0x12, 0x1C,
    0x00, 0x00, 0x52, 0xAB, 0x94, 0x44, 0x27, 0x00, 0x01, 0x00, 0x00, 0x00,
    0x00, 0x00, 0x00, 0x00, 0x00, 0x00, 0x00, 0x00, 0x00, 0x00, 0x1E, 0x20,
    0x18, 0x48, 0x10, 0x82, 0x86, 0x04, 0x3F, 0x29, 0x36, 0x58, 0x20, 0x01,
    0x08, 0xC6, 0x11, 0x45, 0x0F, 0x08, 0x03, 0xFC, 0xF0, 0x1A, 0x09, 0x3F,
    0x09, 0xEC, 0xF3, 0x0B, 0x12, 0x40, 0x18, 0x18, 0xDD, 0x45, 0xF2, 0x6A,
    0xFA, 0x27, 0x56, 0x24, 0x2D, 0x02, 0x88, 0xAE, 0x17, 0x8B, 0xAA, 0xD7,
    0xC9, 0x17, 0xA2, 0x8C, 0x2D, 0xE3, 0x8D, 0x11, 0xAD, 0xF0, 0x20, 0xE4,
    0x04, 0x1A, 0x3A, 0x13, 0x7F, 0x4E, 0x17, 0x24, 0xDB, 0x3C, 0x62, 0xD0,
    0xF9, 0xFB, 0xD6, 0xF2, 0x08, 0xCE, 0xFA, 0xD4, 0xF1, 0xFE, 0x02, 0x07,
    0x03, 0x16, 0xD3, 0xFE, 0xBC, 0x12, 0x05, 0xF0, 0x47, 0x00, 0x24, 0x3A,
    0x1E, 0xCF, 0xE2, 0x12, 0xEF, 0x21, 0x53, 0x1E, 0xB8, 0xF5, 0x0F, 0xF7,
    0x10, 0x1A, 0x2E, 0xFB, 0xDC, 0xD4, 0xDF, 0xCA, 0xFE, 0xBA, 0x30, 0xDD,
    0xEA, 0xE7, 0xE4, 0x2D, 0x1A, 0xF4, 0x20, 0x12, 0xCE, 0x42, 0xF0, 0xEE,
    0x0A, 0xFD, 0x44, 0x58, 0x10, 0xF0, 0x09, 0xF9, 0xFE, 0x12, 0xFD, 0xDB,
    0x06, 0xEC, 0x9E, 0x2B, 0xBE, 0x07, 0x13, 0xAB, 0x16, 0xC9, 0x52, 0x23,
    0x48, 0x39, 0xF6, 0x8E, 0xFD, 0x4F, 0xD8, 0x0C, 0x1A, 0xEE, 0x9E, 0xB3,
    0xAD, 0xDB, 0x81, 0x0D, 0x0A, 0xAC, 0xC6, 0xA6, 0x01, 0x03, 0x2F, 0xB6,
    0x0A, 0x1E, 0xC9, 0x8F, 0x2F, 0x1A, 0xF6, 0x23, 0xC6, 0xD5, 0xB9, 0xAA,
    0x58, 0x1F, 0xF3, 0x33, 0xFF, 0x08, 0x67, 0xE2, 0xF1, 0x0F, 0xDD, 0xE0,
    0x04, 0xFA, 0x21, 0x5C, 0xED, 0xEE, 0xD6, 0xA9, 0x16, 0xE7, 0xEB, 0x0B,
    0xF1, 0x6C, 0x10, 0x4C, 0x17, 0x14, 0x12, 0x7C, 0x15, 0xE0, 0x15, 0x05,
    0x25, 0x3F, 0x40, 0x0B, 0x32, 0x10, 0x02, 0x2A, 0x03, 0x17, 0x2E, 0xB1,
    0x0F, 0x02, 0x00, 0x07, 0x0E, 0xA5, 0x16, 0xA7, 0xF7, 0x1B, 0x11, 0xF9,
    0xF1, 0xFA, 0xE6, 0x33, 0x07, 0x2F, 0xF0, 0x08, 0xFB, 0x27, 0x35, 0xFE,
    0x08, 0x0F, 0x12, 0x40, 0xE2, 0x12, 0x1D, 0xB2, 0xCA, 0x17, 0xFB, 0xDA,
    0x14, 0x07, 0x31, 0x29, 0x25, 0x01, 0x3B, 0x41, 0x34, 0x54, 0x12, 0xBB,
    0xEE, 0xDE, 0xE4, 0xE0, 0x0A, 0x1D, 0xA3, 0x0D, 0xD7, 0xE3, 0xE8, 0x58,
    0x15, 0xC4, 0xFD, 0x59, 0x2F, 0xA3, 0x2C, 0x62, 0x00, 0x19, 0xDB, 0xAA,
    0x37, 0xDF, 0x07, 0x21, 0xFF, 0x10, 0xF7, 0x16, 0x5F, 0x1C, 0xA6, 0xD0,
    0xF7, 0x35, 0x0C, 0x05, 0xFA, 0xF7, 0xF6, 0x0F, 0xFD, 0x25, 0xDF, 0x04,
    0x1F, 0xF4, 0x02, 0xEE, 0xC2, 0x01, 0x16, 0xE4, 0x21, 0x4E, 0xF1, 0x6E,
    0x01, 0xE4, 0xF3, 0x70, 0x02, 0xF8, 0xC2, 0x26, 0xF6, 0x04, 0x5B, 0xEF,
    0x49, 0x10, 0x08, 0x23, 0x17, 0x37, 0x0B, 0x12, 0x4F, 0x81, 0x07, 0xCF,
    0x0F, 0xCB, 0x21, 0xEA, 0xE9, 0xD2, 0xF5, 0xCB, 0xE3, 0xFA, 0xFF, 0xE9,
    0xF6, 0x0E, 0xF8, 0xE7, 0x00, 0x06, 0x2D, 0x12, 0xF8, 0xF8, 0x0B, 0x42,
    0x24, 0x11, 0x27, 0x01, 0xE6, 0x32, 0x04, 0x85, 0x1A, 0x1C, 0xEF, 0xDD,
    0xE3, 0xCE, 0x55, 0x11, 0x1B, 0x03, 0x00, 0x83, 0x09, 0xD0, 0xF7, 0x8A,
    0xED, 0x0E, 0xFD, 0x50, 0xE2, 0x12, 0x2D, 0x06, 0x34, 0x49, 0x57, 0xCF,
    0x06, 0xD9, 0x54, 0xEE, 0x0A, 0x25, 0x0F, 0xDA, 0xFA, 0xB4, 0x12, 0x35,
    0x0D, 0xE3, 0x01, 0x02, 0x3C, 0xBD, 0xA0, 0xC9, 0xF3, 0xF5, 0x05, 0x2E,
    0x0C, 0x16, 0x58, 0xCE, 0xD4, 0xED, 0x16, 0xEC, 0xDA, 0x1F, 0xDF, 0xE7,
    0xF9, 0xE8, 0x10, 0x0B, 0xCD, 0x48, 0x1F, 0xF2, 0x0C, 0xF0, 0xE8, 0x0E,
    0xED, 0x49, 0x38, 0xED, 0xE9, 0x22, 0x43, 0xDE, 0x04, 0x2B, 0x30, 0x35,
    0xAF, 0x20, 0xE3, 0x15, 0x16, 0xE1, 0x06, 0xE7, 0x50, 0xDD, 0x03, 0xCE,
    0x10, 0xE5, 0x0B, 0x08, 0x2D, 0xFA, 0xF1, 0x14, 0xD8, 0xE9, 0xA3, 0xDE,
    0xC6, 0x09, 0xED, 0xE5, 0x31, 0xD3, 0xE6, 0x17, 0xE6, 0xF6, 0xFE, 0xAE,
    0xE1, 0xB5, 0xF1, 0x38, 0xDF, 0x13, 0x9C, 0x0A, 0xF3, 0xBC, 0x6A, 0xEC,
    0x23, 0x81, 0xC8, 0xA3, 0xF4, 0x35, 0xDE, 0xEF, 0x04, 0x13, 0x81, 0xE4,
    0xD0, 0xD8, 0x36, 0xE1, 0xEA, 0xC7, 0xE0, 0xEA, 0xD9, 0x0E, 0xF5, 0x97,
    0xEA, 0x2E, 0xD7, 0x26, 0xE2, 0xEA, 0xE4, 0x00, 0x03, 0xF2, 0x39, 0xDC,
    0xB6, 0xA8, 0xF5, 0x31, 0xF6, 0xD7, 0x08, 0x53, 0x0C, 0x25, 0x39, 0xD8,
    0x0D, 0xD1, 0x0E, 0x40, 0xF3, 0x24, 0xAE, 0xD2, 0xAF, 0xF9, 0xEC, 0x40,
    0xC1, 0x55, 0x42, 0xE6, 0x03, 0x0A, 0x25, 0xD4, 0xF3, 0x90, 0x44, 0x0D,
    0xD3, 0x69, 0x16, 0x7E, 0x54, 0x46, 0x12, 0x21, 0xD3, 0x11, 0x02, 0x17,
    0xD9, 0x7B, 0x01, 0x23, 0x21, 0xB3, 0x05, 0xD1, 0x09, 0xCF, 0xFB, 0x0E,
    0xD8, 0xDE, 0xD4, 0x38, 0x21, 0xDF, 0xAB, 0xEC, 0xA2, 0x0C, 0xD3, 0xF0,
    0x05, 0x25, 0xFA, 0xE5, 0x2F, 0xF4, 0xF4, 0xE2, 0xE7, 0xF5, 0x27, 0x43,
    0x10, 0xF0, 0x1A, 0xEE, 0x25, 0xDC, 0xF0, 0xC3, 0xDD, 0xB0, 0xED, 0x1C,
    0xF6, 0x23, 0xFA, 0x4E, 0xE9, 0x39, 0x0C, 0x09, 0x24, 0x04, 0x0E, 0xEA,
    0x0E, 0xB6, 0xCF, 0x31, 0xF1, 0x21, 0xC2, 0xFF, 0x52, 0xD6, 0xFC, 0x17,
    0xE7, 0xD3, 0xF0, 0x93, 0x08, 0xEB, 0x7F, 0x16, 0xE4, 0x0E, 0x41, 0x26,
    0xCF, 0xF8, 0x13, 0x3E, 0x0F, 0xE9, 0x1F, 0xFE, 0xFC, 0x26, 0x81, 0x1A,
    0xBA, 0x12, 0x00, 0x0F, 0xEF, 0x2E, 0xC6, 0xE0, 0xE0, 0xF2, 0x2B, 0xDC,
    0xD9, 0xE8, 0x4E, 0xEA, 0xB7, 0xCC, 0x14, 0x1A, 0xCD, 0x3E, 0x0B, 0x03,
    0x03, 0x06, 0x02, 0x02, 0x24, 0x1F, 0xFE, 0x13, 0x10, 0xAC, 0xEA, 0x0F,
    0xAC, 0xED, 0x19, 0xE5, 0xA8, 0xF3, 0xF9, 0x01, 0xF9, 0xE7, 0x23, 0xE2,
    0x42, 0x23, 0xD5, 0xE8, 0xEB, 0x00, 0xD1, 0x0F, 0x0E, 0x0F, 0x03, 0xF1,
    0xF5, 0x2E, 0xEA, 0x5C, 0x0E, 0x16, 0xF2, 0xEC, 0x04, 0xA1, 0xF8, 0xD9,
    0x14, 0x13, 0xE2, 0x23, 0xC7, 0x0A, 0x03, 0x28, 0x13, 0xF4, 0xF1, 0x08,
    0xF4, 0x0A, 0xD6, 0xC0, 0x23, 0x23, 0x1F, 0xDF, 0xE3, 0xE5, 0x1E, 0xF0,
    0xF1, 0x3A, 0x08, 0x66, 0x33, 0xCF, 0xDE, 0xC3, 0xDB, 0xF5, 0xF6, 0xCA,
    0xEA, 0xF1, 0xEE, 0x00, 0xE0, 0xF8, 0x3D, 0xF2, 0xF8, 0x0A, 0xEB, 0x0E,
    0x11, 0xE2, 0xE8, 0x48, 0x10, 0x37, 0x19, 0xDA, 0x17, 0xF4, 0xFA, 0x0E,
    0x17, 0xFC, 0xEC, 0x03, 0x26, 0xCF, 0x1B, 0xE4, 0xE0, 0xC6, 0x27, 0xFA,
    0xAE, 0x15, 0xF4, 0x5E, 0xC4, 0xFA, 0xD2, 0xE4, 0xFC, 0xF6, 0x10, 0xE6,
    0xD7, 0xE1, 0xFC, 0xF3, 0x32, 0xAA, 0xDB, 0xDB, 0xBE, 0x11, 0xDE, 0xF7,
    0xCB, 0x20, 0x09, 0x22, 0xF9, 0xFB, 0x3C, 0x41, 0x1A, 0x02, 0xCB, 0x26,
    0x3A, 0xF1, 0x8E, 0x34, 0xF0, 0x05, 0x2F, 0x17, 0xDA, 0x21, 0xF3, 0xCF,
    0x25, 0x02, 0x22, 0xFA, 0xF9, 0xDE, 0xDE, 0xDE, 0x0B, 0x11, 0xE4, 0xFC,
    0x13, 0xD6, 0xC1, 0x2C, 0xD1, 0x2C, 0xDD, 0xEC, 0x09, 0xDC, 0xD3, 0x3D,
    0xFA, 0x06, 0xE7, 0xF6, 0xE3, 0x0D, 0x0C, 0x00, 0x0C, 0x3A, 0x0B, 0xDE,
    0x89, 0x0D, 0xFB, 0x25, 0xE1, 0x0B, 0x12, 0xD4, 0x18, 0x1D, 0xE5, 0xDC,
    0xAE, 0xAF, 0x03, 0xF6, 0x5C, 0x1D, 0x0C, 0xF8, 0xD3, 0x07, 0xDF, 0x3A,
    0x1D, 0xFC, 0xF8, 0x13, 0xE1, 0x06, 0xF7, 0xFE, 0xA7, 0xF5, 0x09, 0x81,
    0xFB, 0x45, 0x2C, 0xF9, 0xE0, 0xE6, 0x06, 0x09, 0xF8, 0xBF, 0x1D, 0x13,
    0x0A, 0x1F, 0xEF, 0xCE, 0xD5, 0xE6, 0x07, 0x13, 0xAF, 0xED, 0xFC, 0x27,
    0xEC, 0x2B, 0x19, 0x39, 0x93, 0xE7, 0xEB, 0x57, 0x0C, 0xFF, 0xFB, 0x29,
    0xCF, 0xEE, 0xFF, 0xB2, 0x27, 0x97, 0xC2, 0x3B, 0xC9, 0xEA, 0xAC, 0x10,
    0xC6, 0x21, 0x0B, 0xE3, 0xED, 0xFC, 0x00, 0x51, 0x55, 0x2F, 0x0B, 0xB1,
    0x0D, 0xFA, 0xF6, 0xFC, 0xBF, 0xE4, 0xE6, 0xD7, 0x00, 0x06, 0x1B, 0xDA,
    0xFC, 0xDF, 0xCF, 0xBB, 0xE7, 0x12, 0x0C, 0xF5, 0x01, 0x20, 0xD6, 0x5B,
    0x25, 0x36, 0x04, 0x18, 0xE8, 0x01, 0xD9, 0xCA, 0xC0, 0xF2, 0x45, 0xF8,
    0xF1, 0xE5, 0xFB, 0xF6, 0x0C, 0x24, 0x1E, 0xE3, 0xEC, 0xBE, 0xC5, 0xBC,
    0x50, 0xED, 0xF7, 0xD5, 0xEF, 0xF7, 0xF7, 0x0E, 0xE2, 0xED, 0x05, 0x20,
    0xF6, 0xD3, 0x22, 0x07, 0x04, 0xDD, 0x1C, 0xEB, 0xCA, 0xF6, 0x1C, 0xDD,
    0x50, 0xD9, 0xDB, 0x49, 0x09, 0x14, 0x39, 0xF1, 0x0F, 0xF5, 0x0E, 0x11,
    0xE7, 0x10, 0x00, 0xF7, 0x12, 0xFC, 0xE4, 0x1F, 0xC9, 0x10, 0x20, 0xEC,
    0xE5, 0xE4, 0xF5, 0x1E, 0x13, 0xC2, 0x11, 0x4A, 0x3F, 0x02, 0x13, 0x20,
    0x16, 0xCF, 0xA5, 0x29, 0xE1, 0xE5, 0xDC, 0xEE, 0x02, 0x09, 0xE8, 0xE0,
    0x15, 0xFC, 0xFC, 0x27, 0x00, 0x00, 0x00, 0x00, 0x00, 0x00, 0x00, 0x00,
    0x00, 0x00, 0x00, 0x00, 0x00, 0x00, 0x00, 0x00, 0x00, 0x00, 0x00, 0x00,
    0x00, 0x00, 0x00, 0x00, 0x00, 0x00, 0x00, 0x00, 0x00, 0x00, 0x00, 0x00,
    0x00, 0x00, 0x00, 0x00, 0x00, 0x00, 0x00, 0x00, 0x00, 0x00, 0x00, 0x00,
    0x00, 0x00, 0x00, 0x00, 0x00, 0x00, 0x00, 0x00, 0x00, 0x00, 0x00, 0x00,
    0x00, 0x00, 0x00, 0x00, 0x00, 0x00, 0x00, 0x00, 0x00, 0x00, 0x00, 0x00,
    0x00, 0x00, 0x00, 0x00, 0x00, 0x00, 0x00, 0x00, 0x00, 0x00, 0x00, 0x00,
    0x00, 0x00, 0x00, 0x00, 0x00, 0x00, 0x00, 0x00, 0x00, 0x00, 0x00, 0x00,
    0x00, 0x00, 0x00, 0x00, 0x00, 0x00, 0x00, 0x00, 0x00, 0x00, 0x00, 0x00,
    0x00, 0x00, 0x00, 0x00, 0x00, 0x00, 0x00, 0x00, 0x00, 0x00, 0x00, 0x00,
    0x00, 0x00, 0x00, 0x00, 0x00, 0x00, 0x00, 0x00, 0x00, 0x00, 0x00, 0x00,
    0x39, 0x22, 0x4B, 0xF8, 0xEA, 0xE2, 0xC8, 0xF4, 0xE9, 0xF8, 0x2E, 0xDE,
    0xF5, 0x05, 0xD4, 0x40, 0x0F, 0x30, 0xE7, 0x0A, 0x1E, 0x03, 0xD9, 0x08,
    0xFD, 0x1D, 0xAA, 0xFF, 0xEF, 0x1D, 0xEA, 0xED, 0xEA, 0x13, 0x41, 0x1D,
    0x05, 0x06, 0xF7, 0x08, 0xF0, 0x2D, 0xE2, 0x13, 0xF2, 0xE3, 0x22, 0x09,
    0xFD, 0xF5, 0x56, 0xE4, 0xE2, 0x20, 0xAA, 0x1C, 0xB3, 0xF2, 0xDB, 0xFA,
    0x25, 0xFD, 0xB9, 0x37, 0x22, 0x14, 0x0E, 0x07, 0x16, 0x2A, 0xBE, 0x46,
    0xFD, 0x0B, 0xED, 0x18, 0xFB, 0xFD, 0xFC, 0xDD, 0x1A, 0xFD, 0x09, 0x08,
    0x07, 0xE7, 0x0C, 0x2D, 0x04, 0x00, 0xF6, 0xEB, 0x02, 0xF2, 0xF5, 0xBC,
    0x0A, 0xF3, 0xFA, 0xD2, 0xF7, 0x10, 0xE1, 0x15, 0xDB, 0xDE, 0xF8, 0xFC,
    0x06, 0x15, 0x08, 0x2E, 0x2B, 0x1E, 0xCE, 0x2F, 0x01, 0x22, 0xE3, 0x12,
    0x5A, 0xE5, 0x1D, 0x63, 0x15, 0xF4, 0x22, 0xF4, 0x34, 0xE2, 0xF9, 0x15,
    0xD5, 0x2A, 0xE8, 0x0A, 0x18, 0x0B, 0xD0, 0xEE, 0x2E, 0xF5, 0x16, 0x81,
    0x7F, 0x3A, 0x19, 0x18, 0x32, 0x25, 0x04, 0x1C, 0xE4, 0x1F, 0xEB, 0x96,
    0xE3, 0xDF, 0xEE, 0x1E, 0x24, 0x24, 0x4A, 0xF8, 0x00, 0x1C, 0xCB, 0x0F,
    0xF2, 0xFB, 0xE4, 0x38, 0xF8, 0xEB, 0xDB, 0xF0, 0x0C, 0xDC, 0x01, 0xC1,
    0xEB, 0x2F, 0xE3, 0x37, 0x18, 0xFC, 0xDD, 0xD0, 0xFF, 0xFB, 0xA9, 0xD0,
    0x0D, 0x27, 0xE1, 0xFB, 0xD9, 0xED, 0xBF, 0xD6, 0xCB, 0xEB, 0xFA, 0x14,
    0x0E, 0xFD, 0xE4, 0x28, 0x45, 0x7E, 0xF0, 0x21, 0x0F, 0xE6, 0x2B, 0x44,
    0xFD, 0x10, 0x19, 0x42, 0x53, 0xDF, 0x46, 0x00, 0x00, 0xF9, 0xF4, 0xCB,
    0xE4, 0xFA, 0xE9, 0x3D, 0x08, 0xFC, 0xF6, 0xF1, 0xF3, 0x10, 0xFD, 0x16,
    0xF9, 0xEA, 0xDE, 0x53, 0xD9, 0x24, 0xED, 0xFE, 0x26, 0xDA, 0x01, 0x02,
    0xE2, 0x17, 0xF9, 0x09, 0x1E, 0xBC, 0xA9, 0x92, 0x06, 0x0E, 0x51, 0x25,
    0xFE, 0xF8, 0x05, 0x0B, 0x0A, 0x07, 0x12, 0x26, 0x28, 0x2E, 0xE9, 0x01,
    0x17, 0x02, 0xFB, 0x17, 0xF7, 0xEC, 0x1D, 0xB8, 0xFD, 0x32, 0xF8, 0x15,
    0xFD, 0x38, 0x3D, 0xF5, 0x15, 0xE6, 0x18, 0xC0, 0x17, 0xF7, 0xF3, 0x1C,
    0xDC, 0xF9, 0x20, 0xF0, 0x43, 0xD4, 0xFD, 0xE3, 0xF5, 0xEA, 0xEE, 0x20,
    0xE8, 0xC4, 0x3B, 0x17, 0x15, 0x18, 0x2A, 0x18, 0xF2, 0xDB, 0xD4, 0xBE,
    0xDF, 0xE0, 0xFC, 0x81, 0x04, 0xD6, 0xF9, 0xE9, 0xE8, 0x18, 0xE8, 0x06,
    0x28, 0x48, 0xE5, 0x29, 0xF4, 0xA4, 0x2F, 0x19, 0x1B, 0xE1, 0x12, 0x3B,
    0xE1, 0xF3, 0x12, 0x19, 0xFE, 0xEA, 0xFE, 0xDE, 0xE9, 0xF4, 0xF2, 0xF7,
    0xFB, 0x1D, 0x06, 0xDE, 0x02, 0x05, 0xE4, 0xEE, 0x1D, 0xF4, 0xF6, 0x57,
    0x04, 0xE1, 0xDA, 0xD7, 0x04, 0xD9, 0xDD, 0xF3, 0xE0, 0x30, 0xF4, 0xDF,
    0xFB, 0xAD, 0xB3, 0xC1, 0x33, 0x0A, 0x25, 0xE0, 0x01, 0x0A, 0x0E, 0xDF,
    0xED, 0xC5, 0xE0, 0x0B, 0x04, 0x0F, 0xFC, 0x13, 0x31, 0x13, 0x2C, 0xF0,
    0xFF, 0x15, 0xCD, 0xCD, 0xE3, 0x21, 0x35, 0x3C, 0x43, 0xF5, 0x99, 0x71,
    0xEA, 0x03, 0xA2, 0x60, 0x0C, 0xE9, 0xE0, 0xFC, 0xEE, 0xFA, 0xDA, 0x06,
    0x0C, 0xDB, 0x1B, 0xE5, 0x18, 0x07, 0x18, 0xEF, 0x0A, 0xF6, 0x1B, 0x55,
    0x07, 0x04, 0xF5, 0x28, 0xC2, 0xEA, 0xD6, 0xF1, 0x09, 0xD7, 0x29, 0x98,
    0x18, 0x3B, 0x0D, 0x24, 0xFF, 0x0A, 0x11, 0xAA, 0xFF, 0x18, 0xE4, 0xF8,
    0x2D, 0xC9, 0x1A, 0x01, 0xF6, 0x26, 0xD2, 0x0A, 0xBC, 0xED, 0xF3, 0x2B,
    0xAF, 0xFE, 0xD7, 0x11, 0x45, 0xD7, 0x22, 0x1B, 0xD0, 0xF7, 0x0D, 0x10,
    0x04, 0xFC, 0xEE, 0x18, 0x26, 0xFF, 0x26, 0x07, 0x08, 0x18, 0x09, 0xF0,
    0xCF, 0xFC, 0xFF, 0xD8, 0x2A, 0x4F, 0xEA, 0xFF, 0x1A, 0xF4, 0xC5, 0x30,
    0xF8, 0x02, 0x1D, 0xBE, 0xFA, 0xF6, 0x08, 0x4F, 0x06, 0xF5, 0x05, 0x6D,
    0x1D, 0x1D, 0x0F, 0xFB, 0x75, 0x36, 0x37, 0x08, 0xEA, 0x17, 0xD9, 0xBD,
    0xDF, 0xFA, 0xC4, 0x5B, 0xF4, 0xF5, 0x81, 0x26, 0x23, 0x01, 0x0F, 0xF8,
    0xF8, 0xE5, 0xCB, 0x1D, 0x0C, 0xF9, 0xFC, 0x11, 0xDF, 0xBE, 0xE1, 0x0F,
    0x39, 0xDE, 0x41, 0xC4, 0x22, 0x25, 0xCB, 0xE6, 0xC7, 0x19, 0xCF, 0xE5,
    0xDF, 0x1A, 0xE6, 0x25, 0x16, 0xE4, 0xE9, 0xF2, 0x0D, 0xE2, 0xE4, 0xE9,
    0x41, 0xF7, 0xFA, 0x2D, 0x2B, 0x3F, 0xFD, 0x25, 0x43, 0x06, 0x34, 0x35,
    0xB9, 0x16, 0xB6, 0x31, 0x2B, 0xE5, 0x23, 0x79, 0xC4, 0xE6, 0xE4, 0x21,
    0xD7, 0xE3, 0x24, 0xA3, 0x1A, 0xEC, 0x01, 0x1E, 0xC0, 0xED, 0x00, 0xFD,
    0x2A, 0x02, 0x08, 0x0B, 0x2D, 0x48, 0x34, 0xCF, 0xF6, 0x9B, 0xF1, 0xEA,
    0xED, 0x03, 0xF9, 0x2C, 0xFB, 0x34, 0x34, 0x19, 0xFD, 0xAE, 0xFC, 0x10,
    0x1E, 0x0A, 0xC4, 0xEA, 0x10, 0x45, 0x0D, 0xA2, 0xE2, 0x27, 0xDC, 0xFA,
    0x33, 0x11, 0xFF, 0x04, 0x10, 0x12, 0x07, 0x34, 0xEF, 0x26, 0xB8, 0x1A,
    0x36, 0x1F, 0xC2, 0x05, 0xF2, 0xEC, 0x1B, 0xC2, 0xFB, 0x08, 0xEE, 0x09,
    0x02, 0xE3, 0x50, 0xEF, 0x07, 0xD2, 0xEC, 0x0D, 0xEF, 0x17, 0x13, 0xF6,
    0xD2, 0x2A, 0x81, 0xC6, 0xF4, 0x01, 0x28, 0x10, 0x0A, 0xFD, 0x14, 0xFA,
    0xF3, 0x0D, 0xC8, 0x5A, 0xBD, 0xFC, 0x11, 0xF7, 0xE1, 0xEF, 0x07, 0x11,
    0x01, 0xFA, 0xFB, 0x28, 0x28, 0xF4, 0x28, 0x58, 0xF4, 0x0F, 0x9D, 0xF0,
    0xF3, 0x05, 0xF4, 0x26, 0xE6, 0x01, 0xFC, 0x0D, 0xE4, 0xD7, 0x0F, 0xAF,
    0x0B, 0x07, 0x07, 0xF6, 0x07, 0xF3, 0x05, 0xE6, 0x14, 0x13, 0xEC, 0x01,
    0x34, 0x3C, 0x45, 0x06, 0xA5, 0xC2, 0xFD, 0x24, 0x76, 0xCA, 0x10, 0x15,
    0x00, 0x31, 0x23, 0x0D, 0x07, 0x17, 0xE6, 0x3F, 0xE7, 0xF3, 0x10, 0x20,
    0xFE, 0xDC, 0x05, 0x2C, 0xBB, 0xDD, 0xEA, 0x00, 0x14, 0xE0, 0x17, 0x29,
    0xE1, 0xD5, 0x15, 0x73, 0xF7, 0x28, 0x14, 0x08, 0xDB, 0x1B, 0x1B, 0xCC,
    0xEE, 0xDA, 0xFD, 0x1D, 0xFE, 0x07, 0xFD, 0xD5, 0x09, 0x08, 0xEA, 0xFF,
    0xC8, 0xCB, 0xBD, 0x66, 0xD6, 0xAB, 0x52, 0xF7, 0x06, 0x09, 0xE6, 0xC5,
    0xE5, 0x09, 0x05, 0x25, 0x37, 0xD9, 0x00, 0xE9, 0xAD, 0xFF, 0xD1, 0x1D,
    0x24, 0xEF, 0x07, 0xF1, 0x26, 0x12, 0xFF, 0xFF, 0xE5, 0xFF, 0x08, 0xF4,
    0x0F, 0x13, 0x20, 0x06, 0x07, 0x16, 0xE9, 0xFF, 0x0A, 0x0B, 0xDB, 0x21,
    0xF6, 0x0A, 0x04, 0x11, 0x25, 0x0E, 0x18, 0x41, 0x7F, 0x35, 0x06, 0x0C,
    0x2E, 0xCA, 0x15, 0x15, 0xFC, 0xC0, 0x16, 0xF8, 0xD0, 0x15, 0x11, 0xE5,
    0x9D, 0xAC, 0x0E, 0xF5, 0x72, 0xCB, 0x01, 0x2E, 0xE9, 0xEB, 0xE7, 0x41,
    0xF8, 0x33, 0x33, 0xE4, 0x0B, 0x06, 0x38, 0xF6, 0xF4, 0xF7, 0x02, 0xF0,
    0xE8, 0xD8, 0x23, 0x0D, 0x2F, 0xF8, 0x14, 0x32, 0xF1, 0xED, 0x10, 0x26,
    0x00, 0xFB, 0x31, 0x09, 0xE5, 0x06, 0x30, 0xCD, 0x07, 0xA2, 0xF8, 0x14,
    0x11, 0x05, 0x1A, 0xE4, 0x34, 0xFF, 0xFC, 0xE5, 0xC2, 0xE8, 0x10, 0x21,
    0x37, 0xD3, 0x59, 0x81, 0x07, 0x16, 0x34, 0xF8, 0xF6, 0xC1, 0x15, 0x25,
    0x32, 0xE5, 0xEC, 0x43, 0x23, 0xEE, 0x0E, 0xAA, 0x2F, 0x2D, 0x0D, 0xED,
    0xD3, 0xF6, 0xED, 0xBD, 0x23, 0x17, 0x0C, 0xF3, 0x20, 0x21, 0x1B, 0x3A,
    0xEB, 0xF9, 0x07, 0x23, 0xFD, 0xE3, 0xE7, 0xF5, 0x4C, 0x25, 0x09, 0xE6,
    0x52, 0x09, 0xF9, 0x07, 0x4C, 0xFF, 0x02, 0x13, 0x12, 0xD4, 0x0F, 0xDC,
    0xF6, 0xF0, 0x22, 0xC9, 0x0A, 0x16, 0xEC, 0xEA, 0x18, 0xC2, 0x1C, 0xF6,
    0xF4, 0xEC, 0xC9, 0xBE, 0xED, 0x8F, 0xDF, 0xD7, 0xF2, 0x32, 0xE0, 0xDD,
    0xF7, 0xF7, 0xC4, 0xE9, 0x03, 0x29, 0x23, 0xD0, 0xC6, 0xF0, 0x16, 0x1F,
    0xE7, 0x0F, 0x08, 0xD8, 0x0B, 0xE8, 0x25, 0x24, 0x09, 0xE5, 0x17, 0xF9,
    0xED, 0x17, 0x18, 0xC6, 0xF6, 0xF8, 0x38, 0xE6, 0x15, 0x11, 0x0E, 0xC4,
    0x14, 0xCC, 0x28, 0xFF, 0xE1, 0xFF, 0x55, 0xE1, 0x11, 0x07, 0x20, 0xB2,
    0x29, 0x0A, 0x0A, 0x3A, 0x15, 0xF8, 0x01, 0xEB, 0xB8, 0xE5, 0xF4, 0x36,
    0x04, 0xF4, 0x45, 0xAE, 0xD6, 0x14, 0x07, 0x13, 0xF9, 0xF5, 0x08, 0x5D,
    0xCE, 0xB2, 0xD9, 0xC3, 0xC7, 0xF3, 0xF4, 0xE8, 0x0E, 0xD4, 0x0E, 0xE2,
    0x81, 0xCB, 0xCF, 0x01, 0x1E, 0x0A, 0x31, 0x0A, 0xCB, 0x35, 0x02, 0xE8,
    0xE8, 0xE9, 0x17, 0x25, 0x0E, 0xF2, 0x03, 0x05, 0xB4, 0xE2, 0x0D, 0xDA,
    0x07, 0x01, 0xDE, 0x53, 0x18, 0xD0, 0x2F, 0xDB, 0xBD, 0x32, 0xC8, 0xF1,
    0x00, 0x00, 0x00, 0x00, 0x00, 0x00, 0x00, 0x00, 0x00, 0x00, 0x00, 0x00,
    0x00, 0x00, 0x00, 0x00, 0x00, 0x00, 0x00, 0x00, 0x00, 0x00, 0x00, 0x00,
    0x00, 0x00, 0x00, 0x00, 0x00, 0x00, 0x00, 0x00, 0x00, 0x00, 0x00, 0x00,
    0x00, 0x00, 0x00, 0x00, 0x00, 0x00, 0x00, 0x00, 0x00, 0x00, 0x00, 0x00,
    0x00, 0x00, 0x00, 0x00, 0x00, 0x00, 0x00, 0x00, 0x00, 0x00, 0x00, 0x00,
    0x00, 0x00, 0x00, 0x00, 0x00, 0x00, 0x00, 0x00, 0x00, 0x00, 0x00, 0x00,
    0x00, 0x00, 0x00, 0x00, 0x00, 0x00, 0x00, 0x00, 0x00, 0x00, 0x00, 0x00,
    0x00, 0x00, 0x00, 0x00, 0x00, 0x00, 0x00, 0x00, 0x00, 0x00, 0x00, 0x00,
    0x00, 0x00, 0x00, 0x00, 0x00, 0x00, 0x00, 0x00, 0x00, 0x00, 0x00, 0x00,
    0x00, 0x00, 0x00, 0x00, 0x00, 0x00, 0x00, 0x00, 0x00, 0x00, 0x00, 0x00,
    0x00, 0x00, 0x00, 0x00, 0x00, 0x00, 0x00, 0x00, 0x60, 0x20, 0x00, 0x00,
    0xA4, 0x9A, 0xCC, 0x43, 0x28, 0x00, 0xE6, 0x05, 0x00, 0x00, 0xF5, 0x04,
    0x28, 0x69, 0x28, 0x00, 0x14, 0xFC, 0xFF, 0xFF, 0x61, 0x2F, 0x59, 0x4B,
    0x27, 0x00, 0xE7, 0xEF, 0xFF, 0xFF, 0x63, 0x19, 0xC0, 0x61, 0x27, 0x00,
    0x23, 0x02, 0x00, 0x00, 0x49, 0x8C, 0x98, 0x6F, 0x28, 0x00, 0x94, 0x01,
    0x00, 0x00, 0xEA, 0x9D, 0xAF, 0x56, 0x28, 0x00, 0x8B, 0xF7, 0xFF, 0xFF,
    0x04, 0x5A, 0x0C, 0x6F, 0x28, 0x00, 0x95, 0xE9, 0xFF, 0xFF, 0xCE, 0x6B,
    0x7C, 0x65, 0x28, 0x00, 0x88, 0xFF, 0xFF, 0xFF, 0xA0, 0x89, 0x0B, 0x7B,
    0x29, 0x00, 0xB0, 0x19, 0x00, 0x00, 0x40, 0x69, 0x5C, 0x6E, 0x28, 0x00,
    0xCC, 0x1A, 0x00, 0x00, 0xA3, 0x86, 0xC4, 0x67, 0x28, 0x00, 0xC4, 0xFC,
    0xFF, 0xFF, 0xA0, 0x0A, 0xA4, 0x5D, 0x27, 0x00, 0x54, 0xF8, 0xFF, 0xFF,
    0x49, 0x28, 0xFB, 0x40, 0x28, 0x00, 0x12, 0x02, 0x00, 0x00, 0x3D, 0x13,
    0x13, 0x57, 0x27, 0x00, 0x33, 0x0A, 0x00, 0x00, 0x56, 0x73, 0x07, 0x48,
    0x27, 0x00, 0xF4, 0xE3, 0xFF, 0xFF, 0x3C, 0x1A, 0x53, 0x5E, 0x28, 0x00,
    0x01, 0x00, 0x00, 0x00, 0x00, 0x00, 0x00, 0x00, 0x00, 0x00, 0x00, 0x00,
    0x00, 0x00, 0xAD, 0x08, 0x5D, 0xA1, 0xF0, 0x0C, 0x06, 0x2C, 0x17, 0x18,
    0xD0, 0xC4, 0x78, 0xD1, 0x25, 0xC7, 0x26, 0x12, 0xAA, 0x42, 0xD5, 0x0A,
    0x99, 0x18, 0x58, 0x17, 0x0C, 0x34, 0xE8, 0xE9, 0xD2, 0xE4, 0xB3, 0x12,
    0xB1, 0xEE, 0xCB, 0x1E, 0xDB, 0xED, 0x0A, 0x23, 0xDF, 0x0D, 0xD5, 0x16,
    0xED, 0x22, 0xE6, 0xE9, 0x0D, 0x1D, 0x31, 0xF8, 0xCE, 0xE6, 0x45, 0xF0,
    0x27, 0x30, 0xD4, 0x2D, 0xE5, 0x20, 0xBD, 0x0F, 0xCD, 0x1F, 0xEA, 0xF8,
    0x2D, 0x13, 0xC0, 0xE9, 0xF8, 0xE4, 0xD3, 0xE7, 0xFA, 0xDF, 0x05, 0xEF,
    0xC0, 0x2E, 0x1E, 0xD3, 0x1B, 0x14, 0xEC, 0xB9, 0xF6, 0x41, 0x00, 0x08,
    0xCB, 0x1D, 0x3D, 0xC5, 0x00, 0xFF, 0x11, 0x16, 0xEF, 0x14, 0xED, 0xF4,
    0xDC, 0x28, 0xDF, 0xFB, 0x01, 0xFD, 0x01, 0xE6, 0xE3, 0xFC, 0xE6, 0xFF,
    0xF0, 0x04, 0x19, 0xD6, 0x0A, 0x17, 0x1F, 0x1E, 0x1C, 0xEE, 0x04, 0x02,
    0x26, 0xB1, 0xE8, 0xFE, 0xB6, 0x1D, 0xE8, 0x37, 0x12, 0x18, 0x18, 0x31,
    0xF1, 0x26, 0x08, 0x18, 0xD0, 0x5E, 0x5E, 0xE1, 0x22, 0xF4, 0x3D, 0x64,
    0x36, 0xEC, 0xE8, 0x33, 0x3E, 0x1F, 0xC9, 0xD6, 0xD0, 0x15, 0x29, 0x07,
    0x14, 0x08, 0xE9, 0xAE, 0x0F, 0x0F, 0xF0, 0x18, 0xF1, 0x23, 0x0F, 0x11,
    0x00, 0xE9, 0xC2, 0x19, 0xFA, 0xF8, 0xFB, 0x0D, 0x2A, 0x1A, 0xFD, 0x62,
    0xAE, 0x50, 0xC2, 0xFD, 0xCD, 0x7A, 0x09, 0x11, 0x01, 0xF4, 0xF1, 0xE5,
    0x00, 0x19, 0x22, 0xF7, 0x0C, 0xF1, 0xE7, 0xCB, 0xB4, 0xF8, 0x2D, 0x47,
    0x35, 0x1C, 0x1F, 0xE6, 0x00, 0x07, 0xFE, 0x02, 0xE2, 0xEE, 0x07, 0x9E,
    0xF9, 0x03, 0x25, 0x1B, 0x0A, 0xF5, 0xEE, 0x21, 0x09, 0x1B, 0xEB, 0x25,
    0xFB, 0x29, 0x02, 0x05, 0x47, 0xFA, 0xB5, 0x13, 0x00, 0x19, 0x1B, 0xC3,
    0xFC, 0x18, 0x03, 0x21, 0x42, 0x1B, 0x5F, 0x14, 0x25, 0xCA, 0x1C, 0x1D,
    0xEC, 0xE2, 0x10, 0x5B, 0x1A, 0xFE, 0xF4, 0x0B, 0x10, 0x54, 0x3D, 0xFB,
    0xA0, 0x7F, 0x5A, 0x0B, 0x5F, 0xF2, 0x08, 0x2B, 0xDC, 0xF0, 0x23, 0xD6,
    0xAD, 0x1D, 0x57, 0xD2, 0xFC, 0x0E, 0x2C, 0xEF, 0x01, 0xCE, 0x03, 0x0C,
    0x00, 0xFB, 0x39, 0xD7, 0x00, 0x22, 0x22, 0x16, 0x1A, 0x02, 0x24, 0xFC,
    0xEC, 0x10, 0xD7, 0xF7, 0x22, 0xE8, 0x0B, 0x45, 0xC8, 0xDC, 0xFF, 0xF7,
    0xF7, 0x46, 0x10, 0x03, 0x27, 0x09, 0x3C, 0x28, 0xFF, 0x0B, 0xFF, 0xF5,
    0xEE, 0xF9, 0x01, 0xF7, 0xF1, 0xE0, 0x30, 0x4B, 0xDD, 0x3E, 0xEF, 0x35,
    0x14, 0x08, 0xF7, 0xF5, 0x08, 0xD6, 0xF2, 0x43, 0xC7, 0x10, 0xFB, 0xFA,
    0x0A, 0x11, 0xF3, 0x08, 0xF9, 0x11, 0xF1, 0x20, 0x05, 0xF2, 0xEF, 0x22,
    0x1E, 0xE1, 0xFF, 0x09, 0x09, 0xF4, 0x3F, 0xF6, 0xFF, 0x02, 0xC6, 0x22,
    0x28, 0x33, 0x7F, 0x44, 0x45, 0xD3, 0x14, 0x3B, 0xFF, 0x20, 0xFC, 0x12,
    0x2E, 0x0C, 0xE0, 0x25, 0x13, 0x24, 0x13, 0xE5, 0xE1, 0x06, 0x07, 0xEC,
    0x0E, 0xFA, 0xF8, 0x25, 0xA0, 0xC9, 0x6F, 0xB1, 0x89, 0x3D, 0x23, 0xE7,
    0x30, 0x09, 0x01, 0x08, 0x22, 0xBE, 0x29, 0xF1, 0x1B, 0xF3, 0x7F, 0xEA,
    0xF1, 0x08, 0x0C, 0xF2, 0xF1, 0xEF, 0x59, 0x01, 0xF9, 0x29, 0xBF, 0xEA,
    0xE3, 0x12, 0xC8, 0xE9, 0xFB, 0x0F, 0x04, 0x04, 0xE0, 0x1C, 0x38, 0x2D,
    0x30, 0x07, 0xEE, 0x43, 0x1E, 0x00, 0xCC, 0x37, 0xF9, 0xF0, 0xFF, 0x00,
    0x0F, 0xF1, 0x20, 0x31, 0xCD, 0x0B, 0xD2, 0xB9, 0x4F, 0x06, 0x0E, 0xF8,
    0x26, 0xFE, 0xFB, 0x73, 0xF8, 0xF9, 0xEE, 0xEF, 0xF5, 0xFF, 0x34, 0xE8,
    0xFB, 0x0B, 0xED, 0x1B, 0x1B, 0x0A, 0xC4, 0x0D, 0xE2, 0xE9, 0xF5, 0xF2,
    0x18, 0x0D, 0x0F, 0xD9, 0xFF, 0x2F, 0xC6, 0x2A, 0x29, 0xC7, 0x13, 0x26,
    0x0A, 0xA5, 0xD5, 0xF3, 0xCC, 0xF5, 0x42, 0x02, 0x1B, 0xF1, 0xF3, 0x17,
    0x0E, 0x36, 0x0E, 0x0C, 0x20, 0x2B, 0x17, 0x17, 0x16, 0xD7, 0x23, 0x7F,
    0x05, 0xED, 0xCF, 0xE7, 0x73, 0xFF, 0xE6, 0xEF, 0x57, 0xF7, 0x6A, 0x52,
    0x24, 0x5B, 0xE5, 0x81, 0x60, 0x09, 0x28, 0x01, 0xDF, 0x11, 0x07, 0xE7,
    0xD7, 0xF9, 0xC4, 0x0E, 0x12, 0x9E, 0xC3, 0x06, 0xD2, 0x2B, 0xFB, 0x12,
    0x1A, 0xFC, 0xFB, 0x0A, 0xF3, 0x63, 0x5B, 0x26, 0x00, 0x28, 0xDC, 0x26,
    0x12, 0x1D, 0xF8, 0x0E, 0xF1, 0x2F, 0xE2, 0x81, 0x0B, 0xE9, 0x07, 0x49,
    0x14, 0xCA, 0xEC, 0xB3, 0x07, 0xD3, 0x0A, 0x19, 0xCA, 0xC9, 0xFE, 0x91,
    0x12, 0x18, 0x16, 0x06, 0x0F, 0xF5, 0x18, 0x74, 0x1F, 0x06, 0xFE, 0xF9,
    0xF6, 0x31, 0xD3, 0xE4, 0x29, 0xC6, 0x9B, 0xD1, 0x10, 0xDC, 0x30, 0xA6,
    0x13, 0x32, 0xF2, 0x25, 0x70, 0xAD, 0xF8, 0x05, 0xC7, 0x81, 0x04, 0xE7,
    0xB8, 0x1B, 0x0F, 0x38, 0x1D, 0x5A, 0x09, 0xDF, 0x3C, 0x5B, 0x3B, 0x03,
    0x08, 0x11, 0xF3, 0x0A, 0xEC, 0xE3, 0xF5, 0x33, 0x7F, 0x33, 0xDA, 0x4A,
    0x2B, 0xDA, 0xE0, 0x21, 0xA6, 0xDB, 0xFD, 0xB7, 0x18, 0xEC, 0x06, 0xF4,
    0xFD, 0xFC, 0xC1, 0x29, 0xEC, 0x08, 0xD0, 0xE4, 0x0A, 0x26, 0x7F, 0xF6,
    0xCB, 0x01, 0x0B, 0xEA, 0x23, 0x12, 0xF9, 0x11, 0xFA, 0xD7, 0xD1, 0xF0,
    0xF7, 0x25, 0x04, 0xDC, 0x06, 0xF3, 0xE5, 0x2D, 0x01, 0xDE, 0xDD, 0x0B,
    0x07, 0x31, 0xF9, 0x9C, 0x18, 0x13, 0x00, 0xE9, 0x0D, 0xAF, 0xC5, 0x09,
    0x44, 0xFB, 0x34, 0x06, 0xB0, 0x5A, 0x36, 0xA1, 0x09, 0xE8, 0xEF, 0x00,
    0xEF, 0xF0, 0x0F, 0x12, 0x0D, 0x1A, 0x00, 0x12, 0x07, 0x03, 0xEE, 0x07,
    0xF0, 0xE8, 0x02, 0x14, 0x3A, 0x23, 0x28, 0xE7, 0x0D, 0x1F, 0xFB, 0x12,
    0x56, 0xF2, 0xE1, 0x14, 0xDE, 0x84, 0xCE, 0xD9, 0x9A, 0x24, 0xF5, 0x11,
    0xF1, 0x19, 0x1B, 0x07, 0xFE, 0x4E, 0x0D, 0xF1, 0x40, 0x1E, 0xBA, 0xA2,
    0xE8, 0x1F, 0xD9, 0xFC, 0x3E, 0xD7, 0xC7, 0x49, 0xE8, 0xC7, 0xF3, 0xD4,
    0xE7, 0xF0, 0xE9, 0xB1, 0x14, 0x18, 0x13, 0xF7, 0xFD, 0xE3, 0xB9, 0xF9,
    0x12, 0x02, 0xE0, 0xD6, 0xF5, 0x32, 0x36, 0x2E, 0xE1, 0x35, 0x19, 0x1B,
    0xDE, 0xEC, 0x04, 0xBF, 0x10, 0xEB, 0xEC, 0xFE, 0x1B, 0x1B, 0xF2, 0xDE,
    0xEA, 0xB4, 0x22, 0x14, 0x35, 0xFB, 0x0A, 0x4A, 0x0C, 0xF2, 0xE7, 0x1A,
    0xF7, 0xC7, 0xAE, 0xA6, 0x1A, 0x82, 0xBE, 0x1E, 0xF5, 0xF2, 0x0C, 0x05,
    0xB8, 0x2C, 0x11, 0xEC, 0x31, 0x0E, 0xE5, 0x00, 0xE0, 0xF9, 0xF9, 0xDE,
    0x0D, 0x1A, 0x0E, 0xDA, 0x19, 0xFE, 0xDF, 0x17, 0xC7, 0xDD, 0x25, 0x06,
    0x2D, 0x2A, 0xEE, 0xF8, 0xFB, 0xF7, 0xF9, 0xED, 0xF6, 0xE1, 0xE6, 0x05,
    0x12, 0xC2, 0xE1, 0xFD, 0x02, 0x1A, 0x17, 0x1F, 0xD6, 0x2E, 0xE1, 0x3D,
    0xFC, 0x19, 0xD3, 0xFA, 0x2F, 0xC9, 0xC2, 0xC6, 0x19, 0xC8, 0xDC, 0x13,
    0xDD, 0xC1, 0xF6, 0xB8, 0x3A, 0xEE, 0x25, 0x1B, 0x2A, 0xE9, 0x00, 0x39,
    0xFA, 0xEB, 0xEF, 0xD8, 0x3D, 0x1E, 0xF3, 0xC4, 0x12, 0x02, 0xF5, 0xF8,
    0xDC, 0xF8, 0xC6, 0x00, 0x1E, 0xDC, 0xDD, 0x31, 0xE5, 0x02, 0x10, 0xA4,
    0x2F, 0x03, 0x06, 0xEA, 0x20, 0x1A, 0x01, 0x0C, 0xFC, 0xDE, 0xEC, 0xE4,
    0x29, 0x23, 0x49, 0x47, 0x0F, 0xE5, 0x03, 0xF7, 0x3E, 0xBC, 0xB6, 0xFB,
    0x00, 0x9A, 0xFF, 0xDD, 0xE9, 0xD6, 0xD7, 0x31, 0xF9, 0xE0, 0x00, 0x3F,
    0x1B, 0x10, 0xEC, 0x2D, 0xF6, 0xEE, 0xF0, 0xEA, 0x1B, 0x0F, 0x03, 0xBF,
    0x08, 0x16, 0xD6, 0xEF, 0xF4, 0xFA, 0xC8, 0x97, 0x1C, 0xDD, 0x12, 0xE6,
    0xFC, 0x0D, 0xF3, 0xE5, 0x37, 0xEB, 0x06, 0xF4, 0xD3, 0xA8, 0xFF, 0x20,
    0xE3, 0x32, 0xF1, 0x06, 0xDE, 0x19, 0xCF, 0x02, 0xE7, 0x38, 0xD2, 0xEB,
    0x39, 0xA1, 0x1E, 0xD7, 0xEF, 0xD4, 0xBC, 0x08, 0xB0, 0x02, 0x2C, 0xD9,
    0xB3, 0xFC, 0x14, 0x14, 0x0A, 0xF8, 0xDC, 0x0F, 0x01, 0xFD, 0x17, 0x02,
    0x1D, 0x0E, 0x07, 0xDE, 0x12, 0xEE, 0xDB, 0x09, 0x08, 0x05, 0x2A, 0xFA,
    0x00, 0x42, 0xCB, 0x13, 0x14, 0xDF, 0xE0, 0xDB, 0x2C, 0xE3, 0x1E, 0xFB,
    0xF4, 0xB1, 0xF3, 0x28, 0x41, 0xFE, 0xC9, 0x0F, 0xE7, 0xE7, 0x0A, 0x04,
    0xEA, 0xFC, 0xEB, 0x3E, 0x24, 0xF4, 0xFC, 0x1A, 0xD0, 0xA9, 0xB0, 0x02,
    0xF4, 0x37, 0xD8, 0x08, 0x2F, 0x05, 0x19, 0x32, 0x0A, 0xD0, 0xE2, 0x05,
    0x02, 0xFE, 0xE1, 0xC4, 0xD1, 0x09, 0xEE, 0xF1, 0x11, 0xE6, 0xD2, 0x0A,
    0xDA, 0x17, 0xED, 0xE3, 0x18, 0x2E, 0xFF, 0xDB, 0x15, 0x04, 0xD8, 0x01,
    0xEE, 0xD0, 0x26, 0xEB, 0xF4, 0xB0, 0xD0, 0x16, 0xCC, 0x54, 0x20, 0xD1,
    0xFC, 0xCC, 0xCF, 0x03, 0x00, 0x06, 0xD2, 0x02, 0x00, 0x00, 0x00, 0x00,
    0x00, 0x00, 0x00, 0x00, 0x00, 0x00, 0x00, 0x00, 0x00, 0x00, 0x00, 0x00,
    0x00, 0x00, 0x00, 0x00, 0x00, 0x00, 0x00, 0x00, 0x00, 0x00, 0x00, 0x00,
    0x00, 0x00, 0x00, 0x00, 0x00, 0x00, 0x00, 0x00, 0x00, 0x00, 0x00, 0x00,
    0x00, 0x00, 0x00, 0x00, 0x00, 0x00, 0x00, 0x00, 0x00, 0x00, 0x00, 0x00,
    0x00, 0x00, 0x00, 0x00, 0x00, 0x00, 0x00, 0x00, 0x00, 0x00, 0x00, 0x00,
    0x00, 0x00, 0x00, 0x00, 0x00, 0x00, 0x00, 0x00, 0x00, 0x00, 0x00, 0x00,
    0x00, 0x00, 0x00, 0x00, 0x00, 0x00, 0x00, 0x00, 0x00, 0x00, 0x00, 0x00,
    0x00, 0x00, 0x00, 0x00, 0x00, 0x00, 0x00, 0x00, 0x00, 0x00, 0x00, 0x00,
    0x00, 0x00, 0x00, 0x00, 0x00, 0x00, 0x00, 0x00, 0x00, 0x00, 0x00, 0x00,
    0x00, 0x00, 0x00, 0x00, 0x00, 0x00, 0x00, 0x00, 0x00, 0x00, 0x00, 0x00,
    0x00, 0x00, 0x00, 0x00, 0xF0, 0x17, 0x5A, 0xEB, 0x0F, 0x0B, 0x52, 0x1A,
    0x2B, 0x07, 0x0E, 0xFE, 0x17, 0xEC, 0x0E, 0xDB, 0xEF, 0xB4, 0x24, 0x32,
    0x15, 0xC9, 0xE8, 0x3F, 0x28, 0x10, 0xFD, 0x02, 0xFA, 0xE3, 0xF3, 0x01,
    0x6D, 0x4D, 0x16, 0xF7, 0xC7, 0x0F, 0x3D, 0x11, 0xE8, 0x10, 0x0D, 0xBE,
    0x03, 0xE5, 0xE4, 0xD2, 0x21, 0xFC, 0x21, 0x02, 0xEE, 0xD1, 0x07, 0x45,
    0xFA, 0x11, 0x48, 0x14, 0xFF, 0x18, 0xD2, 0x37, 0xFF, 0xE8, 0xF1, 0x43,
    0x3A, 0xB8, 0xEE, 0x0E, 0x2B, 0xE8, 0x08, 0x0E, 0xC9, 0xD4, 0x0D, 0x05,
    0xD1, 0xE9, 0x20, 0xA1, 0xF1, 0xB5, 0xD6, 0xD4, 0x12, 0x07, 0x12, 0x23,
    0x09, 0xCC, 0xE6, 0xEC, 0x68, 0xE6, 0xC6, 0xFE, 0xF6, 0xC0, 0x96, 0x40,
    0x10, 0xF6, 0x09, 0x04, 0x25, 0x2F, 0xE7, 0x33, 0x4B, 0x09, 0xDB, 0xFA,
    0xD4, 0x1C, 0x1F, 0xEC, 0x3A, 0x2A, 0xE1, 0x10, 0xEC, 0xCD, 0xEE, 0xE8,
    0x1A, 0xF0, 0x37, 0xB5, 0xB9, 0x06, 0x62, 0x00, 0x2D, 0xF7, 0x2B, 0xD5,
    0x24, 0x03, 0x07, 0xBF, 0xE0, 0xFB, 0x37, 0x4D, 0x4B, 0xE7, 0x3D, 0xF9,
    0x29, 0x09, 0x05, 0xFC, 0x2E, 0xF1, 0xF1, 0xFE, 0x41, 0x1E, 0xF5, 0x0D,
    0xB7, 0xE5, 0x6E, 0x35, 0x43, 0x01, 0x0B, 0x10, 0x38, 0x07, 0xF1, 0xE8,
    0x23, 0x09, 0xDF, 0x10, 0x2C, 0x03, 0xC6, 0xE8, 0x0B, 0x07, 0x08, 0x3F,
    0x00, 0xEF, 0x02, 0x10, 0x15, 0x0D, 0xFD, 0x66, 0xFD, 0xE2, 0x16, 0x01,
    0x39, 0xFB, 0x01, 0x09, 0xC4, 0xC6, 0xB3, 0x19, 0xEE, 0x03, 0x00, 0xB9,
    0xF1, 0xC0, 0x10, 0xEA, 0x0A, 0x09, 0xFB, 0x05, 0xE5, 0x09, 0xF9, 0xFB,
    0x74, 0xF1, 0xC4, 0xE1, 0xC4, 0x17, 0xD0, 0x45, 0x14, 0xEA, 0x00, 0x10,
    0xFD, 0x13, 0xE3, 0x2E, 0x3A, 0x48, 0x06, 0xE7, 0xE6, 0x0F, 0x07, 0x2C,
    0x33, 0x47, 0xA3, 0x00, 0x03, 0x0D, 0xE0, 0xFA, 0x34, 0xE8, 0xF2, 0xC1,
    0x31, 0x3B, 0x05, 0x08, 0x19, 0xF4, 0xF0, 0xF7, 0xE6, 0x08, 0x31, 0xDD,
    0xE1, 0xFA, 0xB1, 0x21, 0x59, 0xE2, 0xFB, 0x08, 0x01, 0xFB, 0xF5, 0x06,
    0x10, 0xFB, 0xE8, 0x0D, 0x41, 0x0A, 0xCD, 0x1D, 0xDF, 0xC6, 0x78, 0x28,
    0xEA, 0xED, 0xD2, 0x09, 0xEA, 0xF1, 0x01, 0x06, 0xBF, 0x28, 0xF5, 0xF6,
    0x42, 0x0A, 0xEB, 0xC5, 0x00, 0xDC, 0xCA, 0x12, 0xB8, 0xA2, 0x1B, 0x2D,
    0xE8, 0x0D, 0xF7, 0x0F, 0x04, 0x16, 0x36, 0xD3, 0x28, 0xF4, 0xE8, 0x0D,
    0xBB, 0x81, 0xDB, 0x19, 0xF0, 0xF9, 0x13, 0xE4, 0xF6, 0xBB, 0x54, 0x81,
    0xE6, 0x0C, 0xD4, 0x06, 0xF1, 0x15, 0x28, 0xE3, 0x7C, 0xEC, 0xE0, 0xF4,
    0xB4, 0xFE, 0xF7, 0x0E, 0xD8, 0xE8, 0x04, 0x05, 0x0A, 0xDB, 0x07, 0xD8,
    0xFA, 0x17, 0x1A, 0xFC, 0xE6, 0xD7, 0xE7, 0x25, 0x24, 0x0C, 0xCB, 0x03,
    0x19, 0x0F, 0xE7, 0x14, 0x50, 0xFF, 0x0A, 0xBA, 0x3B, 0xDA, 0xEB, 0x4C,
    0x0F, 0x33, 0xEE, 0x25, 0x88, 0xF9, 0xEC, 0xD7, 0x19, 0xDD, 0xC4, 0x04,
    0x79, 0xDF, 0x0E, 0xF9, 0x1E, 0x2D, 0xD1, 0xFE, 0x1C, 0x00, 0x0E, 0x12,
    0xF1, 0xE2, 0xD4, 0x59, 0xF1, 0xB9, 0x62, 0xFC, 0x24, 0xFC, 0x20, 0x27,
    0x45, 0xFE, 0xF4, 0xFA, 0xD6, 0xE8, 0x1E, 0x2C, 0xED, 0x20, 0x14, 0xD4,
    0x0E, 0x2A, 0xCA, 0xF0, 0xDB, 0x16, 0xF4, 0x14, 0xE8, 0x35, 0xB5, 0xD3,
    0x42, 0xD6, 0x43, 0xEE, 0x23, 0xD6, 0xED, 0xC9, 0xAF, 0xD7, 0xE5, 0xF9,
    0x16, 0x15, 0x07, 0x13, 0xE5, 0xE3, 0x39, 0x01, 0xF9, 0xF1, 0x02, 0xF4,
    0xF8, 0xE4, 0xF0, 0x81, 0x3D, 0x14, 0xE1, 0x2C, 0xC2, 0xF3, 0x17, 0x02,
    0x09, 0xF5, 0x0E, 0x0F, 0xEE, 0x05, 0x0B, 0xF8, 0xD3, 0x13, 0x21, 0x02,
    0xF6, 0xD3, 0xE4, 0x25, 0x18, 0x21, 0xD8, 0xD4, 0x10, 0xCB, 0x11, 0x1A,
    0xCA, 0x38, 0x30, 0xBC, 0x81, 0xCE, 0x56, 0xB5, 0xF2, 0xEF, 0x47, 0x14,
    0xC2, 0xF5, 0xF0, 0xFA, 0x15, 0xD9, 0x1C, 0x2A, 0x11, 0x21, 0x00, 0xC8,
    0x39, 0x14, 0x0F, 0x02, 0x19, 0xD2, 0x02, 0x1E, 0x07, 0xFD, 0x94, 0x37,
    0x50, 0x1A, 0x49, 0xC6, 0x22, 0x08, 0xEB, 0xEC, 0xAF, 0x4E, 0xF8, 0xA9,
    0xE8, 0xDB, 0xD6, 0xF1, 0x15, 0xDC, 0xD6, 0xD0, 0xC7, 0x33, 0xF2, 0xFF,
    0x3E, 0x0F, 0xEF, 0x26, 0xC6, 0x02, 0xCF, 0x15, 0x1D, 0x9A, 0x66, 0x4F,
    0xFC, 0xE3, 0x05, 0xCC, 0x84, 0xC1, 0xB1, 0xFF, 0xF4, 0x07, 0xE5, 0x28,
    0xD4, 0x11, 0x1F, 0x0E, 0x22, 0x03, 0x26, 0xF2, 0xE6, 0xF3, 0xFF, 0xDB,
    0x53, 0xE5, 0xCF, 0xEF, 0xDE, 0x2B, 0x1B, 0x19, 0xED, 0xE5, 0xED, 0x0B,
    0x30, 0x34, 0xF3, 0x46, 0x1C, 0x4B, 0xED, 0xEF, 0xEA, 0xD8, 0xED, 0x19,
    0x27, 0x29, 0x96, 0x32, 0xEB, 0xF6, 0xC8, 0xF8, 0xA8, 0x24, 0x5E, 0xCC,
    0xAE, 0x3B, 0x2E, 0xAB, 0xF9, 0x06, 0x37, 0x1B, 0xCE, 0xFC, 0x31, 0x2D,
    0xFB, 0x8D, 0xD9, 0xF5, 0xFD, 0xF8, 0xCE, 0x14, 0xFA, 0x14, 0x1F, 0x31,
    0xC4, 0xD9, 0xED, 0xE1, 0x43, 0x1E, 0xFC, 0xE5, 0x4E, 0x49, 0xF1, 0xF2,
    0x81, 0x17, 0xE8, 0xFD, 0x09, 0xEA, 0x00, 0x79, 0x21, 0xEE, 0x28, 0x81,
    0xDC, 0x00, 0xF4, 0x05, 0xF3, 0x1A, 0x5C, 0x27, 0x1F, 0xF6, 0xCD, 0xEE,
    0xDE, 0x0D, 0xE5, 0x32, 0x0B, 0xA1, 0x08, 0x24, 0xFB, 0xDC, 0x03, 0x14,
    0xA3, 0xE3, 0xF2, 0x2D, 0xEE, 0x02, 0xE5, 0xD3, 0xD9, 0xEE, 0x19, 0xEC,
    0x43, 0x0D, 0x19, 0xF9, 0x0A, 0xDE, 0x0D, 0xD1, 0x5F, 0xA2, 0xA6, 0xC9,
    0xEF, 0x0C, 0xF7, 0x25, 0x1F, 0xFB, 0x10, 0xFA, 0xD9, 0xEF, 0x02, 0xCC,
    0x2D, 0x51, 0xE2, 0xDE, 0xEE, 0x1A, 0x21, 0x0F, 0xE0, 0x2C, 0xB6, 0x7F,
    0xD8, 0x1E, 0xBC, 0xF5, 0xFC, 0xAC, 0x12, 0x14, 0xD8, 0x02, 0x25, 0xFE,
    0xEB, 0xF7, 0xB4, 0x14, 0xE8, 0x2B, 0xFE, 0x2A, 0x28, 0xB6, 0x04, 0x18,
    0x0D, 0x11, 0x01, 0xF9, 0x04, 0x08, 0x0A, 0x10, 0xE8, 0xCE, 0x0A, 0xEF,
    0xDD, 0x22, 0x07, 0xE0, 0x7F, 0x6F, 0x25, 0x27, 0x37, 0x06, 0xF7, 0x0F,
    0xFF, 0x23, 0xF3, 0xF7, 0xF5, 0xE0, 0xFD, 0x19, 0xDE, 0xFF, 0xE3, 0xF7,
    0x1E, 0x17, 0xC9, 0x00, 0xFE, 0x28, 0x08, 0x19, 0xF7, 0x19, 0x49, 0xCF,
    0xEF, 0xEF, 0x2C, 0xFA, 0x02, 0xFF, 0x1A, 0x3B, 0xD4, 0x25, 0xF5, 0x36,
    0xF3, 0xF6, 0xD1, 0xE3, 0x01, 0xEC, 0x27, 0xDC, 0x19, 0x09, 0x0E, 0xED,
    0xEC, 0x02, 0x21, 0xF9, 0x12, 0x92, 0x21, 0xF2, 0x23, 0xEB, 0x08, 0xC5,
    0x11, 0x03, 0xF4, 0xF6, 0x28, 0x1C, 0xF7, 0xCA, 0x12, 0x35, 0xF1, 0xED,
    0xF1, 0xDB, 0xF2, 0x01, 0x09, 0x1F, 0xC4, 0x4B, 0xFA, 0x09, 0xC2, 0x11,
    0xD4, 0x35, 0xFE, 0x22, 0xEE, 0x10, 0x5C, 0x04, 0xD6, 0xB1, 0xC8, 0x3D,
    0xE1, 0x2C, 0xBD, 0xE1, 0xB6, 0xFC, 0x30, 0x41, 0xC9, 0xCE, 0x0D, 0xDD,
    0x07, 0x09, 0x16, 0x19, 0xEB, 0xDA, 0x14, 0xF8, 0xB2, 0x06, 0x0E, 0x25,
    0x75, 0xFE, 0x50, 0xF7, 0xE7, 0xFD, 0xF7, 0xFD, 0xEE, 0xD3, 0xE4, 0x34,
    0xFE, 0xD4, 0x09, 0x10, 0xEE, 0xDB, 0xF4, 0x15, 0x14, 0x29, 0xB4, 0x0B,
    0x3F, 0x5A, 0x08, 0x36, 0xD6, 0x25, 0x19, 0xA2, 0xF2, 0xE2, 0x71, 0x0B,
    0x04, 0x05, 0x2B, 0xE3, 0xE9, 0x0D, 0xEE, 0x2E, 0xFB, 0x07, 0xF0, 0x64,
    0xC4, 0x15, 0xE9, 0xD8, 0x0D, 0x1A, 0x19, 0xF7, 0xF1, 0x1E, 0x10, 0xF6,
    0xD7, 0x03, 0x1B, 0x33, 0xF4, 0xF8, 0x02, 0xED, 0xFE, 0x0C, 0xDD, 0x03,
    0xDA, 0xD2, 0xD8, 0x04, 0x1E, 0xFF, 0xCE, 0x0D, 0xFD, 0xD5, 0xEB, 0x43,
    0x11, 0x03, 0xB1, 0xE1, 0xDE, 0x16, 0xCB, 0x0C, 0x4A, 0x2F, 0x4C, 0xFD,
    0x0B, 0x23, 0x48, 0x1E, 0xFB, 0xE5, 0xE3, 0x4D, 0xDB, 0x0E, 0xC3, 0xF0,
    0xE1, 0x02, 0xE9, 0x13, 0xF5, 0x11, 0x10, 0xF4, 0x2C, 0x18, 0xEB, 0x10,
    0x07, 0x0B, 0x14, 0x0A, 0xCA, 0x0F, 0xCC, 0x6B, 0x91, 0xC7, 0x4F, 0xB5,
    0x05, 0x0C, 0xFC, 0xF5, 0xF4, 0x15, 0xDC, 0xE1, 0xD9, 0x07, 0x06, 0x16,
    0xE4, 0x0A, 0x0B, 0x0F, 0xFE, 0x2D, 0xD4, 0x1F, 0x09, 0x43, 0xEA, 0x00,
    0xEE, 0x23, 0x24, 0x94, 0x4A, 0xDD, 0x14, 0x12, 0x3A, 0x15, 0x10, 0xF1,
    0xDB, 0x42, 0xE6, 0x08, 0x10, 0x30, 0x18, 0x03, 0xD5, 0x11, 0x2A, 0x21,
    0xFE, 0xFF, 0xEB, 0x13, 0xFF, 0x03, 0xDE, 0xD0, 0x0C, 0x38, 0xED, 0x03,
    0xF7, 0xDA, 0xF7, 0xD9, 0x25, 0x20, 0x02, 0xFA, 0x08, 0x04, 0x08, 0x12,
    0x12, 0x1A, 0x26, 0xF5, 0xF5, 0x09, 0x0A, 0x08, 0xD3, 0x13, 0x04, 0x83,
    0x06, 0xC6, 0x1B, 0x00, 0x00, 0x00, 0x00, 0x00, 0x00, 0x00, 0x00, 0x00,
    0x00, 0x00, 0x00, 0x00, 0x00, 0x00, 0x00, 0x00, 0x00, 0x00, 0x00, 0x00,
    0x00, 0x00, 0x00, 0x00, 0x00, 0x00, 0x00, 0x00, 0x00, 0x00, 0x00, 0x00,
    0x00, 0x00, 0x00, 0x00, 0x00, 0x00, 0x00, 0x00, 0x00, 0x00, 0x00, 0x00,
    0x00, 0x00, 0x00, 0x00, 0x00, 0x00, 0x00, 0x00, 0x00, 0x00, 0x00, 0x00,
    0x00, 0x00, 0x00, 0x00, 0x00, 0x00, 0x00, 0x00, 0x00, 0x00, 0x00, 0x00,
    0x00, 0x00, 0x00, 0x00, 0x00, 0x00, 0x00, 0x00, 0x00, 0x00, 0x00, 0x00,
    0x00, 0x00, 0x00, 0x00, 0x00, 0x00, 0x00, 0x00, 0x00, 0x00, 0x00, 0x00,
    0x00, 0x00, 0x00, 0x00, 0x00, 0x00, 0x00, 0x00, 0x00, 0x00, 0x00, 0x00,
    0x00, 0x00, 0x00, 0x00, 0x00, 0x00, 0x00, 0x00, 0x00, 0x00, 0x00, 0x00,
    0x00, 0x00, 0x00, 0x00, 0x00, 0x00, 0x00, 0x00, 0x00, 0x00, 0x00, 0x00,
    0xC4, 0x29, 0x00, 0x00, 0xE4, 0x0A, 0x1B, 0x5A, 0x27, 0x00, 0x49, 0x06,
    0x00, 0x00, 0xEA, 0xBB, 0x49, 0x79, 0x27, 0x00, 0xDC, 0x3A, 0x00, 0x00,
    0x6B, 0xED, 0x33, 0x50, 0x27, 0x00, 0x9E, 0xC4, 0xFF, 0xFF, 0x43, 0x6E,
    0x6D, 0x45, 0x27, 0x00, 0xAE, 0x51, 0x00, 0x00, 0x8C, 0xC7, 0xF1, 0x4B,
    0x27, 0x00, 0x7A, 0x2C, 0x00, 0x00, 0x47, 0xFD, 0xC9, 0x61, 0x27, 0x00,
    0xC0, 0xE0, 0xFF, 0xFF, 0xFF, 0x3B, 0x20, 0x52, 0x27, 0x00, 0xC4, 0x57,
    0x00, 0x00, 0xC3, 0xA0, 0x49, 0x7E, 0x28, 0x00, 0x31, 0x24, 0x00, 0x00,
    0x81, 0x9F, 0x41, 0x63, 0x27, 0x00, 0x18, 0x1F, 0x00, 0x00, 0x47, 0x51,
    0xD1, 0x46, 0x27, 0x00, 0xF9, 0xF4, 0xFF, 0xFF, 0xA5, 0x40, 0xD2, 0x4C,
    0x27, 0x00, 0xFC, 0x26, 0x00, 0x00, 0x8F, 0xD1, 0xA7, 0x7C, 0x27, 0x00,
    0x59, 0x04, 0x00, 0x00, 0xEF, 0x08, 0x2E, 0x7A, 0x28, 0x00, 0xEB, 0xDF,
    0xFF, 0xFF, 0x53, 0x85, 0x4B, 0x78, 0x28, 0x00, 0xAB, 0x46, 0x00, 0x00,
    0xCB, 0xA9, 0xB3, 0x4A, 0x27, 0x00, 0x2B, 0x11, 0x00, 0x00, 0xBC, 0x9C,
    0x05, 0x49, 0x27, 0x00, 0xA6, 0x16, 0x00, 0x00, 0x88, 0x61, 0xE6, 0x4B,
    0x27, 0x00, 0xF3, 0xEA, 0xFF, 0xFF, 0x1F, 0xFA, 0x39, 0x76, 0x28, 0x00,
    0xC2, 0xC7, 0xFF, 0xFF, 0x3D, 0x6F, 0x3F, 0x51, 0x27, 0x00, 0xCF, 0x04,
    0x00, 0x00, 0x79, 0x2D, 0xB9, 0x5F, 0x28, 0x00, 0x12, 0x0F, 0x00, 0x00,
    0xEC, 0x3D, 0xFA, 0x45, 0x27, 0x00, 0xC7, 0xE7, 0xFF, 0xFF, 0x64, 0x55,
    0x34, 0x79, 0x28, 0x00, 0xFD, 0x0F, 0x00, 0x00, 0xFE, 0xC1, 0x8C, 0x7D,
    0x28, 0x00, 0x14, 0x1F, 0x00, 0x00, 0x3C, 0x99, 0xA4, 0x50, 0x27, 0x00,
    0xA0, 0x0C, 0x00, 0x00, 0x0D, 0x68, 0xA5, 0x60, 0x27, 0x00, 0xFC, 0x02,
    0x00, 0x00, 0xE2, 0x0C, 0x54, 0x61, 0x27, 0x00, 0x75, 0x67, 0x00, 0x00,
    0xDE, 0xF8, 0x35, 0x4C, 0x27, 0x00, 0xC8, 0x05, 0x00, 0x00, 0xF7, 0x85,
    0x3E, 0x69, 0x27, 0x00, 0xB8, 0x15, 0x00, 0x00, 0xD1, 0xE7, 0x64, 0x5C,
    0x27, 0x00, 0x21, 0x2F, 0x00, 0x00, 0x80, 0x62, 0x5D, 0x4E, 0x27, 0x00,
    0x8A, 0xF9, 0xFF, 0xFF, 0x69, 0x80, 0xD2, 0x7D, 0x28, 0x00, 0xE1, 0x1A,
    0x00, 0x00, 0xE5, 0x38, 0x6F, 0x60, 0x27, 0x00, 0x01, 0x00, 0x00, 0x00,
    0x00, 0x00, 0x00, 0x00, 0x00, 0x00, 0x00, 0x00, 0x00, 0x00, 0x33, 0x14,
    0x64, 0xE8, 0xD2, 0xA1, 0x11, 0x87, 0x32, 0x18, 0x3C, 0xF4, 0x01, 0xA0,
    0xE8, 0x8D, 0x91, 0x13, 0xE7, 0x05, 0xF4, 0xD2, 0xF2, 0xBA, 0x0E, 0xCE,
    0x0C, 0x0F, 0xC2, 0x00, 0x45, 0x0F, 0xC9, 0x05, 0x00, 0x05, 0x23, 0xED,
    0xEF, 0x20, 0xF5, 0x3C, 0x2C, 0x20, 0xF0, 0x7F, 0x0F, 0xC3, 0xF6, 0x3A,
    0xE8, 0x00, 0x14, 0x05, 0x0D, 0xFB, 0xCF, 0x1F, 0x02, 0xE2, 0xC9, 0xC5,
    0xF2, 0xC4, 0xF7, 0xF3, 0x0F, 0x13, 0x07, 0x2C, 0x28, 0x0B, 0x10, 0xDB,
    0x01, 0xF6, 0xF8, 0x29, 0xB5, 0xE6, 0xA5, 0x00, 0xB3, 0x17, 0x0B, 0x1D,
    0x04, 0x25, 0x15, 0x25, 0xEB, 0x10, 0xEB, 0xDB, 0x0B, 0xF3, 0x0B, 0x08,
    0x98, 0xDA, 0xC1, 0xF8, 0xDA, 0xFE, 0x20, 0xF3, 0x03, 0x29, 0x46, 0x04,
    0x0C, 0xE7, 0xB7, 0xF4, 0x31, 0xFF, 0xE2, 0xFB, 0x01, 0x0A, 0xFE, 0x08,
    0x03, 0x01, 0x2D, 0x39, 0xB3, 0x3B, 0x34, 0xFD, 0xF6, 0x1B, 0x0A, 0x01,
    0x3C, 0x09, 0x2A, 0xCF, 0xEF, 0x25, 0x1A, 0xD5, 0xBE, 0xD0, 0x05, 0x23,
    0xE6, 0x0C, 0x0D, 0x27, 0xE7, 0x32, 0xF8, 0xEC, 0x02, 0xF6, 0x06, 0x01,
    0x09, 0xF7, 0x11, 0x03, 0xDE, 0xF8, 0xFD, 0x10, 0xD9, 0x02, 0xE5, 0xDC,
    0xDB, 0x09, 0x21, 0xE2, 0x15, 0x28, 0x03, 0xF0, 0xF8, 0xFB, 0xEF, 0x9C,
    0xEF, 0xE7, 0x15, 0xEB, 0x19, 0xF4, 0xFA, 0x34, 0xD2, 0x43, 0xFD, 0xDD,
    0x03, 0xFD, 0xF1, 0x01, 0x09, 0xFA, 0x16, 0xBE, 0x0C, 0xFA, 0xE7, 0x53,
    0xCE, 0x10, 0xCB, 0x2A, 0xF1, 0xEB, 0x01, 0xFC, 0x0F, 0x1D, 0x0B, 0x0B,
    0xFC, 0x16, 0xEE, 0x0B, 0x05, 0xFA, 0xE8, 0x00, 0xC8, 0xD9, 0xCC, 0x19,
    0xEC, 0x0E, 0xFC, 0x26, 0x10, 0xE6, 0xBF, 0xED, 0x03, 0x18, 0x07, 0xD9,
    0x81, 0xDB, 0x21, 0xEB, 0xDF, 0x0F, 0x2A, 0xF7, 0xFD, 0xF9, 0xF7, 0x13,
    0x23, 0x22, 0xE3, 0xF2, 0x45, 0x25, 0x40, 0xFC, 0x1A, 0xF6, 0x06, 0x20,
    0x14, 0x29, 0xD0, 0x3D, 0xB5, 0xF5, 0xC2, 0xFE, 0xD7, 0x33, 0xEC, 0xE4,
    0x0B, 0xC0, 0x14, 0xD5, 0x14, 0xFD, 0x04, 0xEC, 0x0A, 0x06, 0xF1, 0x09,
    0xD4, 0x11, 0x11, 0xFA, 0xEE, 0x14, 0xD1, 0x22, 0xB4, 0x20, 0x1C, 0xC5,
    0x65, 0x09, 0xF5, 0xCD, 0xE2, 0x07, 0xF4, 0xF7, 0xE4, 0x00, 0xFE, 0x14,
    0xEC, 0xE3, 0xE2, 0xDB, 0xF3, 0xE9, 0xF3, 0xDE, 0xB2, 0x0D, 0xE9, 0x2F,
    0x2B, 0xCD, 0xBA, 0x2A, 0xC4, 0x12, 0x05, 0xA7, 0x24, 0x16, 0xE0, 0x1B,
    0xC7, 0x15, 0x19, 0x2D, 0x09, 0x01, 0x38, 0x49, 0x13, 0xF7, 0x0C, 0xFE,
    0xF9, 0xF0, 0x0C, 0x05, 0xCE, 0xFE, 0xC6, 0x13, 0xF7, 0x01, 0x04, 0xEF,
    0x01, 0xF7, 0xE5, 0x11, 0x0A, 0x19, 0x23, 0xE9, 0x16, 0xF5, 0xF5, 0x14,
    0xD1, 0xFD, 0xBE, 0x05, 0x0B, 0xF9, 0x1C, 0x15, 0xA5, 0x26, 0x0B, 0xFA,
    0x10, 0x0A, 0x10, 0xF8, 0x45, 0x04, 0xFA, 0xFB, 0xB3, 0xE1, 0xF8, 0x40,
    0x47, 0xF7, 0x26, 0x49, 0x46, 0x06, 0x10, 0x21, 0x28, 0xE6, 0xC7, 0x10,
    0xE9, 0x16, 0xDB, 0xF5, 0x3B, 0xF8, 0xF2, 0x13, 0x19, 0x0F, 0x0A, 0xA6,
    0x03, 0x0D, 0x06, 0x17, 0x58, 0x3E, 0x19, 0xDF, 0xEB, 0xB9, 0xBE, 0xDD,
    0xAB, 0x0B, 0x19, 0xAE, 0xBC, 0x2A, 0xC7, 0xF4, 0xE0, 0x19, 0x12, 0x22,
    0xF2, 0xE0, 0x08, 0x04, 0xBA, 0x04, 0xDC, 0x0E, 0x13, 0x4F, 0x2C, 0x36,
    0xF4, 0x1B, 0xF4, 0xAE, 0x3C, 0x2A, 0xA6, 0xFF, 0x21, 0xD7, 0xB8, 0x1D,
    0x19, 0x2D, 0x1F, 0x0F, 0xF1, 0xEC, 0xED, 0x0E, 0xFA, 0xFB, 0xF9, 0x06,
    0xEC, 0xFA, 0x05, 0x01, 0x27, 0x21, 0x11, 0xF9, 0xBF, 0xF1, 0x31, 0x09,
    0xE7, 0xF5, 0x00, 0x54, 0xC9, 0xEE, 0xFC, 0xCF, 0xF9, 0xF4, 0x23, 0xF7,
    0x13, 0xD5, 0xDB, 0xCB, 0x30, 0x19, 0xF7, 0x27, 0xE3, 0x81, 0xF1, 0xEF,
    0xF5, 0x39, 0x1C, 0xE8, 0xB4, 0xD6, 0xFD, 0x16, 0x49, 0xEE, 0x29, 0xB8,
    0xD2, 0x03, 0xFC, 0xCE, 0xED, 0xBF, 0x0F, 0xBA, 0x02, 0xFA, 0x3B, 0x08,
    0x9B, 0x06, 0x0B, 0xF9, 0xCC, 0x05, 0x1E, 0x21, 0xD2, 0x18, 0xFA, 0xED,
    0xFC, 0x16, 0x10, 0x1D, 0xFC, 0x0C, 0xE5, 0x25, 0xC5, 0x01, 0x01, 0xB3,
    0x02, 0xE2, 0xEA, 0xF9, 0x05, 0xE6, 0xDC, 0xF5, 0xCC, 0x2E, 0xF0, 0xD3,
    0x10, 0xFD, 0xF4, 0x57, 0x2C, 0xD4, 0x16, 0xAE, 0xD7, 0xD2, 0xD6, 0x5F,
    0xB4, 0xF1, 0xD2, 0x1E, 0xC9, 0x28, 0x04, 0x0F, 0x0E, 0x3C, 0x26, 0x25,
    0x18, 0xEF, 0x24, 0x0C, 0x02, 0xF9, 0xED, 0xF6, 0x8F, 0xF0, 0x9C, 0x1D,
    0xD8, 0x10, 0x0C, 0x26, 0x31, 0x38, 0x2C, 0xFB, 0x2C, 0xFD, 0xC5, 0x32,
    0xC6, 0xF6, 0xFF, 0xD2, 0xD2, 0x14, 0x38, 0xF7, 0xD2, 0xFA, 0xFF, 0x33,
    0xD7, 0x56, 0xF2, 0xCC, 0x47, 0x39, 0x32, 0x0C, 0x3C, 0xF5, 0x0A, 0xED,
    0x0D, 0x02, 0xDA, 0xCE, 0x8A, 0xC7, 0xB8, 0xE9, 0x05, 0x21, 0xEA, 0xFF,
    0x22, 0x81, 0x0F, 0xDD, 0x00, 0xFE, 0x11, 0x0E, 0xD4, 0xFB, 0x1B, 0xDF,
    0x06, 0x16, 0x1D, 0xDF, 0xFF, 0x0E, 0xFA, 0x35, 0xE5, 0x27, 0x25, 0xD6,
    0x32, 0xD6, 0xD9, 0xED, 0xC5, 0x15, 0x06, 0xE4, 0xB0, 0x22, 0xE6, 0x07,
    0xC0, 0x04, 0xEA, 0xD6, 0xE8, 0xC9, 0xFD, 0x03, 0xB1, 0x04, 0xC1, 0x54,
    0x36, 0x07, 0xDF, 0x54, 0x9D, 0xF6, 0xE2, 0xA3, 0x4E, 0xFB, 0xF3, 0x02,
    0xF2, 0xF1, 0xE0, 0x2A, 0x04, 0x32, 0x23, 0x4B, 0xFB, 0xEF, 0x15, 0xF3,
    0xF9, 0xFE, 0x06, 0xE2, 0xC5, 0x1E, 0xE0, 0x0D, 0x16, 0x15, 0x27, 0xC3,
    0x27, 0x35, 0x0A, 0xFF, 0x0D, 0x06, 0x2F, 0x3E, 0xC1, 0xF9, 0x21, 0x06,
    0xC6, 0xF2, 0xEE, 0x1B, 0x3F, 0xDA, 0xFC, 0x0A, 0xE5, 0x37, 0x13, 0x1F,
    0xFD, 0xCA, 0x19, 0x01, 0x46, 0x2C, 0xED, 0x11, 0xB4, 0xDB, 0xDF, 0xFD,
    0x4B, 0xD2, 0x1E, 0xE4, 0x10, 0xEB, 0xD9, 0xE2, 0x11, 0xB5, 0x06, 0xD8,
    0xE0, 0x33, 0x93, 0xEA, 0x63, 0x10, 0xCE, 0x10, 0x1F, 0x07, 0x00, 0xD5,
    0xF2, 0x1D, 0x09, 0x45, 0x5D, 0x20, 0x11, 0x51, 0xD7, 0xA6, 0xE2, 0x14,
    0xD8, 0x19, 0x29, 0xE2, 0xEE, 0x19, 0xC9, 0x06, 0xF8, 0xDD, 0xF3, 0xF7,
    0xED, 0x83, 0x26, 0x1D, 0xFE, 0x24, 0xFF, 0x0E, 0x21, 0xE8, 0xF1, 0xF4,
    0x07, 0xDB, 0xD1, 0xF6, 0x23, 0x15, 0xEB, 0x3F, 0xF2, 0xDA, 0xCE, 0x04,
    0x17, 0x26, 0x16, 0xF3, 0xEA, 0x17, 0xC8, 0xF1, 0x02, 0xF9, 0x16, 0x1C,
    0xB6, 0xEE, 0xE7, 0x05, 0xE9, 0x0B, 0x1E, 0xBA, 0xD2, 0x05, 0x6D, 0x07,
    0xFF, 0xD7, 0xED, 0x35, 0xE1, 0xFC, 0xFE, 0xE0, 0x0D, 0x02, 0x3A, 0x06,
    0x3E, 0xED, 0xFD, 0x06, 0xF1, 0x65, 0x27, 0xFD, 0xCC, 0x06, 0xFA, 0xED,
    0xE7, 0x13, 0x23, 0x3B, 0x03, 0x23, 0xD8, 0xDF, 0x3F, 0xC9, 0xF9, 0xC7,
    0xCC, 0x07, 0xF5, 0xE2, 0x10, 0xE3, 0x01, 0xC2, 0x12, 0xFD, 0x00, 0xF5,
    0x18, 0xF2, 0xF4, 0x0E, 0xF1, 0x19, 0x03, 0x1D, 0xBA, 0x2D, 0x01, 0x0C,
    0xD4, 0x1E, 0x10, 0xE1, 0x25, 0x31, 0x1D, 0xE1, 0xE9, 0x16, 0xF0, 0x03,
    0xE3, 0xFE, 0x18, 0x01, 0x2B, 0xD9, 0xFD, 0xFB, 0x14, 0x29, 0xD9, 0xC4,
    0x35, 0xFF, 0xFF, 0x0F, 0xEE, 0xC2, 0xF1, 0xBC, 0xF4, 0xF1, 0xE6, 0xF5,
    0x35, 0x1C, 0x13, 0x46, 0xD6, 0xEC, 0xEF, 0x04, 0x14, 0xFA, 0x02, 0x30,
    0x05, 0x13, 0xEE, 0x10, 0xF9, 0x04, 0xF4, 0x0E, 0xBC, 0xF1, 0xD5, 0x3A,
    0xD6, 0x19, 0x03, 0xFF, 0x27, 0xEE, 0xC9, 0x02, 0x1E, 0x2D, 0x1E, 0x09,
    0xCD, 0x06, 0x2D, 0xF8, 0xFC, 0x04, 0x23, 0x20, 0xF3, 0x0D, 0xF8, 0x1D,
    0xEE, 0x56, 0xEF, 0xDC, 0x00, 0x31, 0x03, 0xEB, 0xE3, 0xF4, 0x02, 0x17,
    0x28, 0xF5, 0xCA, 0x18, 0x3B, 0xD9, 0xEC, 0xC9, 0xE9, 0xF9, 0xCF, 0xC2,
    0x21, 0x83, 0x1D, 0xAD, 0x07, 0xE5, 0x54, 0x21, 0x81, 0xEA, 0x47, 0xE8,
    0xFE, 0x11, 0x0F, 0x08, 0xC2, 0x24, 0x21, 0x31, 0xF5, 0x1D, 0x08, 0xFF,
    0x0A, 0xF7, 0xDD, 0xFF, 0xD0, 0x2D, 0x0B, 0xE3, 0xDF, 0x11, 0xEF, 0x11,
    0xF8, 0xC7, 0xE4, 0xD3, 0xF1, 0xB8, 0xEC, 0xE9, 0x12, 0x0B, 0x01, 0x44,
    0x20, 0x9C, 0xE9, 0xC2, 0xCD, 0xA4, 0xB3, 0xDF, 0x55, 0xF1, 0x20, 0x39,
    0xD0, 0x03, 0xC8, 0x10, 0x17, 0x33, 0x14, 0x1E, 0xFC, 0xDE, 0x2F, 0x04,
    0xF8, 0x04, 0xEE, 0x02, 0x81, 0x13, 0xBE, 0x36, 0xD5, 0x20, 0x21, 0xDB,
    0x40, 0x4B, 0x2F, 0xFB, 0x36, 0x0E, 0x0A, 0x60, 0xA1, 0x06, 0x37, 0xDB,
    0xDE, 0xF6, 0x52, 0x11, 0x1F, 0x04, 0x21, 0x0E, 0xC4, 0x7F, 0x22, 0xD1,
    0x09, 0x33, 0xED, 0xFB, 0xF4, 0xF7, 0xFE, 0x43, 0x2E, 0x03, 0xC2, 0xC1,
    0x24, 0xB0, 0xC6, 0x81, 0x00, 0x00, 0x00, 0x00, 0x00, 0x00, 0x00, 0x00,
    0x00, 0x00, 0x00, 0x00, 0x00, 0x00, 0x00, 0x00, 0x00, 0x00, 0x00, 0x00,
    0x00, 0x00, 0x00, 0x00, 0x00, 0x00, 0x00, 0x00, 0x00, 0x00, 0x00, 0x00,
    0x00, 0x00, 0x00, 0x00, 0x00, 0x00, 0x00, 0x00, 0x00, 0x00, 0x00, 0x00,
    0x00, 0x00, 0x00, 0x00, 0x00, 0x00, 0x00, 0x00, 0x00, 0x00, 0x00, 0x00,
    0x00, 0x00, 0x00, 0x00, 0x00, 0x00, 0x00, 0x00, 0x00, 0x00, 0x00, 0x00,
    0x00, 0x00, 0x00, 0x00, 0x00, 0x00, 0x00, 0x00, 0x00, 0x00, 0x00, 0x00,
    0x00, 0x00, 0x00, 0x00, 0x00, 0x00, 0x00, 0x00, 0x00, 0x00, 0x00, 0x00,
    0x00, 0x00, 0x00, 0x00, 0x00, 0x00, 0x00, 0x00, 0x00, 0x00, 0x00, 0x00,
    0x00, 0x00, 0x00, 0x00, 0x00, 0x00, 0x00, 0x00, 0x00, 0x00, 0x00, 0x00,
    0x00, 0x00, 0x00, 0x00, 0x00, 0x00, 0x00, 0x00, 0x00, 0x00, 0x00, 0x00,
    0xDB, 0xF0, 0x47, 0xF8, 0x11, 0xF7, 0x29, 0x59, 0xD5, 0xDC, 0x19, 0xF8,
    0xE1, 0xE5, 0x0F, 0xD5, 0x12, 0x0C, 0x17, 0xDD, 0x14, 0xD4, 0x16, 0x51,
    0xE5, 0xC6, 0xF0, 0x05, 0xF6, 0xFD, 0x12, 0xC5, 0xE3, 0x0B, 0x64, 0xCB,
    0xEA, 0x33, 0xF3, 0x27, 0xB9, 0x23, 0xD3, 0x16, 0xCF, 0x2F, 0x3F, 0xE8,
    0xDF, 0xE5, 0xD6, 0xD6, 0x0A, 0x12, 0x0A, 0x46, 0xF7, 0x03, 0x00, 0xF7,
    0x25, 0x2E, 0x02, 0xE6, 0x00, 0x08, 0x24, 0x04, 0xE0, 0x9E, 0xE1, 0xB8,
    0x56, 0xED, 0xA4, 0x93, 0x1A, 0xE0, 0x51, 0x43, 0xFA, 0x19, 0xE9, 0x0F,
    0xD8, 0xF8, 0x0B, 0xDE, 0xF6, 0x04, 0xFD, 0x07, 0x14, 0xD9, 0xE5, 0xDF,
    0xF9, 0x2E, 0xEC, 0xDD, 0x11, 0x0B, 0x03, 0x53, 0x42, 0xEA, 0x0F, 0xB1,
    0xCF, 0x1E, 0x37, 0xD6, 0x16, 0x9D, 0x36, 0xE9, 0xEC, 0x02, 0x22, 0x1C,
    0xCA, 0x04, 0xEB, 0xF8, 0x3D, 0xEE, 0xFB, 0xD4, 0xFB, 0xF7, 0x18, 0x2E,
    0xEF, 0x43, 0xD7, 0xEB, 0xD2, 0x03, 0x03, 0xAB, 0xC5, 0x33, 0xDD, 0xFC,
    0x50, 0xEA, 0x14, 0xD2, 0x29, 0x34, 0x17, 0xF7, 0xDC, 0xE6, 0xFC, 0x32,
    0x0A, 0xC7, 0x08, 0xD6, 0x26, 0x04, 0xE9, 0x58, 0x21, 0xF2, 0x30, 0x08,
    0xF0, 0x24, 0x01, 0x24, 0x3B, 0xD2, 0xDF, 0x17, 0xC3, 0x92, 0xDD, 0xE8,
    0xD2, 0xEA, 0xEB, 0xF3, 0xB4, 0xDB, 0x10, 0xD7, 0x04, 0x1F, 0xF0, 0xE5,
    0x1E, 0xF1, 0xDD, 0x03, 0xDB, 0xE3, 0xF8, 0x13, 0xF9, 0x13, 0xF6, 0xC3,
    0xEC, 0x03, 0x07, 0x08, 0xDC, 0xD1, 0x20, 0x26, 0x1D, 0x15, 0xCD, 0x62,
    0xDF, 0xE2, 0xD7, 0x2C, 0x0A, 0x38, 0xE8, 0xFF, 0xFA, 0xAD, 0xFD, 0x32,
    0xC8, 0x0B, 0x03, 0xB1, 0xEF, 0x2B, 0x3A, 0x3B, 0xBA, 0xE0, 0x9F, 0x42,
    0xBD, 0x9E, 0x23, 0xC5, 0xEC, 0xE0, 0x0E, 0xF6, 0xED, 0xFF, 0xFC, 0xC7,
    0x2F, 0xC9, 0x9C, 0xE1, 0x27, 0xF5, 0xEA, 0xEC, 0x01, 0x08, 0x20, 0xE7,
    0xD0, 0xF5, 0xF3, 0xBC, 0xD2, 0x25, 0x09, 0xE2, 0xE3, 0x11, 0x12, 0xE5,
    0xE7, 0xBE, 0xE1, 0x05, 0x07, 0xEC, 0x0C, 0xEB, 0xCC, 0xEB, 0xE6, 0xDD,
    0xDA, 0xF4, 0x30, 0x27, 0xF3, 0xF2, 0xDA, 0xFF, 0x16, 0xEC, 0x23, 0xF9,
    0x03, 0x21, 0xFD, 0xFE, 0xEB, 0xD9, 0x13, 0x09, 0x1D, 0x36, 0xDC, 0xEB,
    0x02, 0x12, 0x15, 0xF2, 0xE5, 0x32, 0xF6, 0xCD, 0x03, 0xED, 0xF9, 0xEB,
    0x38, 0xF9, 0x0A, 0x0E, 0xF6, 0xE7, 0xCA, 0xAE, 0xEA, 0x08, 0xFA, 0xFF,
    0xAC, 0xF2, 0x45, 0xB4, 0x05, 0xAA, 0x13, 0xDD, 0x1A, 0xB5, 0xB9, 0x12,
    0xFB, 0x27, 0xE8, 0x42, 0xEF, 0x1B, 0xBB, 0x03, 0x07, 0x05, 0xEE, 0xA2,
    0x0E, 0x15, 0x2F, 0x1F, 0x1B, 0xF0, 0xBA, 0x23, 0x0B, 0xE6, 0xD3, 0xFE,
    0x3A, 0x08, 0xF5, 0xC6, 0xD3, 0xE2, 0xD1, 0x01, 0xCE, 0x1C, 0xE9, 0x17,
    0xE4, 0x04, 0x27, 0xDB, 0xF0, 0x05, 0xB7, 0xED, 0x00, 0x1E, 0xFA, 0xEC,
    0x05, 0x0B, 0x1F, 0x0F, 0x33, 0xE9, 0xF9, 0xB7, 0xFE, 0xF4, 0x2B, 0xBC,
    0xF3, 0xF4, 0x03, 0xF7, 0xD7, 0x81, 0xF0, 0xDA, 0xBC, 0xEE, 0x07, 0xB0,
    0x23, 0x0D, 0xD7, 0x2C, 0xDC, 0x02, 0x36, 0xD5, 0xDA, 0xDC, 0x1C, 0xED,
    0x46, 0xCB, 0xEA, 0xFE, 0x0C, 0xF2, 0xC5, 0x35, 0x61, 0x27, 0xF5, 0x09,
    0x1F, 0x5B, 0xFD, 0xFF, 0xE7, 0x0C, 0x18, 0x0F, 0xFD, 0xCD, 0x12, 0x3D,
    0x4A, 0xFF, 0xAB, 0xEE, 0x0E, 0x03, 0x0F, 0x59, 0xD1, 0xCA, 0x81, 0xAA,
    0x32, 0xFD, 0xDB, 0xFE, 0xB5, 0x29, 0x10, 0xD5, 0x02, 0xD0, 0xD5, 0xCA,
    0xC4, 0x1D, 0x9C, 0xBE, 0x2E, 0x20, 0x07, 0x4B, 0x24, 0xB1, 0xA1, 0xDC,
    0x35, 0x00, 0x33, 0xC8, 0x1E, 0x25, 0xF4, 0xBA, 0xF1, 0xF1, 0xC4, 0x11,
    0x17, 0xBE, 0x2F, 0xFF, 0x04, 0x09, 0x36, 0x12, 0xE1, 0x02, 0x42, 0x4C,
    0xF5, 0x22, 0xF2, 0x04, 0xD7, 0xE5, 0xFC, 0xCF, 0xC9, 0xFB, 0xDD, 0xE9,
    0x42, 0xF3, 0x35, 0xD2, 0x40, 0x2B, 0x0C, 0x55, 0xF2, 0xCD, 0xF3, 0xFC,
    0x15, 0x19, 0xD0, 0xAA, 0x25, 0x2D, 0x3F, 0x33, 0x06, 0xED, 0x14, 0x04,
    0xDD, 0x08, 0xFD, 0x11, 0xFF, 0x3D, 0xE1, 0xF2, 0xBA, 0xAD, 0xCE, 0xF6,
    0xCD, 0xDE, 0xE7, 0x1C, 0xFF, 0xE8, 0x07, 0xED, 0x11, 0xE2, 0xF2, 0xE0,
    0x02, 0x06, 0xF3, 0x11, 0xB4, 0xA5, 0xE7, 0x01, 0xEC, 0xEF, 0xB4, 0xCA,
    0xF5, 0xFD, 0x20, 0x2B, 0xDB, 0xF0, 0xE7, 0x2B, 0xD6, 0x0E, 0xDF, 0x30,
    0x05, 0xDD, 0xD4, 0x31, 0x12, 0x22, 0x01, 0x0E, 0xE8, 0xFD, 0xF0, 0x2C,
    0x2D, 0x28, 0xF8, 0x2E, 0x10, 0x43, 0x14, 0x1F, 0xF2, 0x16, 0xCB, 0x15,
    0xF8, 0x81, 0x4B, 0xDE, 0xE3, 0xE8, 0x37, 0xF5, 0xE7, 0x39, 0x02, 0x08,
    0x34, 0xA0, 0xBA, 0xC5, 0xEB, 0xE8, 0x09, 0x10, 0xEE, 0xDA, 0xD6, 0xD5,
    0xDF, 0x0C, 0x03, 0xEF, 0xD1, 0xE3, 0x05, 0x07, 0x0A, 0x19, 0x2E, 0xD7,
    0x05, 0xF1, 0x05, 0xB5, 0xD9, 0xE5, 0x00, 0xE5, 0xBC, 0xB1, 0x06, 0xD2,
    0xE3, 0xF1, 0x3C, 0xFE, 0x3E, 0x0F, 0xDC, 0x18, 0xBD, 0x35, 0x24, 0xB0,
    0xC0, 0xFD, 0x01, 0xEB, 0x13, 0xCE, 0xF5, 0x0A, 0x05, 0x13, 0xBA, 0xF8,
    0x7F, 0x11, 0x16, 0xF1, 0xF8, 0x41, 0xF0, 0x0B, 0x17, 0xE6, 0x06, 0xF2,
    0x11, 0xD5, 0x09, 0xEC, 0x17, 0x04, 0xB8, 0xDB, 0xD1, 0x06, 0x06, 0x11,
    0xA7, 0xD2, 0xB0, 0xBC, 0x52, 0xC8, 0x01, 0xB2, 0xF9, 0xCC, 0x01, 0xE1,
    0x23, 0xFD, 0xFF, 0x01, 0xB9, 0x3B, 0x81, 0x29, 0x52, 0x1F, 0x12, 0xF6,
    0x0F, 0x10, 0xE0, 0x0D, 0x2C, 0xF5, 0x0B, 0x04, 0x28, 0x12, 0xE3, 0xF7,
    0x2D, 0xED, 0xDD, 0x05, 0x36, 0x08, 0xE8, 0x51, 0x0C, 0xF7, 0x15, 0x1A,
    0xAF, 0x1D, 0x3F, 0xF2, 0xFC, 0x12, 0xC6, 0x41, 0xFA, 0xEF, 0x19, 0x19,
    0xED, 0x05, 0x7F, 0xE0, 0x5E, 0x12, 0x3A, 0xC5, 0x26, 0x49, 0xF2, 0x14,
    0x1E, 0xFC, 0x05, 0xEF, 0x13, 0xC0, 0x60, 0x09, 0xD0, 0x00, 0x44, 0x8E,
    0x00, 0x20, 0xE5, 0x3B, 0xE6, 0x2B, 0x41, 0xF8, 0xD9, 0xDE, 0x7F, 0xF6,
    0x62, 0xC1, 0xF9, 0x03, 0xDB, 0x1D, 0xF3, 0x28, 0xED, 0x05, 0xFA, 0x05,
    0x19, 0x7D, 0xF6, 0x13, 0xC0, 0x0F, 0x19, 0xF6, 0xEB, 0x81, 0x0E, 0x22,
    0x57, 0x1D, 0xBA, 0x85, 0x35, 0xEA, 0x2E, 0x3A, 0xF2, 0xF9, 0xDD, 0x1B,
    0x18, 0x08, 0xD3, 0x6D, 0x18, 0x51, 0x2D, 0x11, 0xFC, 0xD4, 0xE3, 0xE8,
    0xD4, 0x3A, 0xCE, 0xB8, 0x06, 0x16, 0xF6, 0x57, 0x53, 0xE7, 0xE7, 0xA8,
    0x27, 0x1F, 0x3E, 0xA5, 0x4D, 0x18, 0x45, 0xDE, 0xB4, 0xFD, 0x07, 0x01,
    0x19, 0xAA, 0x04, 0x0B, 0x13, 0xF1, 0x1D, 0xDE, 0xFB, 0xCC, 0x1A, 0x1B,
    0xC9, 0xF5, 0xE8, 0xE2, 0xE9, 0xF3, 0x09, 0xC0, 0xDD, 0x22, 0x21, 0xE7,
    0x0C, 0x2D, 0x30, 0xD2, 0x23, 0x0C, 0xE0, 0xC5, 0x32, 0xE9, 0xF4, 0x07,
    0x26, 0x25, 0xF2, 0xF9, 0x36, 0xEE, 0x1D, 0x24, 0x1C, 0xF9, 0xE9, 0xFD,
    0x3E, 0x3F, 0x0A, 0x27, 0x36, 0xFD, 0x0C, 0x1D, 0x1D, 0xB9, 0xF3, 0x03,
    0xEE, 0x1B, 0x18, 0xDC, 0xBA, 0xF8, 0x12, 0xE6, 0xF7, 0x34, 0xF1, 0xA8,
    0x15, 0xF0, 0xF9, 0xFC, 0xDA, 0xDC, 0x1E, 0x09, 0x14, 0xDE, 0xA2, 0xA5,
    0xFD, 0x09, 0x12, 0xE6, 0xA0, 0xC2, 0x2B, 0xD2, 0x54, 0xEC, 0x2E, 0xF8,
    0x17, 0xDE, 0xC4, 0x47, 0x13, 0x68, 0xE2, 0x25, 0x03, 0xE1, 0xD6, 0x28,
    0xBC, 0x11, 0xFD, 0xA8, 0xF3, 0x4E, 0x69, 0x51, 0xED, 0xEB, 0x8D, 0x45,
    0xF6, 0x13, 0x09, 0xB6, 0x98, 0xF5, 0xC5, 0xE9, 0xDE, 0xD0, 0xE4, 0x1E,
    0xC5, 0xE6, 0xAD, 0xF1, 0xB9, 0xF7, 0x54, 0x43, 0xBA, 0x09, 0xC4, 0xE9,
    0xFE, 0xF8, 0x09, 0xF3, 0xE1, 0xF6, 0x34, 0xE5, 0x46, 0x08, 0x54, 0xA5,
    0x23, 0x39, 0xF9, 0xA5, 0x1A, 0xE1, 0x15, 0xE8, 0x06, 0x14, 0x07, 0xDD,
    0x15, 0x0D, 0x49, 0xDE, 0x21, 0x03, 0xFB, 0x1B, 0xEB, 0x0C, 0x28, 0xF4,
    0xD8, 0x14, 0x0D, 0xE3, 0x59, 0xA2, 0xE4, 0xF4, 0xBE, 0x00, 0x08, 0xFC,
    0x14, 0xFE, 0x1A, 0xF4, 0xFD, 0x47, 0xEB, 0xDD, 0x16, 0x09, 0xF2, 0xFF,
    0xC7, 0x96, 0x27, 0x04, 0x31, 0x0A, 0x8F, 0xB1, 0xF8, 0x04, 0x21, 0x16,
    0xCA, 0xDB, 0xE2, 0x0B, 0x3D, 0x0C, 0x11, 0x61, 0x30, 0x00, 0xF2, 0x1D,
    0x09, 0x3B, 0x06, 0x35, 0xDA, 0x2E, 0xA9, 0x1E, 0x2F, 0x3E, 0xFC, 0x13,
    0x15, 0x4C, 0x1F, 0x24, 0x25, 0xF9, 0xC9, 0x1E, 0x26, 0x29, 0x48, 0xB7,
    0x8D, 0xDC, 0x04, 0xFE, 0x1C, 0xFD, 0xE3, 0x58, 0xFE, 0xB1, 0xCE, 0xE9,
    0x00, 0x00, 0x00, 0x00, 0x00, 0x00, 0x00, 0x00, 0x00, 0x00, 0x00, 0x00,
    0x00, 0x00, 0x00, 0x00, 0x00, 0x00, 0x00, 0x00, 0x00, 0x00, 0x00, 0x00,
    0x00, 0x00, 0x00, 0x00, 0x00, 0x00, 0x00, 0x00, 0x00, 0x00, 0x00, 0x00,
    0x00, 0x00, 0x00, 0x00, 0x00, 0x00, 0x00, 0x00, 0x00, 0x00, 0x00, 0x00,
    0x00, 0x00, 0x00, 0x00, 0x00, 0x00, 0x00, 0x00, 0x00, 0x00, 0x00, 0x00,
    0x00, 0x00, 0x00, 0x00, 0x00, 0x00, 0x00, 0x00, 0x00, 0x00, 0x00, 0x00,
    0x00, 0x00, 0x00, 0x00, 0x00, 0x00, 0x00, 0x00, 0x00, 0x00, 0x00, 0x00,
    0x00, 0x00, 0x00, 0x00, 0x00, 0x00, 0x00, 0x00, 0x00, 0x00, 0x00, 0x00,
    0x00, 0x00, 0x00, 0x00, 0x00, 0x00, 0x00, 0x00, 0x00, 0x00, 0x00, 0x00,
    0x00, 0x00, 0x00, 0x00, 0x00, 0x00, 0x00, 0x00, 0x00, 0x00, 0x00, 0x00,
    0x00, 0x00, 0x00, 0x00, 0x00, 0x00, 0x00, 0x00, 0x61, 0x03, 0xC5, 0x15,
    0xF1, 0x0B, 0xA3, 0xD6, 0xC9, 0x1C, 0xFA, 0x14, 0xE4, 0x2B, 0x36, 0x18,
    0x3F, 0xE9, 0xE5, 0xF8, 0xF8, 0x81, 0xC1, 0x00, 0xBC, 0x04, 0xD5, 0x4B,
    0xCB, 0xB8, 0xBD, 0xF9, 0x02, 0x11, 0x08, 0xE8, 0xE5, 0x33, 0x42, 0x05,
    0xCB, 0x5B, 0xF9, 0xC1, 0x16, 0x78, 0xD2, 0xF0, 0x22, 0x12, 0x13, 0x1F,
    0xF1, 0x1A, 0xB2, 0x3C, 0xCF, 0x10, 0xE9, 0xB3, 0x0F, 0x07, 0x0B, 0x15,
    0x37, 0xE9, 0x14, 0xFC, 0xE4, 0x0F, 0xED, 0xF5, 0x09, 0xF3, 0x2C, 0x10,
    0x10, 0xFB, 0x00, 0x1B, 0xC6, 0x39, 0x18, 0xF1, 0xF7, 0x2A, 0x34, 0x37,
    0x21, 0xD2, 0xDB, 0xBD, 0xB1, 0xF6, 0x26, 0xFA, 0x24, 0xCA, 0xF5, 0x04,
    0xF4, 0x03, 0xC8, 0x6A, 0xE7, 0xBA, 0x2E, 0x1C, 0xD1, 0x01, 0x04, 0x38,
    0xFD, 0x18, 0xD1, 0x2B, 0x31, 0x2A, 0x12, 0x1D, 0x0E, 0xF3, 0x05, 0xD7,
    0xCF, 0xF0, 0xE3, 0xCC, 0x81, 0x27, 0xF1, 0xF6, 0x1F, 0xDF, 0x60, 0x21,
    0x92, 0x17, 0x0C, 0x35, 0x2C, 0xC7, 0xEC, 0xEC, 0xDD, 0xF1, 0x10, 0x06,
    0xF8, 0xD6, 0xC7, 0xDF, 0x2D, 0x2B, 0x09, 0xC3, 0x53, 0x6A, 0x2A, 0x4A,
    0xE5, 0xE6, 0x01, 0x0D, 0x13, 0xE6, 0xC7, 0xFA, 0x74, 0x11, 0xD0, 0x21,
    0xD6, 0x10, 0xF9, 0xC1, 0xD3, 0xAD, 0x06, 0xB3, 0x1C, 0xDD, 0xDB, 0x33,
    0xEC, 0xFC, 0xF0, 0xFC, 0x20, 0xCD, 0x1B, 0xD1, 0xFF, 0xD9, 0xEB, 0x9A,
    0x08, 0x32, 0x1F, 0x39, 0xC1, 0x9E, 0x1D, 0x15, 0x48, 0xFE, 0xF1, 0xA4,
    0xDE, 0x01, 0x22, 0xB5, 0x1A, 0xE5, 0x07, 0x07, 0x6E, 0xA8, 0xC6, 0xF7,
    0x20, 0xFD, 0x2E, 0xE9, 0x46, 0xBD, 0xF3, 0x33, 0x1F, 0xF2, 0xEB, 0xC7,
    0xC8, 0xFE, 0xBB, 0x62, 0x0B, 0x02, 0x60, 0x6C, 0xE9, 0x14, 0x08, 0xFB,
    0xEA, 0xEF, 0xF0, 0x67, 0xE0, 0x79, 0x33, 0xFA, 0xFF, 0x01, 0xC2, 0xFA,
    0x67, 0xFC, 0xE0, 0xDF, 0x1C, 0xE5, 0xED, 0x1A, 0xFB, 0x08, 0x12, 0x47,
    0xC1, 0x12, 0xE6, 0xF0, 0x34, 0xE5, 0xEB, 0x54, 0xE5, 0x18, 0x50, 0x58,
    0x05, 0xFC, 0x22, 0xBA, 0xDE, 0x2E, 0xC9, 0x4D, 0xDD, 0x11, 0xFB, 0x08,
    0xC9, 0x0F, 0x3D, 0xE2, 0x1F, 0xF4, 0x2B, 0x0A, 0xD9, 0xB1, 0x03, 0xDF,
    0xAB, 0xD8, 0x11, 0x1B, 0x0B, 0xBF, 0xFF, 0xE4, 0x54, 0x29, 0x1B, 0xC6,
    0x10, 0xEB, 0xE3, 0x18, 0xB6, 0xED, 0xE2, 0x3D, 0xF5, 0x4E, 0xD5, 0xEB,
    0x8F, 0x13, 0x12, 0x09, 0xEB, 0x29, 0x23, 0x37, 0x4B, 0x18, 0xD9, 0x09,
    0x98, 0xE2, 0x09, 0xE4, 0x09, 0xFB, 0x08, 0xEE, 0xF0, 0xE6, 0x16, 0x4F,
    0xA7, 0xE8, 0x1D, 0xF8, 0xFE, 0xE8, 0xFD, 0x7F, 0xE9, 0xF8, 0x06, 0xEE,
    0x02, 0xE4, 0xDB, 0x5D, 0xCC, 0x12, 0x16, 0x06, 0xD4, 0xE4, 0x03, 0xF6,
    0xC6, 0xA7, 0xC5, 0x04, 0x05, 0x32, 0xF6, 0x2F, 0xA2, 0xFD, 0x1C, 0xE3,
    0xE3, 0x0F, 0x07, 0x1E, 0x55, 0x1E, 0x10, 0x2C, 0xDE, 0x18, 0xF6, 0x04,
    0x42, 0x37, 0xE1, 0xDD, 0xD7, 0x1F, 0x2E, 0x63, 0xEB, 0xDE, 0x31, 0x06,
    0xED, 0xC2, 0xB4, 0xED, 0xFD, 0x20, 0x13, 0x16, 0xF0, 0x04, 0xFB, 0xF6,
    0x20, 0x14, 0x22, 0x1E, 0xF7, 0xDE, 0xEC, 0xD2, 0xA2, 0x2F, 0xFD, 0xC1,
    0x16, 0xF5, 0xDE, 0x16, 0x28, 0x19, 0x14, 0x13, 0x11, 0x04, 0xE4, 0xC4,
    0x24, 0x2A, 0x2C, 0xF1, 0x04, 0x17, 0xFC, 0xDF, 0xCB, 0xAB, 0x13, 0x31,
    0x3E, 0x15, 0x4C, 0x95, 0xE0, 0xA1, 0xEB, 0x00, 0x23, 0x25, 0xD0, 0xDE,
    0xC2, 0xB1, 0xF4, 0x2C, 0xA4, 0xC8, 0x44, 0x19, 0xF6, 0x38, 0x0C, 0x65,
    0x17, 0x10, 0x23, 0xEC, 0x33, 0x2D, 0xE1, 0x22, 0xE9, 0xFF, 0x41, 0x0F,
    0xEF, 0xF7, 0x06, 0x7F, 0x12, 0x17, 0xC1, 0x52, 0xEF, 0xE1, 0xF0, 0x37,
    0x53, 0x0F, 0xEC, 0x5D, 0x0E, 0x26, 0xBE, 0x01, 0x0C, 0xEA, 0x2E, 0xE5,
    0xAA, 0x1A, 0x02, 0x67, 0xFB, 0xD9, 0xE4, 0xD2, 0xF4, 0xF8, 0xFA, 0x19,
    0xFE, 0xB8, 0xDA, 0xD9, 0x1F, 0x09, 0xC8, 0x3E, 0x18, 0xFF, 0x1E, 0x49,
    0xF2, 0xFA, 0xF2, 0x07, 0x01, 0xFC, 0xEF, 0xFA, 0x25, 0x29, 0xCA, 0xE1,
    0xEC, 0x65, 0xAF, 0xEC, 0x06, 0xC5, 0x18, 0xCD, 0x15, 0xEA, 0xB4, 0x35,
    0xA6, 0x06, 0xE1, 0xB8, 0x0E, 0xDE, 0x1B, 0x19, 0xBC, 0x97, 0xD1, 0xDF,
    0xDA, 0x44, 0x00, 0xCF, 0xD3, 0xFD, 0x17, 0x12, 0x3A, 0xFC, 0x24, 0xB2,
    0xEF, 0x36, 0x1D, 0xBB, 0x1C, 0x0B, 0x25, 0x24, 0x6C, 0xDB, 0xB3, 0xB5,
    0xDE, 0xF2, 0x37, 0xB1, 0x3A, 0x95, 0x08, 0xFD, 0x15, 0x16, 0xB6, 0x2E,
    0xC8, 0xF6, 0xD0, 0x53, 0xC3, 0xE4, 0x78, 0x64, 0x00, 0x01, 0xCA, 0x3C,
    0xCE, 0xEB, 0xF3, 0x4F, 0xE1, 0x1C, 0x0F, 0xC9, 0xAC, 0xED, 0xE1, 0xB2,
    0xF2, 0xF1, 0x2F, 0x25, 0xDD, 0x1A, 0xB4, 0xD5, 0x18, 0x08, 0x1D, 0x49,
    0xE8, 0xF2, 0x13, 0xFC, 0x0A, 0x10, 0xCA, 0x2C, 0xC4, 0x41, 0x4E, 0x7A,
    0x20, 0x06, 0x37, 0xDB, 0xE4, 0xCA, 0xC0, 0x1E, 0x04, 0x37, 0xED, 0x13,
    0xC2, 0x00, 0x2E, 0xEE, 0x41, 0x16, 0x3C, 0x06, 0xDC, 0x8D, 0xF7, 0xD8,
    0xD1, 0xF8, 0xFA, 0xF3, 0x0C, 0xE5, 0xFE, 0x0B, 0x53, 0x44, 0x21, 0xAD,
    0x0F, 0x25, 0xA9, 0x08, 0x29, 0x38, 0x19, 0x37, 0xF0, 0x39, 0xE2, 0xC7,
    0xC5, 0xE3, 0x13, 0x48, 0x29, 0x0A, 0x59, 0xFC, 0x27, 0xDD, 0xE8, 0x0D,
    0xEA, 0xFE, 0xF7, 0xC9, 0xEC, 0xF9, 0x01, 0x10, 0xE0, 0xCA, 0x5E, 0x4C,
    0xB4, 0x05, 0x13, 0x17, 0xD5, 0xEF, 0x1C, 0x23, 0x14, 0x34, 0xF0, 0x10,
    0x07, 0xEE, 0x1B, 0x15, 0xE2, 0x03, 0xEF, 0x58, 0xCF, 0xE8, 0xE0, 0x1E,
    0xF3, 0xAA, 0xCE, 0x04, 0x28, 0x36, 0xF7, 0x7F, 0x0B, 0xF7, 0xFA, 0x17,
    0xBC, 0x09, 0xC4, 0xE9, 0x16, 0x48, 0xE1, 0xED, 0xFE, 0xFB, 0x2F, 0xFA,
    0x6F, 0xF3, 0xD2, 0x0A, 0xDE, 0xCB, 0x10, 0x47, 0xEC, 0xF4, 0xE2, 0x22,
    0xF0, 0xC1, 0xD7, 0x1D, 0x0C, 0x3B, 0xFF, 0x04, 0xC3, 0x1C, 0x18, 0xC8,
    0xD7, 0x10, 0x0D, 0x0E, 0x16, 0x74, 0xFA, 0xBC, 0xFA, 0x14, 0x08, 0xB9,
    0x19, 0xFB, 0x9E, 0x4F, 0x0D, 0x0A, 0x30, 0xEC, 0x11, 0x1B, 0xD8, 0xF0,
    0x60, 0x5B, 0x3C, 0x64, 0x04, 0x34, 0x0D, 0xDF, 0x2E, 0xDE, 0x28, 0x57,
    0x7F, 0xEF, 0x3A, 0xA5, 0xF5, 0xF9, 0x1C, 0x0E, 0x34, 0x2C, 0x0E, 0xFB,
    0x01, 0xF5, 0xE3, 0xF6, 0xD9, 0xC1, 0x3A, 0xDD, 0xEC, 0xEE, 0x30, 0x08,
    0xF8, 0x03, 0x05, 0x41, 0xC0, 0x20, 0xEF, 0xC6, 0x06, 0xD8, 0x34, 0x0E,
    0x16, 0x28, 0xE8, 0x6E, 0x10, 0x33, 0xDF, 0x3A, 0x17, 0xC1, 0xD5, 0xEE,
    0x17, 0xFF, 0x0D, 0x26, 0x30, 0x3A, 0xA3, 0xD1, 0x32, 0xEF, 0x6E, 0x07,
    0xE1, 0x0F, 0xF1, 0x3E, 0x2E, 0x02, 0x03, 0xFD, 0x25, 0x1C, 0xE3, 0x25,
    0xFE, 0xE6, 0x40, 0x00, 0x30, 0x3B, 0x0A, 0x81, 0x21, 0x51, 0x18, 0x7C,
    0xC1, 0xEE, 0xF7, 0xEF, 0xF9, 0x0E, 0x14, 0xF7, 0x33, 0xF8, 0x07, 0x3D,
    0x0E, 0xA7, 0x27, 0xBB, 0xA3, 0xB8, 0x23, 0x04, 0x09, 0xBF, 0xED, 0x15,
    0xBE, 0xFF, 0xFB, 0x04, 0xEC, 0xCE, 0x51, 0x14, 0xA3, 0xC1, 0xC3, 0xDD,
    0xEA, 0x6A, 0x04, 0x3E, 0xBA, 0xB0, 0x1B, 0x40, 0x63, 0x14, 0xF5, 0xDC,
    0x01, 0x3B, 0x36, 0xEB, 0x00, 0xE0, 0x2A, 0x18, 0x66, 0xDE, 0x07, 0x62,
    0x26, 0xD8, 0x54, 0x0D, 0x25, 0xA2, 0xD7, 0xC1, 0x32, 0x08, 0x9E, 0x65,
    0xFE, 0x4D, 0xED, 0xE2, 0x43, 0xFA, 0x2A, 0xF3, 0xFE, 0x2A, 0x25, 0x28,
    0xCE, 0xD1, 0xF9, 0x2A, 0xD2, 0x11, 0x04, 0x18, 0xED, 0x1B, 0xF5, 0xCA,
    0x52, 0x20, 0xA6, 0x0F, 0xF8, 0x21, 0xCF, 0xB2, 0xEF, 0x11, 0xF3, 0x46,
    0x25, 0xFE, 0xF7, 0xEE, 0x35, 0x06, 0xCF, 0x36, 0xE9, 0xDE, 0x32, 0x55,
    0x1F, 0x0B, 0xF9, 0xF8, 0x0E, 0xED, 0xFB, 0x61, 0xB5, 0x26, 0xEC, 0x09,
    0xB1, 0x17, 0x31, 0xDE, 0x11, 0x05, 0x0C, 0x2B, 0x0D, 0xE8, 0xEF, 0xAF,
    0xEB, 0xC8, 0x15, 0xC0, 0x0E, 0xE2, 0xEA, 0x26, 0xDF, 0x05, 0x1F, 0xC2,
    0xF1, 0xF5, 0x14, 0x2F, 0xE7, 0xF8, 0xE7, 0x4D, 0xEC, 0x6B, 0xF4, 0xE7,
    0x0D, 0xB8, 0x37, 0x6A, 0x62, 0xEE, 0x46, 0x85, 0x1C, 0x10, 0x39, 0xEE,
    0x11, 0x07, 0x33, 0xF1, 0x43, 0xFD, 0xD2, 0x22, 0x16, 0xAF, 0x78, 0xF1,
    0x02, 0xBB, 0x02, 0xB2, 0x10, 0x11, 0x9F, 0x6B, 0xEE, 0x33, 0xD5, 0xD2,
    0x2C, 0xA0, 0x7F, 0xFF, 0x0C, 0x2D, 0xFA, 0x4B, 0xCA, 0xDC, 0xEF, 0x4F,
    0xF9, 0xCB, 0xC2, 0xDC, 0xD9, 0x21, 0x1F, 0xF9, 0x00, 0x00, 0x00, 0x00,
    0x00, 0x00, 0x00, 0x00, 0x00, 0x00, 0x00, 0x00, 0x00, 0x00, 0x00, 0x00,
    0x00, 0x00, 0x00, 0x00, 0x00, 0x00, 0x00, 0x00, 0x00, 0x00, 0x00, 0x00,
    0x00, 0x00, 0x00, 0x00, 0x00, 0x00, 0x00, 0x00, 0x00, 0x00, 0x00, 0x00,
    0x00, 0x00, 0x00, 0x00, 0x00, 0x00, 0x00, 0x00, 0x00, 0x00, 0x00, 0x00,
    0x00, 0x00, 0x00, 0x00, 0x00, 0x00, 0x00, 0x00, 0x00, 0x00, 0x00, 0x00,
    0x00, 0x00, 0x00, 0x00, 0x00, 0x00, 0x00, 0x00, 0x00, 0x00, 0x00, 0x00,
    0x00, 0x00, 0x00, 0x00, 0x00, 0x00, 0x00, 0x00, 0x00, 0x00, 0x00, 0x00,
    0x00, 0x00, 0x00, 0x00, 0x00, 0x00, 0x00, 0x00, 0x00, 0x00, 0x00, 0x00,
    0x00, 0x00, 0x00, 0x00, 0x00, 0x00, 0x00, 0x00, 0x00, 0x00, 0x00, 0x00,
    0x00, 0x00, 0x00, 0x00, 0x00, 0x00, 0x00, 0x00, 0x00, 0x00, 0x00, 0x00,
    0x00, 0x00, 0x00, 0x00, 0xBE, 0x0A, 0xF9, 0x23, 0xE8, 0xE4, 0xDF, 0x9F,
    0x1E, 0x1E, 0x12, 0x07, 0xFD, 0x04, 0x06, 0xDA, 0x3A, 0xC1, 0xC2, 0x09,
    0xF3, 0xF7, 0xD7, 0xB1, 0x12, 0xF0, 0x01, 0xFE, 0xF8, 0xFF, 0xFD, 0xF5,
    0xCD, 0x10, 0xDD, 0x29, 0x0B, 0xE4, 0x37, 0xFB, 0x40, 0x41, 0x3E, 0x1D,
    0xF7, 0x2A, 0x24, 0xCD, 0xFB, 0xEF, 0xE5, 0xDB, 0xF7, 0xE2, 0xFC, 0xF2,
    0xF8, 0xFE, 0xFE, 0x0D, 0xF2, 0xD2, 0xD5, 0xE0, 0xFE, 0xFE, 0xF1, 0xE0,
    0x1E, 0x0F, 0x07, 0x02, 0xD9, 0x1C, 0xEC, 0xF5, 0x02, 0xE5, 0x0E, 0xDF,
    0xC9, 0xF7, 0xDD, 0xCC, 0x21, 0xEB, 0x9E, 0xCB, 0xFF, 0x08, 0x08, 0x1E,
    0xF4, 0x05, 0x04, 0xFE, 0x0D, 0xB2, 0x07, 0x34, 0x7F, 0xF9, 0x0D, 0xD6,
    0x1B, 0xF6, 0xF8, 0x4C, 0xF9, 0xEF, 0x0E, 0x11, 0xEE, 0xE5, 0xDE, 0x62,
    0x13, 0x2A, 0x1A, 0x0B, 0x17, 0x0F, 0xF6, 0xE9, 0xEB, 0xFA, 0x2A, 0x0E,
    0xCD, 0x21, 0xF8, 0xC4, 0xF7, 0x1D, 0x11, 0x00, 0x03, 0x28, 0x02, 0x07,
    0xF6, 0x07, 0x09, 0xA7, 0x32, 0xB6, 0xDD, 0x0E, 0xDB, 0x43, 0x48, 0x05,
    0x0F, 0xDD, 0x41, 0x09, 0x9C, 0xF2, 0x1C, 0x00, 0x0F, 0x0D, 0x00, 0xEB,
    0xE5, 0x1F, 0xBB, 0x0F, 0x07, 0xFB, 0x15, 0x0B, 0xBC, 0x5F, 0xD5, 0xFA,
    0xBF, 0x1A, 0x3A, 0xB1, 0xDF, 0x55, 0xD3, 0xF5, 0xFE, 0x22, 0x1D, 0x07,
    0x2D, 0xBA, 0x01, 0xC3, 0xF0, 0xE3, 0x00, 0xFA, 0xDC, 0x25, 0x07, 0x13,
    0xD4, 0x34, 0x01, 0x17, 0xCE, 0xFD, 0xC1, 0x14, 0xDA, 0x04, 0x05, 0xE2,
    0xF4, 0xBC, 0xE6, 0xF1, 0x18, 0x07, 0x23, 0x19, 0x05, 0xE9, 0xDE, 0x04,
    0xF1, 0x15, 0xF0, 0x0A, 0xA9, 0xDB, 0xC8, 0x44, 0xBA, 0xB7, 0xDB, 0x0A,
    0x01, 0xCE, 0xC1, 0xE9, 0xC7, 0x16, 0xAA, 0x2A, 0x34, 0x29, 0x74, 0xFA,
    0x03, 0x35, 0x01, 0xEA, 0x08, 0xF2, 0xF9, 0xF4, 0x15, 0x17, 0x13, 0x06,
    0xF9, 0x42, 0xDB, 0x04, 0x05, 0x0E, 0xF1, 0xDD, 0x04, 0xDA, 0x0C, 0xCB,
    0x00, 0x81, 0x9C, 0xD0, 0xEA, 0x03, 0x1D, 0xD0, 0x10, 0xEE, 0x1F, 0x05,
    0xD0, 0xFE, 0x1C, 0xEB, 0x0B, 0x09, 0xE7, 0xED, 0xE6, 0x2B, 0x19, 0xD6,
    0xA2, 0xDD, 0xDD, 0xAD, 0xF3, 0xBF, 0xF2, 0x30, 0xEF, 0xE2, 0xBD, 0x22,
    0x15, 0x2F, 0x1A, 0xFD, 0xF8, 0x18, 0x13, 0xE1, 0xFD, 0x01, 0xF5, 0x13,
    0xFB, 0xE4, 0xE5, 0x09, 0x09, 0x11, 0xFC, 0xE8, 0xF7, 0x26, 0xC3, 0xEE,
    0xD1, 0xFD, 0xE3, 0xEA, 0xFA, 0x0C, 0xA3, 0xD6, 0xF3, 0xEA, 0xC6, 0xD5,
    0x24, 0xF8, 0x1C, 0xFB, 0xFC, 0x01, 0xFF, 0xF4, 0x1E, 0x19, 0xD6, 0xC4,
    0x11, 0xFE, 0xF8, 0xF5, 0xF1, 0x1E, 0xE8, 0xC0, 0xEC, 0xCD, 0x81, 0xC1,
    0x15, 0xF1, 0xE3, 0x26, 0xF0, 0x16, 0xE8, 0x06, 0x10, 0x04, 0x1C, 0x02,
    0x38, 0xEF, 0x16, 0x02, 0x3B, 0xFB, 0xE4, 0x09, 0x14, 0xF2, 0xF1, 0xDC,
    0x2A, 0x0C, 0x00, 0xF7, 0x09, 0xF6, 0x1D, 0xB8, 0x04, 0x1A, 0x10, 0xB1,
    0x09, 0xFE, 0xF4, 0xDE, 0x01, 0xE8, 0x14, 0xE1, 0x02, 0xFC, 0x0C, 0x05,
    0xDF, 0x21, 0xF7, 0xEA, 0x20, 0xEB, 0xE7, 0xFE, 0xEF, 0x0E, 0x0C, 0xD3,
    0x06, 0x36, 0x16, 0x29, 0x01, 0xF7, 0xCD, 0x12, 0x0D, 0x04, 0xFE, 0xEE,
    0xFA, 0x1A, 0x04, 0x08, 0xF0, 0x87, 0xF6, 0xEF, 0xDF, 0x30, 0x39, 0xBB,
    0x18, 0x07, 0xDB, 0x02, 0xEE, 0x3E, 0xD5, 0xFD, 0xFD, 0xF8, 0xF4, 0xB6,
    0xE5, 0xC1, 0xEE, 0x1B, 0x02, 0x5A, 0x2B, 0x50, 0xFC, 0xFB, 0x1B, 0x09,
    0xEF, 0xFE, 0xFA, 0xF5, 0xD2, 0xE5, 0xFF, 0xDE, 0xDF, 0xF6, 0x0E, 0x02,
    0x0A, 0x02, 0xC2, 0x35, 0x49, 0x3B, 0xFA, 0x04, 0x64, 0x08, 0x3D, 0xF6,
    0xFB, 0xE7, 0xC9, 0xF6, 0xF0, 0x12, 0x12, 0xFC, 0xFC, 0xF7, 0x14, 0x00,
    0xE9, 0xFA, 0x03, 0x05, 0x02, 0x1D, 0x01, 0xBE, 0x1C, 0x21, 0x05, 0xFC,
    0xE9, 0xF0, 0x12, 0xA2, 0x06, 0x8F, 0xAF, 0x51, 0xE7, 0xE8, 0x09, 0x19,
    0xF5, 0x0F, 0xCD, 0x0A, 0x5B, 0x0C, 0xCA, 0x12, 0xD0, 0x2A, 0xE0, 0x18,
    0x0F, 0xE5, 0xFF, 0x2D, 0x06, 0x49, 0x36, 0xD4, 0xB9, 0x23, 0x04, 0xED,
    0xD4, 0xFE, 0x06, 0x81, 0xDC, 0x52, 0xD6, 0x03, 0xF8, 0x09, 0x18, 0x06,
    0x15, 0xA1, 0xF1, 0x9B, 0x0B, 0xFF, 0xDB, 0xF4, 0xE7, 0x2C, 0x03, 0x14,
    0xE6, 0x2D, 0xD7, 0xFE, 0xCF, 0xDF, 0xC8, 0xE6, 0xF9, 0x0C, 0xF3, 0xE3,
    0x07, 0xBD, 0xA1, 0xBD, 0xED, 0x03, 0xDA, 0xCB, 0x0B, 0xFA, 0x0B, 0xFD,
    0xB7, 0xD3, 0x07, 0x3B, 0x23, 0xC9, 0xF5, 0xBB, 0xEA, 0xE7, 0x13, 0x49,
    0xEE, 0xC3, 0xB7, 0xE5, 0xF0, 0x1A, 0xAD, 0x42, 0x32, 0x55, 0x69, 0x20,
    0x18, 0x4D, 0x05, 0xF4, 0xF3, 0xE0, 0x02, 0xE7, 0x52, 0x1A, 0xF4, 0x2B,
    0x05, 0x15, 0xE7, 0xEE, 0x32, 0x19, 0xE8, 0xFA, 0x00, 0xEF, 0x01, 0xBD,
    0xD9, 0xBE, 0xC9, 0xF3, 0x00, 0xF8, 0x1E, 0xC7, 0xE7, 0x11, 0xCD, 0x08,
    0x43, 0x04, 0xE7, 0x13, 0x24, 0x0A, 0xFB, 0xBF, 0xF5, 0x20, 0xF3, 0x17,
    0xDA, 0xFF, 0x10, 0x94, 0xF4, 0xE2, 0x09, 0xFE, 0xED, 0xDA, 0xB8, 0xD7,
    0x12, 0x1B, 0x24, 0x08, 0xE4, 0x30, 0x0E, 0x00, 0xFD, 0xB0, 0xE6, 0xEF,
    0x02, 0x38, 0x1D, 0xE7, 0xF8, 0x14, 0xCE, 0xFE, 0x0B, 0x5B, 0xC1, 0xFC,
    0xDA, 0xF4, 0xCD, 0xC2, 0xC4, 0x00, 0xCA, 0x0A, 0xF7, 0x2B, 0x12, 0x28,
    0xE3, 0xDA, 0xD2, 0xF6, 0xFB, 0xF6, 0x09, 0x01, 0x15, 0x20, 0xCB, 0xC0,
    0xB7, 0xF0, 0x18, 0x3B, 0xD4, 0x1E, 0xCF, 0x13, 0x04, 0xFD, 0xC4, 0xE5,
    0x52, 0xE9, 0x0B, 0xF9, 0x1F, 0xF8, 0xEC, 0x02, 0xE3, 0x1F, 0x12, 0xF0,
    0x1B, 0xEC, 0x10, 0xE3, 0x01, 0xEB, 0xDC, 0x61, 0x2A, 0xC3, 0xFB, 0x81,
    0xA9, 0xE4, 0xF3, 0x07, 0x0B, 0x00, 0xEF, 0x48, 0x41, 0xF8, 0xD2, 0xDA,
    0x28, 0xEE, 0x13, 0xBD, 0x00, 0xF6, 0x07, 0xE1, 0xEF, 0xF5, 0x14, 0xFE,
    0xED, 0x4E, 0xE2, 0x0D, 0x36, 0xD0, 0xFE, 0x0A, 0x35, 0x54, 0x3F, 0x33,
    0xF9, 0xEB, 0x40, 0xC4, 0xF8, 0xE6, 0xB2, 0xF8, 0x0E, 0x00, 0x02, 0xF9,
    0x11, 0x0A, 0x16, 0x19, 0xF1, 0x88, 0xEA, 0xE6, 0x01, 0x41, 0x32, 0xB6,
    0x49, 0xFA, 0xED, 0xDE, 0x28, 0xAE, 0x36, 0x0F, 0x1D, 0x16, 0x11, 0x4D,
    0xF6, 0xBD, 0xFE, 0x3D, 0x1E, 0x39, 0xFB, 0x23, 0x05, 0x1B, 0x0E, 0x22,
    0xF1, 0x10, 0x02, 0xFD, 0xE5, 0xCB, 0x2A, 0x42, 0x4D, 0xF7, 0x09, 0xCD,
    0xFB, 0x5C, 0xE9, 0x2E, 0xE4, 0x0D, 0x21, 0xF1, 0x1C, 0xDA, 0x22, 0x16,
    0x39, 0x22, 0xE3, 0xF4, 0xF8, 0xF6, 0xF8, 0xEC, 0xEE, 0xFC, 0x2C, 0x09,
    0x06, 0x1D, 0x0C, 0x2D, 0xF5, 0x23, 0x05, 0xF5, 0xCF, 0xE0, 0x17, 0x07,
    0x04, 0xEB, 0x13, 0x58, 0xF3, 0x8F, 0x92, 0x09, 0xDA, 0x29, 0x6F, 0xEB,
    0x19, 0xD8, 0x67, 0x18, 0x90, 0xE3, 0x40, 0xE7, 0x43, 0x1B, 0xFD, 0xEA,
    0xBC, 0x29, 0xF9, 0xE3, 0xEA, 0x2A, 0x11, 0xB9, 0xC6, 0xE3, 0x14, 0xA4,
    0xCE, 0xF8, 0x0C, 0xB9, 0xDE, 0x48, 0xDD, 0xDD, 0xF5, 0x24, 0x17, 0x1F,
    0x15, 0xC8, 0x10, 0xFB, 0x18, 0xE6, 0x0C, 0x04, 0x21, 0x10, 0x16, 0xEC,
    0x29, 0xC1, 0x0E, 0x0F, 0x6C, 0xF9, 0x36, 0x10, 0xF7, 0xFF, 0xF0, 0xFE,
    0xDF, 0xD7, 0xC4, 0xD0, 0x23, 0xFA, 0x2D, 0x17, 0xFA, 0xF4, 0xDA, 0xFE,
    0x13, 0x47, 0xCF, 0x8C, 0x9A, 0xF0, 0xD8, 0x5C, 0xA7, 0x4B, 0x1D, 0xDB,
    0xC1, 0xA7, 0xC3, 0xBD, 0xCB, 0x02, 0xC8, 0x19, 0x13, 0x23, 0x2E, 0x2B,
    0xF4, 0x0C, 0x02, 0xF4, 0x0C, 0xFC, 0x06, 0x04, 0x17, 0x04, 0xE2, 0x68,
    0x20, 0xF6, 0x02, 0xA8, 0xC4, 0xCA, 0x0A, 0x0D, 0x13, 0xF8, 0xEF, 0x78,
    0xEF, 0xB3, 0x90, 0x11, 0x14, 0xD5, 0x3D, 0xDE, 0xDC, 0x33, 0x81, 0x09,
    0x68, 0x17, 0xBD, 0x19, 0x33, 0x4E, 0xE1, 0xE3, 0x12, 0x10, 0xE3, 0x2C,
    0x0C, 0x6A, 0x3F, 0xB3, 0xC6, 0xB6, 0x18, 0xA0, 0xC2, 0xD0, 0xDD, 0x90,
    0xF1, 0x52, 0xF6, 0xF6, 0x08, 0x10, 0x25, 0x1F, 0x09, 0x81, 0x11, 0xE1,
    0x23, 0x31, 0x1B, 0xCD, 0x28, 0x08, 0xE9, 0xF5, 0x19, 0x81, 0x5B, 0x04,
    0x60, 0x0B, 0x4A, 0x4B, 0xFA, 0x0B, 0xED, 0x2F, 0xED, 0x0E, 0xB5, 0xED,
    0xCD, 0xF8, 0xAD, 0xCA, 0x0B, 0xF8, 0x25, 0x18, 0xE8, 0x17, 0x09, 0xF1,
    0xC3, 0xD5, 0x27, 0x2A, 0xB9, 0x4E, 0x13, 0x0F, 0xC7, 0xBD, 0xCA, 0xCB,
    0x2D, 0xEF, 0xED, 0x11, 0x49, 0x36, 0x22, 0x39, 0xED, 0x17, 0xE7, 0xF2,
    0xEA, 0xF2, 0x14, 0xE4, 0x00, 0x00, 0x00, 0x00, 0x00, 0x00, 0x00, 0x00,
    0x00, 0x00, 0x00, 0x00, 0x00, 0x00, 0x00, 0x00, 0x00, 0x00, 0x00, 0x00,
    0x00, 0x00, 0x00, 0x00, 0x00, 0x00, 0x00, 0x00, 0x00, 0x00, 0x00, 0x00,
    0x00, 0x00, 0x00, 0x00, 0x00, 0x00, 0x00, 0x00, 0x00, 0x00, 0x00, 0x00,
    0x00, 0x00, 0x00, 0x00, 0x00, 0x00, 0x00, 0x00, 0x00, 0x00, 0x00, 0x00,
    0x00, 0x00, 0x00, 0x00, 0x00, 0x00, 0x00, 0x00, 0x00, 0x00, 0x00, 0x00,
    0x00, 0x00, 0x00, 0x00, 0x00, 0x00, 0x00, 0x00, 0x00, 0x00, 0x00, 0x00,
    0x00, 0x00, 0x00, 0x00, 0x00, 0x00, 0x00, 0x00, 0x00, 0x00, 0x00, 0x00,
    0x00, 0x00, 0x00, 0x00, 0x00, 0x00, 0x00, 0x00, 0x00, 0x00, 0x00, 0x00,
    0x00, 0x00, 0x00, 0x00, 0x00, 0x00, 0x00, 0x00, 0x00, 0x00, 0x00, 0x00,
    0x00, 0x00, 0x00, 0x00, 0x00, 0x00, 0x00, 0x00, 0x00, 0x00, 0x00, 0x00
};
static const size_t  ic_1_weights_size = sizeof(ic_1_weights);
