/*
 * Auto-generated from: fc_in__200__o_32_relu_vela.npz
 * Do not edit by hand.
 *
 * Generated for Ethos-U direct driver invocation (no TFLM).
 * Assumes a single NPU command stream with no CPU fallback.
 */
#pragma once
#include <stdint.h>
#include <stddef.h>

// Weight region index chosen by Vela:
#define FC200RELU_WEIGHT_REGION 0

__attribute__((aligned(32)))
static const uint8_t fc200relu_weights[] = {
    0xBC, 0x16, 0x03, 0x00, 0x8E, 0x6C, 0x24, 0x40, 0x29, 0x00, 0x49, 0x19,
    0x03, 0x00, 0xFA, 0x4A, 0xDF, 0x7F, 0x2A, 0x00, 0x61, 0x23, 0x03, 0x00,
    0x72, 0x09, 0x44, 0x7E, 0x2A, 0x00, 0xDA, 0x1A, 0x03, 0x00, 0xED, 0xAA,
    0x9E, 0x7F, 0x2A, 0x00, 0xEA, 0x27, 0x03, 0x00, 0x96, 0x75, 0x8E, 0x7D,
    0x2A, 0x00, 0x33, 0x13, 0x03, 0x00, 0x76, 0x21, 0x6E, 0x40, 0x29, 0x00,
    0xB1, 0x12, 0x03, 0x00, 0x7D, 0xD0, 0x78, 0x40, 0x29, 0x00, 0x86, 0x19,
    0x03, 0x00, 0x7D, 0x67, 0xD5, 0x7F, 0x2A, 0x00, 0x91, 0x15, 0x03, 0x00,
    0xB3, 0xB9, 0x3C, 0x40, 0x29, 0x00, 0xDF, 0x16, 0x03, 0x00, 0xE1, 0x8E,
    0x21, 0x40, 0x29, 0x00, 0x17, 0x14, 0x03, 0x00, 0xCC, 0x8B, 0x5B, 0x40,
    0x29, 0x00, 0xE0, 0x1A, 0x03, 0x00, 0x43, 0xCB, 0x9D, 0x7F, 0x2A, 0x00,
    0x8B, 0x17, 0x03, 0x00, 0xE4, 0x9F, 0x13, 0x40, 0x29, 0x00, 0x97, 0x13,
    0x03, 0x00, 0x09, 0x05, 0x66, 0x40, 0x29, 0x00, 0x70, 0x13, 0x03, 0x00,
    0xE2, 0x24, 0x69, 0x40, 0x29, 0x00, 0x82, 0x14, 0x03, 0x00, 0x6E, 0xD3,
    0x52, 0x40, 0x29, 0x00, 0xFB, 0x14, 0x03, 0x00, 0x5D, 0xE9, 0x48, 0x40,
    0x29, 0x00, 0x89, 0x13, 0x03, 0x00, 0x63, 0x23, 0x67, 0x40, 0x29, 0x00,
    0xD1, 0x16, 0x03, 0x00, 0x4A, 0xC3, 0x22, 0x40, 0x29, 0x00, 0xED, 0x13,
    0x03, 0x00, 0x84, 0xFC, 0x5E, 0x40, 0x29, 0x00, 0x7E, 0x1F, 0x03, 0x00,
    0x99, 0x19, 0xE1, 0x7E, 0x2A, 0x00, 0x58, 0x17, 0x03, 0x00, 0x84, 0xBF,
    0x17, 0x40, 0x29, 0x00, 0x73, 0x17, 0x03, 0x00, 0x6D, 0x8E, 0x15, 0x40,
    0x29, 0x00, 0x51, 0x13, 0x03, 0x00, 0x00, 0xC0, 0x6B, 0x40, 0x29, 0x00,
    0x07, 0x15, 0x03, 0x00, 0x8C, 0xF0, 0x47, 0x40, 0x29, 0x00, 0x84, 0x14,
    0x03, 0x00, 0xBD, 0xA0, 0x52, 0x40, 0x29, 0x00, 0xCC, 0x15, 0x03, 0x00,
    0x65, 0xEA, 0x37, 0x40, 0x29, 0x00, 0xFB, 0x12, 0x03, 0x00, 0x85, 0xC8,
    0x72, 0x40, 0x29, 0x00, 0x7D, 0x13, 0x03, 0x00, 0x0A, 0x1B, 0x68, 0x40,
    0x29, 0x00, 0x3A, 0x19, 0x03, 0x00, 0x14, 0xBD, 0xE1, 0x7F, 0x2A, 0x00,
    0x4F, 0x19, 0x03, 0x00, 0x6D, 0x3E, 0xDE, 0x7F, 0x2A, 0x00, 0x2F, 0x15,
    0x03, 0x00, 0xC7, 0xB6, 0x44, 0x40, 0x29, 0x00, 0x01, 0x00, 0x00, 0x00,
    0x00, 0x00, 0x00, 0x00, 0x00, 0x00, 0x00, 0x00, 0x00, 0x00, 0xAA, 0x3C,
    0xF0, 0xC9, 0x22, 0x2A, 0x44, 0x9E, 0x60, 0xC3, 0x48, 0x61, 0x42, 0x65,
    0xE1, 0x80, 0xA4, 0x17, 0x55, 0x0F, 0x3E, 0xD4, 0x51, 0xF0, 0xC4, 0xA0,
    0x9F, 0x52, 0x4C, 0x54, 0x0B, 0xFD, 0x49, 0xE9, 0xB1, 0xDA, 0xB3, 0xCA,
    0x09, 0x0C, 0xCF, 0xE0, 0xEF, 0xD8, 0xE5, 0xC2, 0xFF, 0x2C, 0xD4, 0x0D,
    0xF3, 0xA9, 0x2B, 0xD8, 0x69, 0x84, 0x48, 0x1E, 0x48, 0xC3, 0x21, 0x15,
    0x8A, 0xE1, 0xFE, 0x3F, 0x5B, 0xB2, 0x33, 0x7C, 0x07, 0x73, 0x89, 0x13,
    0x40, 0x40, 0x61, 0x7F, 0x2B, 0x66, 0xBD, 0x20, 0x97, 0xD7, 0x83, 0x8A,
    0x22, 0xEC, 0x10, 0x28, 0x70, 0x2E, 0x4E, 0x44, 0xD5, 0xB0, 0xD3, 0x71,
    0x00, 0x0B, 0xB9, 0xFF, 0xF2, 0xA2, 0x4E, 0x28, 0xE9, 0x49, 0x70, 0x09,
    0x07, 0x27, 0x84, 0xCA, 0x8C, 0x89, 0x4F, 0x4E, 0xE1, 0x55, 0x1A, 0xB4,
    0x15, 0xE0, 0xC5, 0xB3, 0x83, 0x1C, 0x6E, 0xCA, 0x0C, 0x8C, 0x2D, 0x2C,
    0x3C, 0x8B, 0x6A, 0xB2, 0xF5, 0xF5, 0x63, 0xEA, 0xE9, 0x8D, 0x34, 0x86,
    0xB8, 0x00, 0x18, 0x6D, 0x79, 0xFF, 0xA3, 0xB5, 0xBB, 0x6B, 0xBC, 0x22,
    0x59, 0x47, 0xDA, 0x12, 0x0B, 0xE5, 0x37, 0x65, 0xDA, 0x99, 0x2A, 0x44,
    0xF3, 0xC0, 0xA1, 0x69, 0xA0, 0x28, 0xC2, 0xA4, 0x17, 0x01, 0xA1, 0x99,
    0xE2, 0x74, 0x36, 0xCC, 0xF8, 0x0A, 0x25, 0xC8, 0xD8, 0xE3, 0x87, 0x93,
    0x54, 0x59, 0xBE, 0x12, 0xAC, 0x6D, 0xA1, 0x07, 0xDD, 0x85, 0x54, 0xD8,
    0x92, 0x58, 0x0E, 0x51, 0x1F, 0xE5, 0x85, 0x73, 0xD3, 0xB3, 0xBF, 0xFD,
    0x86, 0x1E, 0x0E, 0x55, 0x58, 0x90, 0xC5, 0x92, 0xA6, 0xA1, 0x2E, 0x26,
    0x74, 0x75, 0x1A, 0xF6, 0xCD, 0xE1, 0x93, 0xA5, 0xFA, 0x51, 0xBB, 0xE4,
    0xCB, 0xBA, 0xEF, 0xE7, 0xB7, 0x5B, 0x25, 0xAB, 0x67, 0x89, 0xB0, 0xA0,
    0xE2, 0xBE, 0x84, 0x66, 0xBF, 0xFE, 0x06, 0xF9, 0x21, 0x81, 0xF5, 0xF0,
    0x4E, 0x01, 0xF1, 0x6F, 0xE2, 0x39, 0x09, 0x82, 0x14, 0xF5, 0x2D, 0xC6,
    0x6A, 0xC5, 0x57, 0xF3, 0x09, 0x42, 0xA2, 0x5F, 0xC3, 0xD4, 0xA2, 0x8D,
    0x77, 0x7C, 0xD7, 0x87, 0xD5, 0xA7, 0xE1, 0x9D, 0x7B, 0x8D, 0x58, 0xC7,
    0x39, 0x2B, 0x56, 0x5E, 0xB2, 0xF6, 0xC3, 0xB0, 0x84, 0x96, 0xE3, 0x41,
    0xBD, 0x02, 0x72, 0x47, 0xE2, 0xBE, 0x23, 0xEB, 0xC6, 0xE8, 0x47, 0x9C,
    0x32, 0x87, 0x72, 0x1D, 0x2F, 0xDB, 0x6C, 0x95, 0xEF, 0x63, 0x3C, 0xC3,
    0x8F, 0x82, 0x50, 0x8A, 0xD5, 0xFD, 0xBC, 0x68, 0x20, 0x6C, 0x69, 0xA2,
    0x2A, 0x75, 0xDC, 0x46, 0xC8, 0x55, 0x3F, 0x71, 0xF2, 0xEA, 0x6E, 0xF6,
    0x7F, 0xA5, 0x8D, 0xBD, 0xB6, 0x61, 0x42, 0x10, 0x8B, 0x86, 0x24, 0xB4,
    0x72, 0xAF, 0xB3, 0x90, 0x3E, 0xA4, 0xE8, 0xC7, 0x03, 0x32, 0x72, 0xF4,
    0x88, 0xDA, 0x52, 0xAE, 0xC7, 0xC9, 0xB1, 0x2A, 0x09, 0xC7, 0x4B, 0x85,
    0xEA, 0xD7, 0x84, 0x2F, 0x8D, 0x6B, 0xC8, 0xF9, 0x3D, 0x8B, 0xBA, 0x44,
    0x44, 0xDB, 0x13, 0x12, 0x93, 0xA8, 0xCF, 0xD4, 0xF6, 0x38, 0xDD, 0xD6,
    0xC5, 0x62, 0x10, 0x69, 0xBD, 0xEE, 0x8B, 0x0A, 0x78, 0x34, 0xDC, 0x1E,
    0xC2, 0x26, 0x03, 0xE2, 0x8D, 0x71, 0xB3, 0x84, 0x8A, 0x0D, 0x37, 0x7A,
    0xDD, 0xB9, 0x0A, 0xE6, 0x0A, 0x02, 0xDB, 0xBC, 0xD6, 0x2E, 0x8C, 0xC1,
    0x1D, 0x5B, 0xB4, 0x4F, 0x3B, 0x29, 0x08, 0x15, 0x3F, 0xE0, 0xE9, 0x29,
    0x52, 0x6A, 0xE8, 0xBD, 0x7C, 0x77, 0x9E, 0xB1, 0x0C, 0x4D, 0x0E, 0xCD,
    0x99, 0x59, 0x01, 0x04, 0xBD, 0x96, 0x18, 0x41, 0xC6, 0xE9, 0x46, 0x23,
    0xBB, 0xF6, 0x4C, 0xBA, 0x03, 0xDB, 0x04, 0xD5, 0x23, 0xEA, 0xCF, 0xCD,
    0x4B, 0x76, 0x29, 0xF3, 0x03, 0xEB, 0x90, 0xDB, 0x31, 0xA4, 0xBB, 0xA3,
    0x66, 0x06, 0x44, 0x9A, 0x31, 0xE9, 0xF1, 0x2E, 0x9F, 0xFD, 0xB6, 0x12,
    0x63, 0x47, 0xE7, 0xCF, 0xEE, 0x4A, 0xA6, 0x7F, 0x79, 0xDB, 0xE7, 0xD8,
    0xA9, 0x27, 0xC3, 0x19, 0xA3, 0x3B, 0xCA, 0xAF, 0x82, 0xF3, 0x18, 0x26,
    0x2E, 0x9D, 0xBE, 0x04, 0x3B, 0xE2, 0x50, 0xC1, 0x0F, 0xBC, 0xD3, 0xB8,
    0x53, 0x2F, 0xE0, 0x5B, 0xA0, 0xA9, 0x7B, 0x6C, 0xFB, 0x23, 0xC3, 0x26,
    0x41, 0xA6, 0x75, 0x35, 0x87, 0xD2, 0xB3, 0x5E, 0x20, 0xA9, 0xEF, 0x68,
    0x86, 0x61, 0xB0, 0x53, 0xEE, 0xE7, 0x13, 0xA8, 0xA1, 0xE3, 0x52, 0x97,
    0x91, 0x24, 0x75, 0x16, 0x39, 0xC4, 0x3B, 0x58, 0x43, 0xCA, 0x96, 0xA6,
    0x85, 0x1A, 0x03, 0x39, 0x46, 0xAE, 0x6E, 0x4A, 0x1E, 0xE2, 0xC2, 0xBF,
    0x35, 0x4D, 0xCF, 0x26, 0x99, 0x98, 0x9D, 0xFC, 0xCB, 0xBD, 0x65, 0xAD,
    0x3C, 0x1E, 0x5B, 0x22, 0x41, 0x94, 0x6B, 0x40, 0x1B, 0xF0, 0xF7, 0x24,
    0x35, 0x74, 0xF1, 0x5C, 0xDB, 0x32, 0xBC, 0x66, 0x11, 0xDA, 0x8A, 0x25,
    0x2B, 0xFC, 0x0D, 0xA1, 0x17, 0xEA, 0x43, 0x51, 0xD6, 0xC0, 0x90, 0x04,
    0xDE, 0x26, 0xE5, 0x1C, 0x76, 0xED, 0x4F, 0x53, 0x4D, 0x3C, 0xF9, 0x89,
    0xDA, 0x0E, 0x0D, 0x95, 0x41, 0x5C, 0x0A, 0xF0, 0x79, 0x2D, 0xE3, 0xEE,
    0xE1, 0x6B, 0x3B, 0x5C, 0x56, 0xDD, 0x4E, 0xC6, 0x76, 0x7A, 0x0F, 0xA3,
    0xFF, 0x96, 0xF7, 0xB3, 0xBB, 0x3D, 0xC0, 0x1E, 0x29, 0x6F, 0x85, 0x96,
    0x0D, 0x5F, 0xE5, 0x8B, 0x2A, 0x05, 0x78, 0x92, 0xF4, 0x3E, 0xDC, 0x9C,
    0xC1, 0x86, 0x12, 0xB8, 0x64, 0x3D, 0xE6, 0x9F, 0x81, 0x74, 0x4E, 0xE6,
    0xA2, 0x21, 0x4A, 0xC3, 0xB4, 0x25, 0x7F, 0x4C, 0x43, 0xA3, 0x47, 0xE7,
    0x46, 0x32, 0x58, 0x89, 0x21, 0x37, 0x0C, 0x3E, 0x9E, 0xBA, 0xCD, 0x60,
    0x9C, 0x88, 0xC3, 0x24, 0x0C, 0x7B, 0xD8, 0x9D, 0xC4, 0xB9, 0x17, 0xA0,
    0x5B, 0x73, 0xE1, 0x0F, 0xD2, 0xC9, 0xC6, 0x7E, 0x48, 0xD4, 0xAB, 0x7D,
    0x50, 0xC7, 0xBF, 0xA2, 0x13, 0x1C, 0xF2, 0x12, 0x11, 0x67, 0x48, 0xA0,
    0x8C, 0x1D, 0x83, 0xAC, 0x39, 0x35, 0xC2, 0xE6, 0xE2, 0xFC, 0xAB, 0xCF,
    0xE1, 0x62, 0x6D, 0xA7, 0xFE, 0x7A, 0x51, 0xF2, 0x66, 0xBB, 0x23, 0xB5,
    0x13, 0x9D, 0xE3, 0x29, 0xD6, 0x93, 0x64, 0x28, 0x1A, 0xB9, 0x5D, 0x2E,
    0x0D, 0xB3, 0x1A, 0x38, 0x0C, 0x4A, 0x64, 0xAA, 0x1D, 0xCC, 0x08, 0x26,
    0x9C, 0x85, 0xCA, 0xEB, 0xF4, 0xDA, 0x2F, 0xB5, 0xBD, 0xCB, 0xE6, 0x26,
    0xED, 0x48, 0x0A, 0x4B, 0xCB, 0xC2, 0x5F, 0xAE, 0x2E, 0x8D, 0x0F, 0xA6,
    0xAA, 0xA2, 0x1B, 0x49, 0xAE, 0x1D, 0xB7, 0x45, 0x29, 0xF8, 0x18, 0x37,
    0xE2, 0xCA, 0x00, 0xA8, 0x61, 0xAF, 0xDA, 0x8D, 0x13, 0x9C, 0xD0, 0x21,
    0xCC, 0x22, 0x75, 0x62, 0x01, 0x58, 0x13, 0x9F, 0xA2, 0xB9, 0xE8, 0x4E,
    0xD9, 0x1A, 0xA4, 0x7B, 0x60, 0x7C, 0xF2, 0x08, 0x0A, 0xA7, 0xAB, 0x18,
    0x7D, 0xEF, 0xE4, 0x81, 0xED, 0xAF, 0x71, 0x7B, 0x62, 0x85, 0x81, 0xE1,
    0xAC, 0x8C, 0xB8, 0x86, 0x24, 0xB3, 0x7A, 0x6A, 0xB3, 0xC3, 0x5B, 0x25,
    0x34, 0x32, 0xDE, 0xC1, 0x76, 0xA2, 0x6E, 0xE6, 0xBD, 0xCC, 0x64, 0xA2,
    0xF3, 0xC4, 0x58, 0xC4, 0x0D, 0x84, 0x25, 0x07, 0x26, 0x92, 0xF8, 0x1F,
    0x4E, 0x4C, 0xBA, 0xC5, 0x1D, 0x42, 0x34, 0x2A, 0x5B, 0x71, 0x0A, 0x48,
    0xAA, 0x5C, 0xCF, 0xB9, 0x51, 0x81, 0xAE, 0xE6, 0x2C, 0x42, 0xFD, 0xF5,
    0x7B, 0x37, 0x96, 0x88, 0xD7, 0x21, 0xD0, 0x0C, 0x46, 0x36, 0x32, 0xAD,
    0xC9, 0xDA, 0xD2, 0x94, 0xF1, 0x6D, 0xAC, 0x10, 0xA7, 0x6C, 0xA9, 0xD7,
    0xFA, 0x55, 0x4F, 0x3E, 0xA6, 0xC8, 0x9B, 0x84, 0x5C, 0xF9, 0x87, 0x57,
    0xD3, 0x28, 0x53, 0x8C, 0xDC, 0x2E, 0x90, 0x03, 0xEB, 0x02, 0xEF, 0x37,
    0xC1, 0xD9, 0x59, 0xA6, 0x3F, 0x06, 0xEF, 0xE8, 0xAE, 0xC9, 0x7E, 0x96,
    0x0D, 0x70, 0xC2, 0x1D, 0x7B, 0xA0, 0xA9, 0xE1, 0xD0, 0x35, 0xD7, 0x49,
    0x72, 0xDD, 0xBF, 0x58, 0x2C, 0xB2, 0xF2, 0xA4, 0x69, 0xDC, 0xAB, 0x2C,
    0x30, 0xC5, 0xCE, 0xDA, 0xF9, 0xF3, 0x6C, 0xDE, 0xFC, 0xA0, 0x32, 0x33,
    0xCD, 0x74, 0x33, 0xF1, 0xE8, 0xA1, 0x0F, 0x11, 0x0A, 0xD9, 0x08, 0xF4,
    0xA2, 0x93, 0x92, 0x28, 0x29, 0x29, 0x62, 0xEE, 0xD8, 0x37, 0x8F, 0x0F,
    0xAA, 0xBD, 0xFB, 0x0D, 0xDD, 0xFF, 0x45, 0x8E, 0x98, 0xDC, 0x9F, 0x72,
    0x89, 0x95, 0x25, 0xF9, 0x86, 0x30, 0x88, 0xAC, 0x74, 0x1F, 0x81, 0x52,
    0xFA, 0x99, 0xE2, 0x69, 0x8E, 0xD5, 0x10, 0x48, 0x10, 0x53, 0xDE, 0xF8,
    0xD3, 0x8D, 0x05, 0xA2, 0x1F, 0x32, 0xDC, 0x9C, 0xAF, 0xE2, 0x58, 0x78,
    0x8B, 0xCD, 0xD7, 0xCC, 0x08, 0xB9, 0x59, 0x05, 0x37, 0x4A, 0xE5, 0x31,
    0x10, 0x88, 0xDD, 0x35, 0xAB, 0xDE, 0xF4, 0x95, 0x4A, 0xE6, 0x4F, 0x6F,
    0x64, 0x2D, 0xA6, 0x49, 0x45, 0x38, 0xDD, 0x32, 0x76, 0x13, 0x5A, 0x68,
    0x09, 0x47, 0xCC, 0xE5, 0x30, 0xF6, 0x14, 0x08, 0x39, 0x41, 0xDA, 0xD6,
    0x24, 0xFF, 0x0F, 0xD6, 0xD2, 0x3F, 0xBD, 0x9C, 0x88, 0x0E, 0x5E, 0x0F,
    0x35, 0x44, 0x20, 0xAA, 0x2D, 0x37, 0xB9, 0x6B, 0x8B, 0xB3, 0x39, 0xE5,
    0xEF, 0xA0, 0x88, 0x36, 0xB8, 0x33, 0x9D, 0xB4, 0x9C, 0xDB, 0x59, 0xA5,
    0x25, 0xC8, 0x9C, 0x67, 0x44, 0x18, 0xFA, 0x1A, 0xA2, 0xD5, 0x6C, 0x99,
    0x9C, 0x33, 0xD1, 0xB8, 0x28, 0x57, 0xD1, 0x7F, 0x85, 0x44, 0xAB, 0x68,
    0x79, 0xF7, 0x98, 0x64, 0xCB, 0x81, 0x16, 0xE9, 0x3C, 0x34, 0x18, 0x3C,
    0xF3, 0x47, 0x26, 0x52, 0xEF, 0x33, 0x81, 0x10, 0xA7, 0xBC, 0x30, 0x86,
    0xA6, 0xC1, 0xCD, 0xC5, 0x27, 0xDA, 0x70, 0x54, 0x47, 0x1B, 0x31, 0xFE,
    0x5B, 0x82, 0xB4, 0x5E, 0x9E, 0x71, 0x1A, 0x38, 0xDC, 0x00, 0x41, 0x27,
    0x2D, 0xDF, 0xA8, 0x99, 0x4B, 0x9F, 0xE8, 0x82, 0xBA, 0xDC, 0x7A, 0xC6,
    0x2E, 0x42, 0x3C, 0xD7, 0x5B, 0xA4, 0x3A, 0xEA, 0xAD, 0x34, 0x51, 0x63,
    0x51, 0xB8, 0x98, 0x31, 0x81, 0xBF, 0xF5, 0xE3, 0x50, 0x8C, 0xA9, 0x17,
    0xCF, 0x27, 0xDF, 0x84, 0x74, 0x00, 0x25, 0x45, 0xE5, 0xCE, 0xB9, 0x03,
    0x70, 0x44, 0xC4, 0x98, 0xE1, 0x6A, 0x37, 0x97, 0xF1, 0xDE, 0xD7, 0x73,
    0x71, 0x7D, 0x91, 0xB5, 0xB8, 0xF3, 0x89, 0x0F, 0x5C, 0x6A, 0x4B, 0x37,
    0x3F, 0x50, 0xA8, 0x76, 0x4C, 0xBB, 0xED, 0x51, 0x24, 0x08, 0x42, 0xD7,
    0xD0, 0xC8, 0x84, 0x91, 0x2D, 0x46, 0xF8, 0x15, 0x6F, 0x8E, 0xDF, 0xF5,
    0xAF, 0xA1, 0xEE, 0x43, 0x25, 0x11, 0x8E, 0x42, 0x0B, 0x87, 0x75, 0xE8,
    0x00, 0x57, 0xCD, 0x9F, 0x98, 0x70, 0x77, 0xAC, 0x71, 0x9E, 0x9A, 0xA7,
    0x42, 0x28, 0xC2, 0xAB, 0xD9, 0x19, 0xE7, 0x7E, 0xD8, 0x5E, 0x9D, 0x64,
    0x5F, 0x47, 0x10, 0xA0, 0xD7, 0xAC, 0x3B, 0x21, 0x5D, 0xF1, 0x6B, 0x75,
    0x0C, 0xE2, 0xC3, 0x2F, 0x96, 0x7A, 0xBC, 0x01, 0x34, 0xDC, 0x9E, 0xC5,
    0x00, 0xE2, 0x3C, 0xD4, 0xA9, 0x6D, 0x88, 0xCC, 0xFF, 0xF3, 0x13, 0x68,
    0x07, 0xF7, 0x0E, 0x39, 0xE7, 0x37, 0x64, 0xE8, 0x16, 0xDD, 0xDB, 0x6D,
    0xF0, 0x47, 0xCA, 0x49, 0xBE, 0xE2, 0x6E, 0x96, 0x83, 0xF2, 0x7D, 0xCF,
    0x0B, 0x06, 0xE9, 0x16, 0x1F, 0xAD, 0x2C, 0xEF, 0xA5, 0xB3, 0x3C, 0xA9,
    0xEB, 0x23, 0x01, 0x1E, 0xA4, 0xE7, 0x96, 0xFD, 0x0D, 0x2E, 0x76, 0x48,
    0xC4, 0xEA, 0xFF, 0x25, 0xA3, 0x8A, 0x89, 0x0E, 0x52, 0x47, 0x62, 0x75,
    0xFC, 0xCD, 0xB8, 0x6B, 0x3E, 0xEC, 0x89, 0xED, 0x02, 0x51, 0xC6, 0x58,
    0xAF, 0xF2, 0x3E, 0x7A, 0x9F, 0xEA, 0x81, 0x0C, 0xC1, 0x61, 0xB9, 0x26,
    0x5C, 0xC8, 0xE1, 0xB0, 0xA7, 0x7A, 0x9D, 0xCD, 0x28, 0x8F, 0x05, 0xD1,
    0x61, 0x3E, 0x3B, 0x10, 0xFE, 0xD0, 0xF1, 0x84, 0x35, 0x14, 0xC2, 0x74,
    0xC7, 0xEC, 0x92, 0x12, 0x2F, 0x9A, 0xFA, 0x4D, 0xC8, 0x8C, 0xE8, 0xF4,
    0xA7, 0xED, 0x7C, 0xA8, 0xC9, 0xD3, 0x78, 0x0F, 0x2A, 0x85, 0xB6, 0x3B,
    0x39, 0x9A, 0x33, 0xE9, 0x4B, 0xEC, 0xEC, 0x2C, 0xE6, 0x95, 0xE1, 0x02,
    0xF9, 0x9E, 0xC7, 0x1B, 0xBD, 0x52, 0x45, 0x74, 0x03, 0x8D, 0x08, 0xF3,
    0x88, 0x5A, 0x8B, 0x2C, 0x28, 0x3C, 0x21, 0x81, 0x09, 0x55, 0x37, 0xAF,
    0xD3, 0x43, 0xDD, 0x4D, 0xB2, 0x0F, 0x23, 0x39, 0xFC, 0xA1, 0x2E, 0x64,
    0x75, 0x6A, 0x6A, 0xE6, 0x75, 0x29, 0x49, 0x91, 0x69, 0xD5, 0x17, 0x74,
    0x04, 0x93, 0x1E, 0x2D, 0xFF, 0x0E, 0x3A, 0x3D, 0x9A, 0x55, 0xB5, 0xCA,
    0xFE, 0xC6, 0x15, 0xDA, 0xAB, 0xEC, 0xE4, 0x57, 0x26, 0x4A, 0x16, 0x01,
    0xAA, 0x44, 0xD9, 0x1D, 0xB6, 0x59, 0x0C, 0x07, 0xF7, 0xB4, 0x63, 0x03,
    0xF4, 0xAE, 0x81, 0xDF, 0x61, 0xE8, 0xDA, 0x43, 0xBF, 0xEA, 0x42, 0xB0,
    0xAA, 0xAA, 0xF2, 0x23, 0xC4, 0xBA, 0xFA, 0xC6, 0x63, 0x33, 0xF0, 0xDE,
    0x3D, 0xCE, 0xC6, 0x23, 0xD5, 0x81, 0xCE, 0x9B, 0xB2, 0xEB, 0x74, 0xF6,
    0x5D, 0xD3, 0xFF, 0x01, 0x3A, 0x05, 0xE3, 0xDD, 0x4A, 0x74, 0x22, 0xF7,
    0xB1, 0x56, 0x31, 0x30, 0x12, 0x0F, 0xA3, 0xD8, 0x66, 0x48, 0xE9, 0x5B,
    0xB5, 0x72, 0x3E, 0x40, 0xF3, 0x59, 0xDA, 0x5C, 0x8E, 0x2C, 0x77, 0x96,
    0xF0, 0x43, 0x8A, 0xB8, 0xBD, 0xC2, 0xCB, 0x61, 0x5F, 0xDA, 0xD0, 0xC9,
    0xC1, 0x32, 0x7C, 0x1B, 0xCE, 0xCE, 0xDE, 0x41, 0x70, 0x7D, 0x6F, 0x56,
    0x98, 0x36, 0x88, 0x1B, 0x11, 0xF5, 0xC8, 0x13, 0xB9, 0xB8, 0xCF, 0x7B,
    0xB1, 0x6E, 0x39, 0xEF, 0x32, 0xE5, 0x12, 0x7F, 0xA8, 0xB7, 0x7B, 0x02,
    0x08, 0x82, 0x1F, 0xDC, 0x32, 0x15, 0x53, 0x59, 0x5F, 0x92, 0xCE, 0x97,
    0x68, 0x06, 0x15, 0x84, 0xE0, 0x64, 0xDC, 0x7D, 0x2C, 0xFF, 0xE5, 0xFA,
    0x5C, 0x4D, 0x1E, 0xA9, 0x1D, 0x02, 0x88, 0x1F, 0x5A, 0xAF, 0xAD, 0xB2,
    0x10, 0xFC, 0x49, 0x4C, 0xF8, 0x72, 0x12, 0xA5, 0xDC, 0xEA, 0x93, 0x68,
    0xD6, 0xF2, 0x15, 0x4B, 0x65, 0xB5, 0x35, 0x13, 0x65, 0x8F, 0x33, 0x0A,
    0x0D, 0xD7, 0xB6, 0x7F, 0x1E, 0xBB, 0x19, 0xB8, 0x37, 0x90, 0xB1, 0x1D,
    0x87, 0x28, 0xDB, 0x91, 0x5D, 0x4A, 0x4B, 0x49, 0x6C, 0xE8, 0x78, 0xF3,
    0x2B, 0x66, 0xCF, 0xCB, 0xE7, 0x97, 0x5A, 0x49, 0xFD, 0x28, 0x93, 0x20,
    0x61, 0xB7, 0x95, 0xF3, 0x5F, 0x4B, 0x19, 0x81, 0x7D, 0x4B, 0xF1, 0xBE,
    0x12, 0x24, 0x6B, 0x99, 0x83, 0x44, 0xEE, 0xFB, 0xE8, 0x75, 0xE8, 0xD6,
    0xFE, 0xCF, 0x45, 0xA2, 0xF8, 0x7C, 0xE4, 0x47, 0xE6, 0x8D, 0x5B, 0x50,
    0x2B, 0x53, 0x1F, 0x63, 0x39, 0xAB, 0x2C, 0xB8, 0x3E, 0x6F, 0xA1, 0xD5,
    0xD0, 0x9F, 0x1E, 0xE7, 0x1F, 0x37, 0x20, 0x56, 0x10, 0x1F, 0xF5, 0x62,
    0x89, 0x45, 0xFF, 0x6B, 0x2E, 0xAE, 0x57, 0x4A, 0x19, 0xAB, 0x42, 0x94,
    0x0F, 0x2E, 0xA6, 0xA0, 0x33, 0x8D, 0x58, 0x26, 0x26, 0x16, 0x20, 0x6B,
    0xC7, 0xF2, 0x69, 0xF1, 0xE7, 0x78, 0xBA, 0x9F, 0xB1, 0x51, 0xD4, 0xD1,
    0xF0, 0x6D, 0x4C, 0x67, 0xCE, 0x54, 0x2F, 0xE5, 0x1A, 0x01, 0xC4, 0x8F,
    0xC6, 0xD3, 0x21, 0x57, 0xA4, 0xB6, 0xBF, 0x13, 0xB6, 0xD7, 0x64, 0x5E,
    0x81, 0x01, 0xCF, 0x69, 0xFC, 0xE1, 0x28, 0xC0, 0xB6, 0x62, 0x83, 0x93,
    0xB2, 0xA5, 0x39, 0x7D, 0x1E, 0x55, 0x2C, 0x5E, 0x4B, 0x7F, 0x49, 0xF9,
    0xF0, 0x26, 0x9F, 0x4D, 0x1D, 0x96, 0x07, 0xFC, 0x67, 0x7F, 0xAD, 0xE1,
    0x61, 0x32, 0x02, 0xC2, 0xF7, 0xF9, 0x39, 0x0D, 0xBF, 0x94, 0x9D, 0x9D,
    0x4A, 0x11, 0x75, 0x0C, 0x40, 0x34, 0x5F, 0x4E, 0x97, 0x7E, 0xD6, 0xDB,
    0x23, 0xA8, 0xBE, 0xC9, 0x92, 0x45, 0x12, 0xAD, 0x63, 0xC8, 0x8E, 0x90,
    0x62, 0xB9, 0xC1, 0x49, 0x61, 0x3D, 0x50, 0xC3, 0x85, 0x4C, 0xBB, 0x05,
    0x44, 0x03, 0xC7, 0x86, 0x81, 0x8C, 0x8F, 0x77, 0x5E, 0x14, 0x9A, 0xF1,
    0xF3, 0xCC, 0xAE, 0x10, 0x09, 0x9D, 0xAD, 0x9A, 0xED, 0xFA, 0xFF, 0x9D,
    0xD5, 0x0E, 0x91, 0x54, 0x00, 0x05, 0x8B, 0x5C, 0x5D, 0x88, 0x19, 0x73,
    0x8E, 0x71, 0x27, 0xD8, 0x7C, 0xE7, 0xF7, 0x97, 0xBC, 0xD2, 0xBB, 0x00,
    0xA9, 0x7E, 0x36, 0x38, 0x01, 0x22, 0x95, 0xB7, 0x94, 0x14, 0x02, 0xA9,
    0x52, 0xA6, 0xFB, 0xE7, 0xFA, 0x2D, 0xA8, 0xAC, 0x22, 0xB2, 0x06, 0x57,
    0x14, 0x91, 0x34, 0x84, 0x1B, 0x9F, 0x61, 0x94, 0x48, 0xC0, 0xBD, 0x8E,
    0xC5, 0x37, 0x7C, 0xB8, 0x25, 0x29, 0xC8, 0x73, 0x29, 0xDD, 0x6C, 0xBA,
    0x9A, 0x7F, 0x17, 0x5E, 0xDA, 0x23, 0xC8, 0xC1, 0x3D, 0x23, 0xD9, 0xB1,
    0xDB, 0x39, 0x47, 0x1F, 0x73, 0x0E, 0x05, 0x51, 0x70, 0x7D, 0x44, 0xFC,
    0x3A, 0x20, 0xB8, 0x29, 0x2B, 0x88, 0x1A, 0x4C, 0xB8, 0x2F, 0x5D, 0xC0,
    0xA8, 0x7E, 0x2D, 0x60, 0xE2, 0xB6, 0xA0, 0x5C, 0x72, 0xC9, 0x49, 0x5E,
    0xEC, 0xB8, 0x5D, 0xCB, 0x1C, 0x38, 0x5D, 0xF8, 0x35, 0xC6, 0xE4, 0x9F,
    0xF1, 0xF3, 0xC0, 0x06, 0xAB, 0x8F, 0x62, 0x8D, 0x8D, 0xA5, 0xF6, 0x39,
    0x16, 0x8A, 0x5F, 0x37, 0x39, 0xF2, 0x41, 0x2A, 0xEC, 0x27, 0x51, 0xDE,
    0x2A, 0x47, 0x98, 0x4C, 0x64, 0x63, 0xB3, 0xD0, 0xAD, 0xAB, 0xA3, 0x9F,
    0xBA, 0x20, 0xEC, 0xA2, 0x7D, 0xED, 0xA9, 0x75, 0xFC, 0xC0, 0x6A, 0xBC,
    0xD3, 0xFD, 0x74, 0xD5, 0xA7, 0x96, 0x11, 0x66, 0x4F, 0x38, 0x78, 0xB6,
    0x1D, 0x4C, 0x1A, 0x56, 0x48, 0x88, 0x69, 0xCE, 0xD7, 0x82, 0xEB, 0xED,
    0xF0, 0x20, 0xAE, 0x42, 0x91, 0xE9, 0x9F, 0x3E, 0x93, 0xEB, 0xD7, 0xB2,
    0x25, 0x59, 0x7A, 0x15, 0x92, 0x14, 0xC5, 0x61, 0xDF, 0xF1, 0x5A, 0x4E,
    0x63, 0x23, 0x41, 0x40, 0xED, 0xAA, 0x29, 0xB5, 0x78, 0x33, 0x13, 0x37,
    0xED, 0x48, 0x10, 0xD0, 0x69, 0x3A, 0x4E, 0xD9, 0x57, 0x3F, 0xD8, 0x0F,
    0x43, 0x0C, 0xF1, 0x96, 0xBB, 0x52, 0x53, 0x03, 0x90, 0x95, 0xE8, 0x3F,
    0x2F, 0x22, 0x68, 0x3F, 0xF8, 0x02, 0x89, 0xD1, 0xCC, 0x28, 0x34, 0x8A,
    0xC6, 0x54, 0x7D, 0xD0, 0x24, 0x2D, 0x4B, 0xAC, 0xC7, 0xAF, 0xB2, 0x5B,
    0xFA, 0x7E, 0xBF, 0xE3, 0xD3, 0xC2, 0x0D, 0x0F, 0x09, 0x19, 0x2F, 0x4C,
    0x6E, 0xED, 0x0C, 0x1F, 0x39, 0xE4, 0x48, 0x2A, 0x3D, 0xD7, 0x63, 0xCC,
    0xD2, 0x71, 0xCD, 0xF5, 0x19, 0xFF, 0x16, 0x1D, 0xC2, 0xD7, 0x76, 0x11,
    0x7D, 0xB8, 0x09, 0x0C, 0x03, 0x15, 0x1A, 0xA7, 0x2B, 0x38, 0xAC, 0xC5,
    0x9B, 0x27, 0x1B, 0x0C, 0xC3, 0xAC, 0xED, 0x2D, 0x59, 0x90, 0xEF, 0x6E,
    0xF2, 0x9F, 0xDC, 0x50, 0x41, 0xD7, 0x7D, 0xAA, 0x0E, 0xFE, 0x6E, 0x29,
    0x87, 0xD6, 0x0D, 0x0C, 0x61, 0x23, 0x09, 0x44, 0x6A, 0x10, 0x29, 0x0B,
    0xFF, 0xF3, 0xF7, 0x7C, 0x6C, 0xFD, 0x0F, 0xDF, 0xD4, 0xF2, 0x0F, 0xA9,
    0x10, 0x09, 0xF8, 0x85, 0x5A, 0x60, 0x86, 0x4C, 0xF0, 0xAD, 0x98, 0x88,
    0x6E, 0xE8, 0x8C, 0xEC, 0x9A, 0x8F, 0x3D, 0x03, 0xC4, 0x91, 0x4B, 0xDD,
    0x6C, 0x9F, 0x8E, 0x65, 0x6E, 0x8D, 0xC2, 0xC2, 0x96, 0x1C, 0x5F, 0xB7,
    0xD9, 0x79, 0x71, 0x88, 0xD7, 0x6B, 0xDB, 0xC4, 0xD4, 0x96, 0xF4, 0xFE,
    0x78, 0xFA, 0xBD, 0x33, 0xD1, 0xEC, 0xF0, 0x7D, 0xCB, 0x2C, 0x99, 0x1A,
    0xDB, 0xCB, 0xE1, 0x1D, 0x49, 0x62, 0x51, 0xE8, 0x7F, 0x46, 0xC1, 0x49,
    0x30, 0xD4, 0xF5, 0xC4, 0x5F, 0x0A, 0x1F, 0x9A, 0xAA, 0x64, 0xD9, 0x2A,
    0xE8, 0xC0, 0xB5, 0x40, 0x4B, 0x6B, 0x9A, 0x4F, 0x52, 0x4E, 0xB8, 0x6F,
    0x38, 0x53, 0x0F, 0xCD, 0x6D, 0xC8, 0x38, 0xE7, 0xA9, 0x7D, 0x68, 0xD5,
    0xAA, 0xB1, 0xE0, 0x37, 0xB8, 0xA3, 0x70, 0x03, 0x97, 0xFA, 0x90, 0xFE,
    0x09, 0xF0, 0xF6, 0x50, 0xC6, 0xF7, 0x8F, 0xA6, 0xC6, 0x65, 0xA2, 0xBC,
    0x78, 0x20, 0x79, 0xDA, 0xEF, 0x96, 0xA4, 0xD9, 0x64, 0x37, 0xB6, 0x1B,
    0xE8, 0xF6, 0xE1, 0xE9, 0xEF, 0xE6, 0x75, 0xE9, 0x84, 0xD5, 0x37, 0x63,
    0x23, 0xA2, 0x4A, 0x41, 0xB6, 0xE1, 0x8A, 0xEC, 0xFA, 0xC6, 0x22, 0x48,
    0x66, 0x01, 0x58, 0x8A, 0x7D, 0x7E, 0x30, 0x63, 0x21, 0xA3, 0xEB, 0x85,
    0x1D, 0x89, 0x38, 0xDE, 0x02, 0x1E, 0x6F, 0x51, 0x6D, 0xD7, 0x02, 0x37,
    0xD5, 0xA2, 0xAD, 0x2A, 0x2E, 0x16, 0xBD, 0x8E, 0x25, 0x85, 0xDB, 0x73,
    0xB1, 0xAD, 0x8E, 0x3F, 0xA5, 0x3C, 0x38, 0x61, 0xC9, 0xDE, 0x10, 0x3D,
    0x2A, 0x6E, 0x26, 0x2E, 0x73, 0x97, 0x3B, 0xFB, 0x8B, 0xBD, 0xF0, 0x0D,
    0x40, 0x1A, 0xEE, 0xAE, 0xBA, 0xDC, 0xC2, 0x93, 0xE1, 0x60, 0x56, 0x54,
    0x7F, 0x34, 0x10, 0xBE, 0x21, 0x73, 0x53, 0x2D, 0xB1, 0x65, 0xCE, 0xDB,
    0x98, 0x78, 0x7B, 0x3A, 0xEE, 0x52, 0xD9, 0x44, 0x71, 0x2B, 0xE8, 0x16,
    0xBF, 0x4A, 0xBC, 0x09, 0x6A, 0x95, 0x83, 0xDF, 0xEF, 0x3C, 0x1D, 0x13,
    0xF1, 0x54, 0x14, 0xC5, 0x62, 0xC1, 0x68, 0xC7, 0xCE, 0x71, 0x2A, 0x47,
    0xE2, 0x78, 0xCB, 0x8D, 0xC0, 0xB6, 0x87, 0x95, 0xDC, 0x7D, 0x10, 0xE6,
    0x5F, 0x3B, 0xF9, 0x77, 0x7B, 0x63, 0x10, 0xBD, 0x3C, 0x32, 0x0E, 0xCB,
    0x49, 0xD6, 0xAE, 0x20, 0x12, 0x7E, 0xE1, 0x6B, 0x57, 0xCE, 0x71, 0x41,
    0xA3, 0xB2, 0x6D, 0x97, 0x61, 0xD5, 0x0D, 0x17, 0x78, 0x8E, 0xEE, 0xB8,
    0x34, 0xB4, 0x6F, 0x62, 0x26, 0x15, 0x11, 0x77, 0xE8, 0x01, 0x3D, 0xAD,
    0xE8, 0xEB, 0x3C, 0xB5, 0xE2, 0xF8, 0x2B, 0x57, 0xBE, 0x3F, 0x57, 0x79,
    0x27, 0x97, 0xB3, 0x5B, 0xF0, 0x6A, 0x91, 0x22, 0x75, 0x63, 0xB2, 0x78,
    0x57, 0x76, 0x9F, 0xB0, 0x89, 0x62, 0xAF, 0x4B, 0xA9, 0x3B, 0x87, 0x0C,
    0x17, 0xD5, 0xDD, 0x3D, 0xF5, 0x14, 0x19, 0x27, 0x0E, 0x98, 0xD6, 0x3E,
    0x33, 0x12, 0x42, 0x5F, 0xF7, 0x11, 0x17, 0x89, 0x91, 0x21, 0xAB, 0x0C,
    0xCF, 0x57, 0xCF, 0x21, 0x3C, 0x24, 0xE1, 0x5A, 0x5A, 0x5A, 0x1B, 0x7F,
    0x92, 0x92, 0x3B, 0x8C, 0x4A, 0xD1, 0x03, 0xD8, 0x13, 0x38, 0xEE, 0xF0,
    0xEF, 0xD6, 0x9A, 0x29, 0x30, 0x1C, 0x26, 0xAF, 0xCC, 0xCE, 0xC1, 0xBE,
    0x33, 0x37, 0xBD, 0x1A, 0xE8, 0xA7, 0x1D, 0xB8, 0x53, 0xC4, 0x5C, 0x0E,
    0xAB, 0x88, 0x52, 0x29, 0x54, 0x73, 0xE7, 0xA7, 0x78, 0xE6, 0xDB, 0xD1,
    0x15, 0x72, 0xB8, 0x22, 0x5F, 0x9E, 0x25, 0x26, 0x5D, 0xFD, 0x1C, 0x57,
    0x6B, 0x17, 0x13, 0x47, 0x3A, 0x12, 0x63, 0xFC, 0xEC, 0x31, 0x48, 0xE7,
    0xDE, 0x4E, 0xE8, 0xA6, 0x4E, 0xA2, 0xB7, 0xBD, 0xA3, 0x11, 0x71, 0xF0,
    0x97, 0xE3, 0x48, 0x4F, 0xA8, 0xFF, 0x69, 0xF1, 0x87, 0xF7, 0xB5, 0xA7,
    0x51, 0x96, 0x1D, 0x83, 0x20, 0xAA, 0xE8, 0x22, 0x04, 0x1B, 0x84, 0x87,
    0x63, 0x93, 0x7D, 0xFA, 0x7F, 0xFF, 0x45, 0x91, 0x3C, 0x3B, 0x1B, 0x26,
    0x07, 0x24, 0x4D, 0xFC, 0xEC, 0xFF, 0x49, 0x95, 0xF6, 0x49, 0x5B, 0x00,
    0xFD, 0x31, 0x97, 0x86, 0x88, 0xE9, 0x5B, 0x2F, 0xD6, 0x0A, 0x36, 0xA9,
    0xDC, 0x02, 0xBD, 0x21, 0x8E, 0x6E, 0x92, 0xDC, 0xC8, 0x94, 0x4A, 0xE9,
    0xFC, 0x39, 0x72, 0x1E, 0x8D, 0x3E, 0x40, 0x86, 0x99, 0x2A, 0x33, 0x0B,
    0x2B, 0x2F, 0x19, 0x15, 0x27, 0x51, 0xBB, 0x93, 0xC2, 0xE7, 0xCF, 0x91,
    0x3A, 0x8F, 0x7B, 0xCB, 0x02, 0xB1, 0x04, 0x40, 0x4B, 0x95, 0x5A, 0x0F,
    0x3C, 0xFE, 0x2B, 0x34, 0x08, 0xA0, 0x83, 0x76, 0xEE, 0x2D, 0x0C, 0xEF,
    0xA3, 0x57, 0xC3, 0x69, 0x02, 0x6F, 0xE8, 0xAD, 0x41, 0x53, 0x28, 0xB9,
    0x6F, 0x7F, 0x0E, 0x53, 0xC4, 0xB9, 0x2E, 0x92, 0xB7, 0x6A, 0x67, 0x29,
    0xFF, 0xA4, 0xD6, 0xE0, 0x95, 0x9C, 0xC1, 0x42, 0xD4, 0x70, 0x70, 0x32,
    0x4A, 0x5C, 0x18, 0x0E, 0x91, 0xDB, 0x4F, 0x7F, 0xD5, 0x05, 0x9A, 0xF8,
    0xC4, 0xFD, 0xB4, 0xA4, 0x7C, 0x25, 0xB6, 0xD5, 0xDC, 0x60, 0xD6, 0x06,
    0x9B, 0x0B, 0x46, 0x6B, 0x7E, 0xB4, 0x73, 0x90, 0x99, 0x53, 0x2E, 0x39,
    0x36, 0xE5, 0xCA, 0x0E, 0x01, 0xFB, 0x34, 0x0A, 0xAF, 0xDF, 0xE0, 0xE4,
    0x3E, 0x17, 0xD6, 0xF7, 0x43, 0x37, 0xC8, 0x5B, 0x79, 0x5F, 0x78, 0xFB,
    0x58, 0xA0, 0xCD, 0xF4, 0x14, 0x95, 0x22, 0x29, 0x18, 0x01, 0x08, 0x29,
    0xE7, 0x30, 0xC3, 0xF2, 0x77, 0x3A, 0xD5, 0x5E, 0x84, 0x69, 0xC8, 0x70,
    0x11, 0xE7, 0x2E, 0x29, 0x04, 0x89, 0x29, 0x99, 0xB0, 0x4F, 0x4B, 0x81,
    0x1A, 0xB4, 0x8F, 0x39, 0xFD, 0xBB, 0xFF, 0x7B, 0x91, 0xC1, 0x9E, 0x0C,
    0xBB, 0x20, 0x56, 0x74, 0x56, 0xF7, 0xC8, 0x76, 0x5E, 0x7F, 0x2E, 0xCF,
    0x14, 0x7C, 0x60, 0x4B, 0x8A, 0x32, 0x4D, 0x2A, 0x24, 0x0E, 0x60, 0xD5,
    0x7E, 0x7B, 0x2D, 0xB4, 0x82, 0x8E, 0x85, 0x69, 0xF6, 0xDA, 0xFA, 0x77,
    0x5A, 0x60, 0xFF, 0x36, 0x61, 0x05, 0x5D, 0x81, 0xE3, 0x0A, 0x6E, 0xF6,
    0x9F, 0x8A, 0x63, 0x86, 0x78, 0x9A, 0xDB, 0xA2, 0xEF, 0x73, 0x35, 0x9F,
    0x99, 0xFB, 0x57, 0x1B, 0x58, 0x27, 0x04, 0xEB, 0x1E, 0xCF, 0x79, 0xB0,
    0xE8, 0xE5, 0xE4, 0xE7, 0x6E, 0xE7, 0xDE, 0xC2, 0xF8, 0x50, 0x67, 0x1C,
    0x75, 0x2A, 0xE6, 0x4A, 0xD6, 0xDF, 0xE3, 0xB6, 0x41, 0x24, 0x63, 0x92,
    0xEA, 0xDB, 0x23, 0x2F, 0xD0, 0x22, 0x4C, 0xAC, 0x14, 0x2F, 0xEB, 0x00,
    0xBA, 0xF0, 0x4B, 0xC3, 0x56, 0xB1, 0x24, 0x97, 0x97, 0x74, 0xEB, 0x8F,
    0xFC, 0x1C, 0xBF, 0x67, 0x42, 0xF5, 0x3B, 0x1A, 0x05, 0x6D, 0x1B, 0xB8,
    0xD5, 0x99, 0x1F, 0x63, 0x7D, 0x60, 0x9F, 0x6E, 0x2B, 0xEC, 0x61, 0x11,
    0x35, 0x69, 0x4F, 0xDA, 0x57, 0x31, 0xDD, 0xA6, 0x90, 0x2D, 0x6D, 0x8A,
    0x28, 0xA4, 0x7F, 0x46, 0xE7, 0xEA, 0x65, 0xCB, 0x43, 0x89, 0x00, 0x2B,
    0xA6, 0xC6, 0x1D, 0x6E, 0xB7, 0x5E, 0x82, 0x35, 0x9D, 0x7A, 0x4F, 0x09,
    0x46, 0x76, 0xAD, 0x1F, 0x07, 0x41, 0x66, 0xEE, 0x83, 0x34, 0xF7, 0x1F,
    0x5B, 0xDC, 0x86, 0xD4, 0x76, 0xE6, 0x6D, 0xF5, 0xF7, 0x4C, 0xE2, 0xAC,
    0x8E, 0xA5, 0xB4, 0x0F, 0x93, 0x0D, 0xA0, 0x74, 0xF1, 0x7E, 0x89, 0x59,
    0xE5, 0x26, 0x3B, 0x2A, 0x67, 0xB3, 0xDF, 0xFC, 0x38, 0x3B, 0xD4, 0xE5,
    0xE1, 0xC5, 0x7B, 0x27, 0xC9, 0xB7, 0x66, 0xD7, 0x79, 0x59, 0x67, 0x1E,
    0x83, 0xFC, 0x53, 0xCC, 0x8B, 0xCC, 0x6B, 0x7A, 0xB5, 0x49, 0x5B, 0x91,
    0xF2, 0xD7, 0x26, 0x31, 0x49, 0x4B, 0x58, 0x6D, 0x0B, 0x59, 0x21, 0x1C,
    0x98, 0x22, 0x5F, 0xEC, 0xAF, 0xB9, 0x43, 0xE3, 0x19, 0xC3, 0x5E, 0x56,
    0x5E, 0x7B, 0x34, 0x02, 0x0C, 0x5F, 0xFC, 0x43, 0xA3, 0xB7, 0x04, 0x29,
    0xD2, 0x91, 0x47, 0x6C, 0x23, 0x2A, 0x82, 0x13, 0xB9, 0x13, 0xDB, 0x0F,
    0xE3, 0x63, 0xC7, 0x5E, 0x04, 0x99, 0x02, 0x46, 0xA1, 0x2B, 0x99, 0xD5,
    0x05, 0xEF, 0xB1, 0xE8, 0x94, 0x14, 0x83, 0xCF, 0x9A, 0xAB, 0x2B, 0xA9,
    0x30, 0x50, 0x01, 0x66, 0xD2, 0xFD, 0xBB, 0xAC, 0xBD, 0x9E, 0xEA, 0x72,
    0xC5, 0x81, 0xB8, 0x8E, 0xE5, 0x76, 0xED, 0xA9, 0x65, 0x85, 0xBB, 0x8D,
    0x53, 0x02, 0x8A, 0x42, 0x14, 0xA4, 0x09, 0x37, 0x8A, 0xA5, 0x5A, 0x0A,
    0x44, 0x0F, 0x7C, 0xEE, 0x56, 0x67, 0xAA, 0xE4, 0x9E, 0x28, 0x28, 0xC5,
    0x6D, 0x48, 0xF7, 0x1C, 0x7E, 0x92, 0x76, 0xA0, 0x30, 0x22, 0x5D, 0x3C,
    0xDF, 0xFA, 0xF8, 0xF7, 0x99, 0x6C, 0x57, 0x0D, 0x1A, 0x44, 0xE9, 0xB7,
    0xC5, 0x2C, 0x68, 0x91, 0xE7, 0x47, 0x0F, 0xB9, 0x9B, 0xA5, 0xF1, 0x85,
    0x93, 0xE2, 0xEB, 0x49, 0xDF, 0xDC, 0xF3, 0xE8, 0x9E, 0xFE, 0xF2, 0x94,
    0xFF, 0xCA, 0xFE, 0xDA, 0x5F, 0x81, 0x4B, 0x8C, 0xB4, 0x81, 0xEB, 0x8C,
    0x6A, 0x1D, 0xEA, 0x91, 0xDE, 0x83, 0xCE, 0xF6, 0x35, 0xCA, 0xFF, 0x14,
    0x43, 0x29, 0xDE, 0x8A, 0x5A, 0x76, 0x00, 0x0A, 0x4F, 0x64, 0xAC, 0xF8,
    0x29, 0x4D, 0xE8, 0x52, 0x87, 0x9F, 0x78, 0x3B, 0xF5, 0xB4, 0x84, 0x3D,
    0xA7, 0x8F, 0x33, 0x89, 0x00, 0xC7, 0x50, 0x7E, 0x27, 0xC1, 0x8C, 0x9F,
    0x06, 0xF2, 0x31, 0x26, 0x07, 0x35, 0x56, 0x3A, 0xCA, 0xBD, 0x00, 0xC4,
    0xCD, 0x54, 0x04, 0x90, 0x42, 0xFE, 0x3F, 0x94, 0x85, 0x99, 0x83, 0x22,
    0x83, 0x0B, 0x7F, 0x01, 0x63, 0x84, 0x4E, 0x65, 0x20, 0x21, 0x5F, 0xB9,
    0xF9, 0x07, 0x8C, 0x8E, 0x7B, 0x6B, 0xEC, 0x4D, 0xAD, 0xEB, 0x4D, 0x24,
    0x5C, 0xB1, 0x6D, 0xBB, 0xC6, 0xD1, 0xE1, 0x04, 0xCD, 0xC3, 0xBC, 0x9C,
    0xCA, 0x37, 0xDE, 0x03, 0xA6, 0x0C, 0xF6, 0xB8, 0xA4, 0x04, 0x79, 0xB7,
    0x04, 0x30, 0x26, 0x48, 0x9D, 0xFC, 0xAE, 0xF0, 0x78, 0xEA, 0xBA, 0x21,
    0x1F, 0x4C, 0x84, 0xF8, 0x05, 0xBE, 0x82, 0x11, 0x47, 0x8A, 0x5E, 0x9D,
    0xEF, 0x40, 0x1C, 0x4C, 0x98, 0x74, 0xED, 0xE5, 0xED, 0x86, 0x22, 0x67,
    0x42, 0xEC, 0xBD, 0x9D, 0xBD, 0x5F, 0x72, 0x4C, 0xB8, 0xED, 0x9B, 0x33,
    0x19, 0xB2, 0xE2, 0xB6, 0x1E, 0xFF, 0x20, 0x3D, 0x6C, 0x98, 0xCD, 0xCD,
    0xA0, 0x49, 0xF3, 0x62, 0xAA, 0xF8, 0x38, 0xDE, 0x69, 0x3F, 0xFB, 0xF5,
    0x26, 0x67, 0xE7, 0x18, 0xF5, 0xB9, 0x90, 0xD4, 0xB0, 0xCA, 0x79, 0xC5,
    0x9A, 0x8E, 0x9B, 0x6E, 0x32, 0xA4, 0xF9, 0x5A, 0x42, 0xE6, 0xD4, 0x58,
    0xD3, 0x70, 0x4D, 0x8C, 0xC2, 0xE7, 0x03, 0x59, 0xB5, 0x51, 0x88, 0x3E,
    0xA3, 0x83, 0xE1, 0xB9, 0x8A, 0x36, 0x5C, 0x77, 0x56, 0xEF, 0x7B, 0x38,
    0x96, 0x46, 0xB5, 0x6F, 0x33, 0x99, 0xB8, 0x5B, 0xC0, 0x9F, 0x76, 0x65,
    0xB8, 0xFD, 0x0E, 0x4F, 0x03, 0xCC, 0x82, 0x86, 0xAB, 0x5B, 0x62, 0xAD,
    0x65, 0x1E, 0x42, 0xE8, 0xF1, 0x04, 0xFC, 0xDF, 0x94, 0x79, 0x4C, 0x03,
    0xD0, 0x05, 0xE3, 0x3A, 0x46, 0xF3, 0x5D, 0xAE, 0xD6, 0xEA, 0xE2, 0x78,
    0x79, 0x46, 0x69, 0xC1, 0x2A, 0xC7, 0x05, 0x9E, 0xC7, 0x32, 0xCF, 0x15,
    0xFD, 0x73, 0xA7, 0x5C, 0xF3, 0x36, 0xED, 0x73, 0xA7, 0x3A, 0x2C, 0x8B,
    0x95, 0xB5, 0x0B, 0x28, 0xCE, 0xF1, 0x4E, 0xD0, 0x8C, 0xA2, 0x9D, 0x4A,
    0x99, 0x5D, 0xD6, 0xDB, 0x0E, 0x15, 0xE4, 0xBD, 0x0F, 0xD0, 0xFD, 0xD8,
    0x8E, 0x62, 0x96, 0xB4, 0x6C, 0xEF, 0x8E, 0x48, 0x57, 0xF7, 0x3B, 0xFF,
    0xF7, 0x64, 0x9E, 0xDB, 0xE5, 0xBE, 0x8D, 0xA8, 0x5C, 0xB6, 0x5D, 0xFF,
    0xA2, 0xC3, 0x0D, 0xD8, 0x93, 0x8A, 0x81, 0x26, 0xBF, 0x35, 0xB9, 0xE3,
    0xBB, 0x35, 0xE2, 0x10, 0x2F, 0x6D, 0x8A, 0xFA, 0x7D, 0x5E, 0x03, 0x7B,
    0xAA, 0xF4, 0x41, 0xDD, 0x8D, 0x9F, 0xE9, 0x86, 0x14, 0x10, 0xA6, 0x54,
    0x5A, 0xC2, 0x0E, 0xC8, 0xDB, 0x2E, 0xDD, 0x0E, 0xF1, 0xA6, 0x4D, 0x15,
    0x57, 0x09, 0x13, 0x4B, 0xB7, 0x37, 0xB3, 0x0A, 0x47, 0x61, 0xB8, 0x6F,
    0x50, 0xE1, 0xD8, 0x76, 0xC2, 0xAA, 0x1C, 0xF8, 0xB4, 0x17, 0x46, 0x82,
    0x2A, 0xEF, 0x01, 0xCA, 0x10, 0xBF, 0x62, 0x77, 0xC1, 0xB1, 0x69, 0x2D,
    0x8F, 0x3C, 0x3E, 0xE7, 0xCE, 0x94, 0x63, 0xAA, 0x17, 0x11, 0xD0, 0xD9,
    0xC5, 0x64, 0x41, 0x04, 0x9E, 0xFB, 0x4A, 0x98, 0xA4, 0xFC, 0xCA, 0xD7,
    0x4E, 0x33, 0xF0, 0x11, 0xF7, 0x86, 0xA2, 0xB1, 0xBD, 0x48, 0x7D, 0xE4,
    0x74, 0xC6, 0x2C, 0x9E, 0xD3, 0x40, 0x9C, 0xD3, 0xFD, 0x36, 0xED, 0x5A,
    0xEF, 0x2E, 0x9B, 0x6B, 0x72, 0x5A, 0xB3, 0xBC, 0x3D, 0x4E, 0x58, 0x29,
    0x16, 0xF9, 0xE0, 0x6D, 0xEA, 0x20, 0x4D, 0xC9, 0x81, 0x4A, 0x00, 0x54,
    0x15, 0xEC, 0xF4, 0xC9, 0xBA, 0xF3, 0x59, 0x7D, 0xA7, 0x11, 0xFD, 0x32,
    0x88, 0xB2, 0x7F, 0xE4, 0xDB, 0x11, 0x6D, 0x1F, 0x6B, 0xF8, 0x78, 0x8A,
    0x8B, 0xE4, 0x1C, 0x34, 0x31, 0xCF, 0xC5, 0x5D, 0xE8, 0x93, 0xD1, 0x78,
    0xAC, 0x9C, 0x08, 0xF7, 0x5E, 0x8F, 0xB3, 0x74, 0xAB, 0x8F, 0xDF, 0x24,
    0xE8, 0x89, 0xE6, 0x4E, 0xCF, 0x11, 0xDE, 0x78, 0xB3, 0xDF, 0xC5, 0x6C,
    0x31, 0x03, 0x45, 0x58, 0x55, 0xD5, 0xC0, 0x73, 0x8A, 0xD8, 0xC4, 0x2B,
    0xEC, 0xE2, 0xF5, 0x0B, 0x77, 0xCE, 0x8B, 0x5B, 0x49, 0x32, 0x61, 0xAB,
    0x37, 0xE9, 0x85, 0x09, 0x62, 0xB0, 0xC9, 0x9C, 0x92, 0xFA, 0x1E, 0x1D,
    0x7B, 0x38, 0xC2, 0x98, 0xE1, 0x0A, 0x2D, 0x46, 0x69, 0x86, 0xE5, 0xAE,
    0x39, 0x5F, 0x30, 0x4D, 0x2A, 0x0B, 0x65, 0x3C, 0x83, 0x5C, 0xD8, 0x0F,
    0x04, 0x23, 0x7F, 0x24, 0x37, 0x7D, 0x3F, 0xD5, 0x9E, 0x68, 0xBB, 0x0E,
    0x77, 0x0E, 0x63, 0xA1, 0xFD, 0x4B, 0x92, 0xE0, 0xCB, 0x56, 0x86, 0x50,
    0x58, 0x47, 0x30, 0x4A, 0xEC, 0x03, 0x5A, 0xB6, 0x1A, 0xDD, 0x7D, 0xC2,
    0x23, 0x5F, 0x95, 0x4B, 0xFE, 0x60, 0x2B, 0x91, 0xF0, 0xEF, 0xA7, 0x4C,
    0x89, 0xDA, 0x6E, 0x20, 0xF7, 0xFB, 0x5A, 0xF3, 0xC5, 0x8A, 0x8E, 0x3B,
    0x7B, 0x44, 0xBF, 0xAD, 0xBB, 0xFE, 0x2F, 0xC7, 0x79, 0xB6, 0x29, 0xC4,
    0x46, 0x44, 0x14, 0xA9, 0xB7, 0x93, 0xC7, 0x67, 0x71, 0x4A, 0x4E, 0x2F,
    0x1D, 0x23, 0x13, 0x1D, 0x9D, 0xA0, 0xD4, 0x12, 0xB3, 0x97, 0x9F, 0x83,
    0x2E, 0xFD, 0x51, 0xFE, 0x90, 0xD9, 0x4A, 0x5B, 0xE5, 0x29, 0xD8, 0x4E,
    0x5A, 0x00, 0x20, 0xE1, 0xD1, 0x61, 0xAA, 0x31, 0x56, 0xA1, 0x97, 0xD4,
    0x04, 0x72, 0x81, 0x9C, 0xA7, 0xC1, 0x0C, 0x18, 0x0C, 0x3A, 0xD2, 0x44,
    0xAB, 0x8C, 0xDA, 0x45, 0xFD, 0xA0, 0x74, 0x2B, 0x83, 0x3E, 0x5F, 0xAA,
    0xBE, 0x1F, 0x65, 0xFE, 0x92, 0x31, 0xC2, 0x4C, 0x6E, 0x5D, 0x53, 0xA2,
    0xF3, 0xDC, 0x3B, 0x10, 0xD8, 0xE4, 0x0A, 0xE6, 0x58, 0x5D, 0x79, 0x9D,
    0x13, 0xF5, 0xC6, 0x7D, 0x20, 0x9C, 0x77, 0x6E, 0x19, 0x94, 0xA4, 0x90,
    0xED, 0xA4, 0xA3, 0x40, 0xD2, 0xDA, 0x7E, 0x59, 0xF9, 0x94, 0xB3, 0xCA,
    0x29, 0x40, 0x8E, 0x28, 0xCE, 0xB7, 0x73, 0x18, 0x17, 0xBC, 0x0A, 0xF3,
    0x26, 0x94, 0xEA, 0x8B, 0x57, 0x37, 0xAC, 0xC2, 0x24, 0x6D, 0x41, 0x78,
    0x7C, 0x34, 0x47, 0xBC, 0x01, 0x7E, 0x3E, 0xC8, 0x2A, 0xE8, 0x2B, 0x0E,
    0x63, 0x70, 0x27, 0x25, 0x9B, 0x59, 0x51, 0x04, 0xB5, 0x9E, 0xDB, 0xC6,
    0xAF, 0xF3, 0xE0, 0x34, 0xF3, 0xE1, 0x18, 0xA5, 0x5B, 0x84, 0x9F, 0xF0,
    0xF6, 0x0A, 0xB7, 0x4E, 0x0E, 0x8E, 0x2C, 0x2E, 0x95, 0xEF, 0x81, 0xAC,
    0x61, 0x07, 0x4F, 0x0C, 0x03, 0x97, 0x2D, 0x11, 0xF1, 0x78, 0x4F, 0x4D,
    0xA5, 0x9D, 0x4E, 0xC5, 0x51, 0x41, 0x82, 0x55, 0x81, 0xCB, 0xCC, 0x2A,
    0x02, 0x1B, 0x11, 0xAA, 0xDE, 0xE3, 0xB8, 0x92, 0x84, 0x75, 0xB4, 0xF3,
    0x99, 0xBB, 0xFB, 0xD2, 0x0E, 0x81, 0x3E, 0x69, 0xBF, 0xFD, 0x8F, 0x8E,
    0x65, 0x0F, 0xB7, 0x01, 0x3F, 0x8B, 0x7E, 0x93, 0xDC, 0x0A, 0xA8, 0xD3,
    0x06, 0xE6, 0x3C, 0xDA, 0x59, 0xE9, 0x8E, 0x83, 0x37, 0xE7, 0x00, 0x00,
    0x3A, 0x27, 0x4D, 0xFE, 0x8F, 0x5F, 0xD5, 0x1F, 0xAA, 0xD5, 0x7F, 0x20,
    0x27, 0x6D, 0x2C, 0xEE, 0x2A, 0xB6, 0xE2, 0x37, 0xE4, 0xEA, 0xF8, 0xCF,
    0xDF, 0xBF, 0x2C, 0x00, 0x58, 0x30, 0x11, 0xC7, 0xDE, 0xCE, 0xDB, 0xE5,
    0x7C, 0x6F, 0xA2, 0x87, 0x87, 0xD3, 0x3F, 0xBE, 0x4D, 0xB7, 0x95, 0x3B,
    0xC0, 0x6C, 0xDC, 0x1A, 0x78, 0x6E, 0x5C, 0x9D, 0x99, 0x07, 0xC2, 0xBF,
    0x5B, 0xDB, 0x20, 0x43, 0xAE, 0x34, 0xC2, 0xF9, 0xB1, 0xD8, 0xE3, 0x6B,
    0xC6, 0xE3, 0x98, 0x40, 0xFA, 0x2A, 0x03, 0x2F, 0xE3, 0xF0, 0x59, 0x73,
    0xA3, 0x71, 0xA0, 0xBE, 0xC8, 0xCB, 0xFA, 0x57, 0xBE, 0xB1, 0x56, 0x6A,
    0xF6, 0xF3, 0x27, 0x1C, 0x48, 0x78, 0xB4, 0x7F, 0x68, 0x70, 0x36, 0x62,
    0xBA, 0xEF, 0x33, 0x3F, 0xE8, 0xD9, 0x3E, 0xD4, 0xAF, 0x43, 0x28, 0x62,
    0x31, 0x5D, 0x75, 0xE1, 0xA4, 0x06, 0xFF, 0x5E, 0xB7, 0xDA, 0xB4, 0xCE,
    0xA1, 0xC8, 0xF5, 0x24, 0xF0, 0x9B, 0x2A, 0xAA, 0x88, 0xCA, 0x22, 0x6D,
    0x53, 0xBD, 0x56, 0x9E, 0x5A, 0x21, 0x8D, 0xD6, 0x83, 0x0A, 0xB8, 0xE6,
    0x41, 0x4D, 0xAE, 0x99, 0xA2, 0x9A, 0x01, 0x14, 0xA0, 0x59, 0x7B, 0xBB,
    0x4E, 0xAF, 0xC4, 0xA9, 0x10, 0x56, 0xC3, 0xAB, 0x5C, 0xB2, 0xAB, 0x60,
    0xFE, 0xF6, 0x71, 0xEA, 0xEF, 0xD8, 0x39, 0x5C, 0xD3, 0x21, 0x9E, 0xBA,
    0x67, 0x44, 0xB0, 0x16, 0xD4, 0x69, 0xD2, 0xC6, 0xE5, 0x8B, 0x46, 0x83,
    0x3F, 0xCB, 0x23, 0x28, 0xC4, 0x9F, 0xCE, 0xA1, 0x54, 0x79, 0x3F, 0xEE,
    0x9C, 0x44, 0x56, 0x4D, 0x41, 0x49, 0x22, 0x3F, 0xFA, 0xD9, 0xDA, 0x32,
    0x8A, 0x33, 0xF2, 0xC5, 0x58, 0x20, 0xC5, 0x93, 0x96, 0x76, 0x8D, 0x91,
    0x77, 0x5E, 0x82, 0x4D, 0x06, 0x52, 0x28, 0x4B, 0x7D, 0xA2, 0x40, 0xBF,
    0xB0, 0xA7, 0xC7, 0xD5, 0x58, 0x47, 0x61, 0x41, 0xE3, 0x60, 0xE7, 0x2F,
    0x68, 0x9A, 0x1C, 0x37, 0x0D, 0xF4, 0xE5, 0xA1, 0x1C, 0xF7, 0xFE, 0x96,
    0x38, 0x8D, 0x1D, 0x6F, 0x22, 0x06, 0x1E, 0xCC, 0xBE, 0x7B, 0x8A, 0xAF,
    0x60, 0x78, 0x3B, 0x2A, 0xB1, 0xA3, 0xC2, 0x70, 0xA2, 0x88, 0x28, 0x82,
    0x2B, 0x2E, 0xBE, 0xAB, 0x5F, 0xE4, 0x44, 0xB1, 0x7D, 0xBE, 0xE9, 0x3C,
    0x1E, 0xFC, 0x47, 0xF4, 0x48, 0x2D, 0xD7, 0x90, 0x22, 0x86, 0x95, 0x68,
    0xF2, 0xDB, 0xF1, 0xB8, 0x66, 0xC1, 0xC3, 0xC6, 0xD7, 0x00, 0xE6, 0x78,
    0x7D, 0x7E, 0x0C, 0x8B, 0xCC, 0x4F, 0x87, 0x08, 0x75, 0x64, 0x1B, 0x5F,
    0x62, 0xAB, 0xEC, 0x6F, 0xE1, 0xF6, 0xC5, 0x52, 0x92, 0x6D, 0x43, 0xE9,
    0x33, 0x0E, 0x9C, 0x00, 0xA3, 0x7D, 0x93, 0x48, 0x58, 0x42, 0x8C, 0xC6,
    0xA6, 0xB7, 0xC8, 0x1F, 0xB0, 0xFA, 0x74, 0xCD, 0x58, 0x62, 0x2F, 0xCD,
    0x96, 0xAD, 0xE0, 0x53, 0xF5, 0x75, 0xE6, 0x61, 0x50, 0x0E, 0xBB, 0xA3,
    0x82, 0x72, 0xDE, 0xD3, 0xE0, 0x50, 0x74, 0x99, 0x98, 0x42, 0x35, 0x84,
    0x40, 0xA9, 0xC2, 0xF0, 0x8E, 0x0A, 0x7F, 0x36, 0xFD, 0x14, 0x54, 0x95,
    0x50, 0x66, 0x93, 0xA0, 0x7A, 0xA4, 0xB3, 0x33, 0x7A, 0xC5, 0x5F, 0xEE,
    0x2F, 0xB2, 0xAC, 0x9D, 0xD8, 0x5D, 0x2F, 0xE2, 0x42, 0x30, 0x2A, 0xFA,
    0xDD, 0xC8, 0x68, 0x27, 0xA5, 0x0C, 0xC4, 0xC5, 0x9E, 0xE6, 0x05, 0x63,
    0x01, 0xB1, 0xE9, 0x6E, 0x8B, 0xB1, 0x96, 0xA0, 0x0A, 0x58, 0xCC, 0x47,
    0x7A, 0xED, 0x4B, 0xE0, 0x02, 0x1F, 0xE7, 0x0A, 0x91, 0xAE, 0x3D, 0x11,
    0x6C, 0x3A, 0xA8, 0x05, 0x6B, 0x77, 0x90, 0x86, 0x01, 0xA9, 0x81, 0x30,
    0xBE, 0xA8, 0xEF, 0x4D, 0xC3, 0x1A, 0xBE, 0x28, 0xA5, 0x73, 0xF9, 0x86,
    0x7B, 0x93, 0x82, 0x86, 0x5A, 0xEF, 0x33, 0x77, 0xAC, 0x25, 0xF5, 0x0D,
    0x3D, 0x50, 0xC6, 0xA0, 0xC1, 0x69, 0x2C, 0x25, 0x27, 0x9B, 0xA0, 0x91,
    0xDF, 0x1D, 0x6B, 0x25, 0xA2, 0xDC, 0x31, 0x5E, 0x66, 0xB1, 0x2D, 0x7A,
    0x79, 0x1A, 0x11, 0xAF, 0x4E, 0xF1, 0x0A, 0xD3, 0x37, 0x12, 0x0D, 0xA9,
    0x94, 0x75, 0x6C, 0x96, 0x6B, 0x48, 0xD6, 0x82, 0xF2, 0xED, 0xD7, 0x5D,
    0xF0, 0xD1, 0x38, 0xB9, 0xB8, 0xBF, 0x09, 0x94, 0xEC, 0x50, 0x83, 0x3C,
    0x92, 0x7A, 0xDF, 0x0A, 0x11, 0xD4, 0xBA, 0x0B, 0x47, 0x9B, 0xE3, 0xB6,
    0x0D, 0x53, 0xD2, 0xAF, 0x5F, 0x76, 0xA8, 0x50, 0xAB, 0x2F, 0x0D, 0x62,
    0x83, 0xAE, 0xB7, 0x09, 0xE2, 0x95, 0xD0, 0xBF, 0x9E, 0x02, 0x02, 0xB1,
    0x12, 0x76, 0xFE, 0xC9, 0x61, 0x8D, 0x73, 0x8C, 0xFE, 0x7E, 0x37, 0x30,
    0xB7, 0x4B, 0x37, 0x76, 0x93, 0x60, 0x13, 0xD0, 0xDC, 0x33, 0xDB, 0x53,
    0xFF, 0xA4, 0xC1, 0x29, 0xB1, 0xCC, 0x2F, 0x51, 0xF3, 0xDC, 0xBE, 0x20,
    0x96, 0xA0, 0x5F, 0x63, 0xDD, 0x57, 0x9F, 0x3C, 0xEE, 0xF2, 0xA2, 0x70,
    0x79, 0xF4, 0x58, 0x5E, 0xAF, 0xF8, 0x9A, 0x0C, 0xC9, 0x3C, 0x4C, 0xA8,
    0x09, 0x1B, 0x5A, 0xD1, 0xE6, 0x10, 0x9D, 0xFA, 0x01, 0x5C, 0x4F, 0x20,
    0x15, 0x8E, 0x7B, 0xA6, 0x38, 0x27, 0x9C, 0xC2, 0x94, 0x6D, 0x32, 0x4B,
    0xFC, 0xCA, 0x8E, 0xCD, 0xE6, 0xE9, 0xF6, 0xA7, 0x79, 0x6C, 0xEC, 0x7D,
    0xE7, 0x67, 0xAC, 0x73, 0x46, 0x36, 0xD8, 0x05, 0xFA, 0x85, 0x17, 0xC3,
    0x6A, 0xF9, 0x19, 0x6E, 0x2D, 0x0A, 0x6A, 0x9A, 0x7D, 0x07, 0x2F, 0xE1,
    0x86, 0x27, 0x1A, 0xB5, 0xC3, 0x3B, 0x45, 0xA4, 0x3A, 0xCE, 0xB7, 0x23,
    0x4C, 0x62, 0x30, 0xEB, 0xE2, 0x14, 0xFF, 0xB3, 0xB5, 0x8F, 0x21, 0x27,
    0x98, 0x5F, 0x63, 0xFC, 0x6F, 0x9C, 0x87, 0x74, 0xEE, 0x88, 0x3D, 0x2A,
    0x7E, 0xDF, 0x22, 0xCF, 0x63, 0x66, 0x99, 0x32, 0xDF, 0xA9, 0x6C, 0x97,
    0xB5, 0x2B, 0x77, 0x6D, 0x6D, 0x1B, 0x47, 0xBB, 0x7C, 0xE6, 0xBE, 0xE4,
    0xE5, 0xC0, 0x99, 0xCA, 0x07, 0x9A, 0xCB, 0x0A, 0xEF, 0x34, 0xB8, 0xDF,
    0x38, 0xE3, 0x67, 0x58, 0xA9, 0x32, 0x96, 0x69, 0x07, 0xDB, 0x9A, 0xB5,
    0xE5, 0x96, 0x67, 0xC0, 0xCD, 0x6B, 0x19, 0xB3, 0x56, 0x27, 0xA8, 0x21,
    0x73, 0x00, 0x66, 0xA2, 0xCC, 0xC1, 0x78, 0x49, 0xC3, 0x6F, 0xDD, 0x7A,
    0xD6, 0xB5, 0x36, 0x72, 0x32, 0x42, 0xD3, 0x4B, 0xD8, 0x6F, 0xAD, 0x60,
    0xD0, 0x65, 0xD8, 0x7A, 0x5E, 0xD1, 0x9C, 0x84, 0x47, 0x76, 0xDC, 0x40,
    0x3D, 0x28, 0x14, 0xBF, 0xE8, 0xC3, 0x53, 0x3D, 0x5C, 0x25, 0x78, 0xFD,
    0x08, 0x7F, 0x07, 0x15, 0x41, 0xAC, 0x1F, 0x8B, 0x68, 0xF6, 0x9C, 0x84,
    0xA0, 0x6C, 0x03, 0x28, 0xD5, 0x69, 0xB9, 0x5B, 0xA2, 0xEF, 0x88, 0xFF,
    0x90, 0xA3, 0xD8, 0xEA, 0x3C, 0x22, 0x00, 0x50, 0x5F, 0x41, 0x6C, 0xF3,
    0x96, 0xBE, 0x0B, 0x53, 0xE6, 0x25, 0xC1, 0x67, 0xBE, 0xE9, 0x3F, 0x16,
    0x36, 0xF9, 0x63, 0xA5, 0xFC, 0x9A, 0x2C, 0xCD, 0xA8, 0x33, 0x61, 0x42,
    0xDD, 0xE8, 0x3F, 0xBB, 0x98, 0x5B, 0x5D, 0x06, 0x35, 0x37, 0xE7, 0xB3,
    0xDA, 0x26, 0x51, 0x06, 0x12, 0xCD, 0xC6, 0xBF, 0xD5, 0xE6, 0xA9, 0x46,
    0x26, 0x04, 0x2F, 0x42, 0x74, 0xE9, 0x2F, 0x2D, 0x64, 0xDA, 0xAB, 0x34,
    0x47, 0x61, 0xA1, 0x50, 0xDE, 0xAD, 0x82, 0x29, 0x9E, 0x55, 0x7B, 0x73,
    0xC4, 0x52, 0x36, 0xCE, 0x73, 0xBE, 0xC8, 0xD4, 0x24, 0x78, 0xE8, 0xFF,
    0xB8, 0xF9, 0x88, 0x4F, 0x00, 0xB4, 0x5B, 0xD4, 0xE3, 0x03, 0x45, 0x8A,
    0xB6, 0x4C, 0xE5, 0x12, 0xD0, 0x8B, 0xD0, 0x20, 0x8D, 0x0C, 0x57, 0xF0,
    0x1D, 0x68, 0xD8, 0xA7, 0x33, 0x66, 0x2B, 0x24, 0x4E, 0xBF, 0x73, 0x64,
    0x53, 0x25, 0x50, 0x16, 0x08, 0x15, 0x1D, 0xE8, 0x19, 0xDC, 0xD8, 0x0A,
    0x5B, 0x0C, 0xB8, 0xCC, 0x2F, 0xD5, 0x75, 0xD1, 0x05, 0x10, 0xE7, 0xBD,
    0xE1, 0xBC, 0xD7, 0xB8, 0x42, 0x60, 0xC4, 0xC0, 0x1F, 0x32, 0xA8, 0x8A,
    0xEB, 0x1C, 0x8D, 0xF0, 0x18, 0xFA, 0xCB, 0x46, 0xE5, 0x3B, 0xBE, 0xDE,
    0x34, 0xB4, 0x54, 0xD8, 0x4A, 0x08, 0xBC, 0xFF, 0x34, 0x4F, 0x85, 0x36,
    0x71, 0xCD, 0xD6, 0x81, 0x72, 0x90, 0xC8, 0x64, 0x92, 0x60, 0x42, 0x52,
    0x1A, 0x60, 0xBF, 0x0C, 0xAD, 0x1B, 0xE5, 0x6E, 0x0F, 0xA3, 0x71, 0xD8,
    0x78, 0xBF, 0x2D, 0x77, 0xA3, 0xC0, 0xB9, 0xD3, 0xDF, 0xF1, 0x3F, 0xF4,
    0x29, 0x88, 0xA2, 0xD3, 0x3E, 0x10, 0x2B, 0x48, 0x9D, 0x9E, 0x69, 0xFC,
    0xEA, 0x4A, 0xEA, 0x19, 0x87, 0x7A, 0x8A, 0x0A, 0xD1, 0x03, 0xFD, 0xD6,
    0x07, 0x31, 0x89, 0xA0, 0x7E, 0xDC, 0x18, 0xA3, 0x4F, 0xC5, 0x50, 0x2D,
    0x0F, 0x52, 0xDB, 0x6C, 0x71, 0xA5, 0x3F, 0x90, 0xBA, 0xC5, 0xFD, 0x2C,
    0x11, 0x9E, 0x1D, 0x74, 0x79, 0x0F, 0xF1, 0xFD, 0xF9, 0xD5, 0x5D, 0x15,
    0x95, 0xF7, 0x1A, 0xAB, 0xED, 0xD8, 0x02, 0x02, 0xE8, 0xB8, 0xA1, 0x2B,
    0x41, 0xC3, 0x06, 0x30, 0x92, 0x53, 0x86, 0x23, 0x42, 0xD2, 0xCD, 0xA3,
    0xF4, 0xF0, 0x42, 0x5A, 0xAB, 0x99, 0x35, 0xE8, 0x05, 0x5E, 0xF5, 0x64,
    0xED, 0xB7, 0xD4, 0xF0, 0x1D, 0x05, 0x29, 0x9F, 0xF3, 0x91, 0xB2, 0x97,
    0xA3, 0x11, 0x18, 0x8B, 0x65, 0x0A, 0x8F, 0x26, 0x15, 0x97, 0x84, 0xD0,
    0x83, 0x25, 0x90, 0xAB, 0xDD, 0x14, 0x0A, 0x4E, 0x4A, 0xF8, 0x2D, 0xA0,
    0xCF, 0xF5, 0x6D, 0xD1, 0xB5, 0xB8, 0x07, 0x96, 0x9C, 0x4B, 0x09, 0x20,
    0x5F, 0x38, 0x93, 0x73, 0xC9, 0xA0, 0xC0, 0x8F, 0xB3, 0x54, 0x29, 0x94,
    0xFE, 0xE0, 0xC0, 0xC0, 0x99, 0x7E, 0x69, 0x50, 0x76, 0xA7, 0x77, 0xEA,
    0x7A, 0x67, 0x8A, 0x54, 0x67, 0x5D, 0xFF, 0x53, 0x9B, 0x68, 0x06, 0xB8,
    0x65, 0x38, 0x96, 0x6F, 0x11, 0xAC, 0x68, 0xE8, 0x47, 0xE2, 0x5E, 0xF1,
    0x92, 0x6E, 0xB4, 0x24, 0xD7, 0x9B, 0x9C, 0x67, 0xE8, 0x2E, 0x44, 0x93,
    0xC9, 0x20, 0x32, 0xF3, 0x92, 0x8A, 0x24, 0xF6, 0x33, 0xDB, 0xE5, 0x34,
    0x00, 0x97, 0xED, 0xB1, 0x0F, 0x45, 0x57, 0x1F, 0xA6, 0x41, 0xC1, 0xD6,
    0x88, 0xB3, 0xA1, 0x43, 0xC3, 0x54, 0xD5, 0x92, 0x90, 0xF5, 0x96, 0xD0,
    0x11, 0x22, 0xA0, 0x86, 0xC0, 0xF4, 0x07, 0xF9, 0xB9, 0x35, 0x4D, 0x1E,
    0xDE, 0x74, 0xE9, 0x3E, 0x0B, 0x87, 0xC8, 0x7F, 0x45, 0x85, 0xA3, 0x7C,
    0x84, 0x4B, 0x58, 0x12, 0xBA, 0x6B, 0x4C, 0xCB, 0xC7, 0xD3, 0x7E, 0x26,
    0xDE, 0x32, 0x9C, 0x92, 0xBF, 0xAF, 0xA4, 0x52, 0xA2, 0x31, 0xB0, 0x02,
    0xDF, 0xDF, 0x58, 0x86, 0x4D, 0x5A, 0x9A, 0xE4, 0x56, 0x06, 0xF8, 0x7F,
    0x17, 0xEA, 0x7F, 0xE2, 0xE5, 0xD7, 0x4E, 0x19, 0xB6, 0xC3, 0x37, 0x1E,
    0x25, 0x53, 0x2C, 0x55, 0x43, 0x21, 0x10, 0x84, 0x72, 0x85, 0x92, 0x99,
    0x4D, 0xC9, 0x79, 0xD7, 0x37, 0xA6, 0xDA, 0xD2, 0x66, 0x92, 0x93, 0xEA,
    0x82, 0x8F, 0x2D, 0x42, 0x5A, 0x06, 0x25, 0xF3, 0x84, 0x7E, 0x99, 0xE6,
    0xE1, 0xD9, 0x3C, 0x70, 0xC0, 0x4B, 0x59, 0x7A, 0xFC, 0xC8, 0x50, 0x87,
    0x46, 0x1D, 0x2F, 0x33, 0xD8, 0x00, 0x07, 0x3E, 0xBA, 0x12, 0x8F, 0x36,
    0xCC, 0x12, 0xE6, 0x06, 0x89, 0x53, 0x27, 0x01, 0x00, 0x00, 0x00, 0x00,
    0x00, 0x00, 0x00, 0x00, 0x00, 0x00, 0x00, 0x00, 0x00, 0x00, 0x00, 0x00,
    0x00, 0x00, 0x00, 0x00, 0x00, 0x00, 0x00, 0x00, 0x00, 0x00, 0x00, 0x00,
    0x00, 0x00, 0x00, 0x00, 0x00, 0x00, 0x00, 0x00, 0x00, 0x00, 0x00, 0x00,
    0x00, 0x00, 0x00, 0x00, 0x00, 0x00, 0x00, 0x00, 0x00, 0x00, 0x00, 0x00,
    0x00, 0x00, 0x00, 0x00, 0x00, 0x00, 0x00, 0x00, 0x00, 0x00, 0x00, 0x00,
    0x00, 0x00, 0x00, 0x00, 0x00, 0x00, 0x00, 0x00, 0x00, 0x00, 0x00, 0x00,
    0x00, 0x00, 0x00, 0x00, 0x00, 0x00, 0x00, 0x00, 0x00, 0x00, 0x00, 0x00,
    0x00, 0x00, 0x00, 0x00, 0x00, 0x00, 0x00, 0x00, 0x00, 0x00, 0x00, 0x00,
    0x00, 0x00, 0x00, 0x00, 0x00, 0x00, 0x00, 0x00, 0x00, 0x00, 0x00, 0x00,
    0x00, 0x00, 0x00, 0x00, 0x00, 0x00, 0x00, 0x00, 0x00, 0x00, 0x00, 0x00,
    0x00, 0x00, 0x00, 0x00, 0x00, 0x00, 0x00, 0x00, 0x00, 0x00, 0x00, 0x00,
    0x00, 0x00, 0x00, 0x00, 0x00, 0x00, 0x00, 0x00, 0x00, 0x00, 0x00, 0x00,
    0x00, 0x00, 0x00, 0x00, 0x00, 0x00, 0x00, 0x00, 0x00, 0x00, 0x00, 0x00,
    0x00, 0x00, 0x00, 0x00, 0x00, 0x00, 0x00, 0x00, 0x00, 0x00, 0x00, 0x00,
    0x00, 0x00, 0x00, 0x00, 0x00, 0x00, 0x00, 0x00, 0x00, 0x00, 0x00, 0x00,
    0x00, 0x00, 0x00, 0x00, 0x00, 0x00, 0x00, 0x00, 0x00, 0x00, 0x00, 0x00,
    0x00, 0x00, 0x00, 0x00, 0x00, 0x00, 0x00, 0x00, 0x00, 0x00, 0x00, 0x00,
    0x00, 0x00, 0x00, 0x00, 0x00, 0x00, 0x00, 0x00, 0x00, 0x00, 0x00, 0x00,
    0x00, 0x00, 0x00, 0x00, 0x00, 0x00, 0x00, 0x00, 0x00, 0x00, 0x00, 0x00,
    0x00, 0x00, 0x00, 0x00, 0x00, 0x00, 0x00, 0x00, 0x00, 0x00, 0x00, 0x00,
    0x00, 0x00, 0x00, 0x00, 0x00, 0x00, 0x00, 0x00, 0x00, 0x00, 0x00, 0x00,
    0x00, 0x00, 0x00, 0x00, 0x00, 0x00, 0x00, 0x00, 0x00, 0x00, 0x00, 0x00,
    0x00, 0x00, 0x00, 0x00, 0x00, 0x00, 0x00, 0x00, 0x00, 0x00, 0x00, 0x00,
    0x00, 0x00, 0x00, 0x00, 0x00, 0x00, 0x00, 0x00, 0x00, 0x00, 0x00, 0x00,
    0x00, 0x00, 0x00, 0x00, 0x00, 0x00, 0x00, 0x00, 0x00, 0x00, 0x00, 0x00,
    0x00, 0x00, 0x00, 0x00, 0x00, 0x00, 0x00, 0x00, 0x00, 0x00, 0x00, 0x00,
    0x00, 0x00, 0x00, 0x00, 0x00, 0x00, 0x00, 0x00, 0x00, 0x00, 0x00, 0x00,
    0x00, 0x00, 0x00, 0x00, 0x00, 0x00, 0x00, 0x00, 0x00, 0x00, 0x00, 0x00,
    0x00, 0x00, 0x00, 0x00, 0x00, 0x00, 0x00, 0x00, 0x00, 0x00, 0x00, 0x00,
    0x00, 0x00, 0x00, 0x00, 0x00, 0x00, 0x00, 0x00, 0x00, 0x00, 0x00, 0x00,
    0x00, 0x00, 0x00, 0x00, 0x00, 0x00, 0x00, 0x00, 0x00, 0x00, 0x00, 0x00,
    0x00, 0x00, 0x00, 0x00, 0x00, 0x00, 0x00, 0x00, 0x00, 0x00, 0x00, 0x00,
    0x00, 0x00, 0x00, 0x00, 0x00, 0x00, 0x00, 0x00, 0x00, 0x00, 0x00, 0x00,
    0x00, 0x00, 0x00, 0x00, 0x00, 0x00, 0x00, 0x00, 0x00, 0x00, 0x00, 0x00,
    0x00, 0x00, 0x00, 0x00, 0x00, 0x00, 0x00, 0x00, 0x00, 0x00, 0x00, 0x00,
    0x00, 0x00, 0x00, 0x00, 0x00, 0x00, 0x00, 0x00, 0x00, 0x00, 0x00, 0x00,
    0x00, 0x00, 0x00, 0x00, 0x00, 0x00, 0x00, 0x00, 0x00, 0x00, 0x00, 0x00,
    0xC7, 0xD4, 0x1C, 0x47, 0x61, 0xAE, 0xCC, 0x12, 0xAF, 0x30, 0x98, 0xA0,
    0x22, 0x6C, 0xA0, 0x9C, 0x07, 0xEF, 0x6F, 0x1A, 0xF9, 0x59, 0x39, 0xDB,
    0x71, 0x1F, 0xCD, 0xAA, 0x24, 0x9D, 0x73, 0xAF, 0xF2, 0xE7, 0x57, 0x9E,
    0xDD, 0x1B, 0x53, 0x3F, 0x0F, 0xF5, 0x11, 0x25, 0xB5, 0x73, 0xC9, 0x89,
    0x2B, 0xA1, 0xE6, 0x63, 0x94, 0xFA, 0x26, 0x07, 0x00, 0x2F, 0xD6, 0xCC,
    0x5B, 0x53, 0x8D, 0x35, 0x00, 0x00, 0x00, 0x00, 0x00, 0x00, 0x00, 0x00,
    0x00, 0x00, 0x00, 0x00, 0x00, 0x00, 0x00, 0x00, 0x00, 0x00, 0x00, 0x00,
    0x00, 0x00, 0x00, 0x00, 0x00, 0x00, 0x00, 0x00, 0x00, 0x00, 0x00, 0x00,
    0x00, 0x00, 0x00, 0x00, 0x00, 0x00, 0x00, 0x00, 0x00, 0x00, 0x00, 0x00,
    0x00, 0x00, 0x00, 0x00, 0x00, 0x00, 0x00, 0x00, 0x00, 0x00, 0x00, 0x00,
    0x00, 0x00, 0x00, 0x00, 0x00, 0x00, 0x00, 0x00, 0x00, 0x00, 0x00, 0x00,
    0x00, 0x00, 0x00, 0x00, 0x00, 0x00, 0x00, 0x00, 0x00, 0x00, 0x00, 0x00,
    0x00, 0x00, 0x00, 0x00, 0x00, 0x00, 0x00, 0x00, 0x00, 0x00, 0x00, 0x00,
    0x00, 0x00, 0x00, 0x00, 0x00, 0x00, 0x00, 0x00, 0x00, 0x00, 0x00, 0x00,
    0x00, 0x00, 0x00, 0x00, 0x00, 0x00, 0x00, 0x00, 0x00, 0x00, 0x00, 0x00,
    0x00, 0x00, 0x00, 0x00, 0x00, 0x00, 0x00, 0x00, 0x00, 0x00, 0x00, 0x00,
    0x00, 0x00, 0x00, 0x00, 0x00, 0x00, 0x00, 0x00, 0x00, 0x00, 0x00, 0x00,
    0x00, 0x00, 0x00, 0x00, 0x00, 0x00, 0x00, 0x00, 0x00, 0x00, 0x00, 0x00,
    0x00, 0x00, 0x00, 0x00, 0x00, 0x00, 0x00, 0x00, 0x00, 0x00, 0x00, 0x00,
    0x00, 0x00, 0x00, 0x00, 0x00, 0x00, 0x00, 0x00, 0x00, 0x00, 0x00, 0x00,
    0x00, 0x00, 0x00, 0x00, 0x00, 0x00, 0x00, 0x00, 0x00, 0x00, 0x00, 0x00,
    0x00, 0x00, 0x00, 0x00, 0x00, 0x00, 0x00, 0x00, 0x00, 0x00, 0x00, 0x00,
    0x00, 0x00, 0x00, 0x00, 0x00, 0x00, 0x00, 0x00, 0x00, 0x00, 0x00, 0x00,
    0x00, 0x00, 0x00, 0x00, 0x00, 0x00, 0x00, 0x00, 0x00, 0x00, 0x00, 0x00,
    0x00, 0x00, 0x00, 0x00, 0x00, 0x00, 0x00, 0x00, 0x00, 0x00, 0x00, 0x00,
    0x00, 0x00, 0x00, 0x00, 0x00, 0x00, 0x00, 0x00, 0x00, 0x00, 0x00, 0x00,
    0x00, 0x00, 0x00, 0x00, 0x00, 0x00, 0x00, 0x00, 0x00, 0x00, 0x00, 0x00,
    0x00, 0x00, 0x00, 0x00, 0x00, 0x00, 0x00, 0x00, 0x00, 0x00, 0x00, 0x00,
    0x00, 0x00, 0x00, 0x00, 0x00, 0x00, 0x00, 0x00, 0x00, 0x00, 0x00, 0x00,
    0x00, 0x00, 0x00, 0x00, 0x00, 0x00, 0x00, 0x00, 0x00, 0x00, 0x00, 0x00,
    0x00, 0x00, 0x00, 0x00, 0x00, 0x00, 0x00, 0x00, 0x00, 0x00, 0x00, 0x00,
    0x00, 0x00, 0x00, 0x00, 0x00, 0x00, 0x00, 0x00, 0x00, 0x00, 0x00, 0x00,
    0x00, 0x00, 0x00, 0x00, 0x00, 0x00, 0x00, 0x00, 0x00, 0x00, 0x00, 0x00,
    0x00, 0x00, 0x00, 0x00, 0x00, 0x00, 0x00, 0x00, 0x00, 0x00, 0x00, 0x00,
    0x00, 0x00, 0x00, 0x00, 0x00, 0x00, 0x00, 0x00, 0x00, 0x00, 0x00, 0x00,
    0x00, 0x00, 0x00, 0x00, 0x00, 0x00, 0x00, 0x00, 0x00, 0x00, 0x00, 0x00,
    0x00, 0x00, 0x00, 0x00, 0x00, 0x00, 0x00, 0x00, 0x00, 0x00, 0x00, 0x00,
    0x00, 0x00, 0x00, 0x00, 0x00, 0x00, 0x00, 0x00, 0x00, 0x00, 0x00, 0x00,
    0x00, 0x00, 0x00, 0x00, 0x00, 0x00, 0x00, 0x00, 0x00, 0x00, 0x00, 0x00,
    0x00, 0x00, 0x00, 0x00, 0x00, 0x00, 0x00, 0x00, 0x00, 0x00, 0x00, 0x00,
    0x00, 0x00, 0x00, 0x00, 0x00, 0x00, 0x00, 0x00, 0x00, 0x00, 0x00, 0x00,
    0x00, 0x00, 0x00, 0x00, 0x00, 0x00, 0x00, 0x00, 0x00, 0x00, 0x00, 0x00,
    0x00, 0x00, 0x00, 0x00, 0x00, 0x00, 0x00, 0x00, 0x53, 0x68, 0x73, 0x58,
    0xEC, 0x2B, 0x67, 0x89, 0xB3, 0xA6, 0xF7, 0x91, 0xFC, 0x3B, 0xAD, 0x64,
    0x4D, 0x9F, 0xF6, 0x44, 0x29, 0x8C, 0x96, 0x66, 0x55, 0xDB, 0x65, 0xD8,
    0x93, 0x3E, 0xE6, 0xFF, 0x83, 0x27, 0xE6, 0x26, 0x04, 0xC4, 0x89, 0x62,
    0xD6, 0x68, 0x4C, 0x59, 0x7A, 0x32, 0xDA, 0xC1, 0x76, 0x81, 0xB9, 0x91,
    0x2D, 0x26, 0x96, 0xC0, 0x3E, 0x20, 0x9E, 0xE6, 0x10, 0xD6, 0xEF, 0x0D,
    0x00, 0x00, 0x00, 0x00, 0x00, 0x00, 0x00, 0x00, 0x00, 0x00, 0x00, 0x00,
    0x00, 0x00, 0x00, 0x00, 0x00, 0x00, 0x00, 0x00, 0x00, 0x00, 0x00, 0x00,
    0x00, 0x00, 0x00, 0x00, 0x00, 0x00, 0x00, 0x00, 0x00, 0x00, 0x00, 0x00,
    0x00, 0x00, 0x00, 0x00, 0x00, 0x00, 0x00, 0x00, 0x00, 0x00, 0x00, 0x00,
    0x00, 0x00, 0x00, 0x00, 0x00, 0x00, 0x00, 0x00, 0x00, 0x00, 0x00, 0x00,
    0x00, 0x00, 0x00, 0x00, 0x00, 0x00, 0x00, 0x00, 0x00, 0x00, 0x00, 0x00,
    0x00, 0x00, 0x00, 0x00, 0x00, 0x00, 0x00, 0x00, 0x00, 0x00, 0x00, 0x00,
    0x00, 0x00, 0x00, 0x00, 0x00, 0x00, 0x00, 0x00, 0x00, 0x00, 0x00, 0x00,
    0x00, 0x00, 0x00, 0x00, 0x00, 0x00, 0x00, 0x00, 0x00, 0x00, 0x00, 0x00,
    0x00, 0x00, 0x00, 0x00, 0x00, 0x00, 0x00, 0x00, 0x00, 0x00, 0x00, 0x00,
    0x00, 0x00, 0x00, 0x00, 0x00, 0x00, 0x00, 0x00, 0x00, 0x00, 0x00, 0x00,
    0x00, 0x00, 0x00, 0x00, 0x00, 0x00, 0x00, 0x00, 0x00, 0x00, 0x00, 0x00,
    0x00, 0x00, 0x00, 0x00, 0x00, 0x00, 0x00, 0x00, 0x00, 0x00, 0x00, 0x00,
    0x00, 0x00, 0x00, 0x00, 0x00, 0x00, 0x00, 0x00, 0x00, 0x00, 0x00, 0x00,
    0x00, 0x00, 0x00, 0x00, 0x00, 0x00, 0x00, 0x00, 0x00, 0x00, 0x00, 0x00,
    0x00, 0x00, 0x00, 0x00, 0x00, 0x00, 0x00, 0x00, 0x00, 0x00, 0x00, 0x00,
    0x00, 0x00, 0x00, 0x00, 0x00, 0x00, 0x00, 0x00, 0x00, 0x00, 0x00, 0x00,
    0x00, 0x00, 0x00, 0x00, 0x00, 0x00, 0x00, 0x00, 0x00, 0x00, 0x00, 0x00,
    0x00, 0x00, 0x00, 0x00, 0x00, 0x00, 0x00, 0x00, 0x00, 0x00, 0x00, 0x00,
    0x00, 0x00, 0x00, 0x00, 0x00, 0x00, 0x00, 0x00, 0x00, 0x00, 0x00, 0x00,
    0x00, 0x00, 0x00, 0x00, 0x00, 0x00, 0x00, 0x00, 0x00, 0x00, 0x00, 0x00,
    0x00, 0x00, 0x00, 0x00, 0x00, 0x00, 0x00, 0x00, 0x00, 0x00, 0x00, 0x00,
    0x00, 0x00, 0x00, 0x00, 0x00, 0x00, 0x00, 0x00, 0x00, 0x00, 0x00, 0x00,
    0x00, 0x00, 0x00, 0x00, 0x00, 0x00, 0x00, 0x00, 0x00, 0x00, 0x00, 0x00,
    0x00, 0x00, 0x00, 0x00, 0x00, 0x00, 0x00, 0x00, 0x00, 0x00, 0x00, 0x00,
    0x00, 0x00, 0x00, 0x00, 0x00, 0x00, 0x00, 0x00, 0x00, 0x00, 0x00, 0x00,
    0x00, 0x00, 0x00, 0x00, 0x00, 0x00, 0x00, 0x00, 0x00, 0x00, 0x00, 0x00,
    0x00, 0x00, 0x00, 0x00, 0x00, 0x00, 0x00, 0x00, 0x00, 0x00, 0x00, 0x00,
    0x00, 0x00, 0x00, 0x00, 0x00, 0x00, 0x00, 0x00, 0x00, 0x00, 0x00, 0x00,
    0x00, 0x00, 0x00, 0x00, 0x00, 0x00, 0x00, 0x00, 0x00, 0x00, 0x00, 0x00,
    0x00, 0x00, 0x00, 0x00, 0x00, 0x00, 0x00, 0x00, 0x00, 0x00, 0x00, 0x00,
    0x00, 0x00, 0x00, 0x00, 0x00, 0x00, 0x00, 0x00, 0x00, 0x00, 0x00, 0x00,
    0x00, 0x00, 0x00, 0x00, 0x00, 0x00, 0x00, 0x00, 0x00, 0x00, 0x00, 0x00,
    0x00, 0x00, 0x00, 0x00, 0x00, 0x00, 0x00, 0x00, 0x00, 0x00, 0x00, 0x00,
    0x00, 0x00, 0x00, 0x00, 0x00, 0x00, 0x00, 0x00, 0x00, 0x00, 0x00, 0x00,
    0x00, 0x00, 0x00, 0x00, 0x00, 0x00, 0x00, 0x00, 0x00, 0x00, 0x00, 0x00,
    0x00, 0x00, 0x00, 0x00, 0x00, 0x00, 0x00, 0x00, 0x00, 0x00, 0x00, 0x00,
    0x00, 0x00, 0x00, 0x00, 0x75, 0xD3, 0xEA, 0x69, 0x58, 0x5E, 0xDB, 0x58,
    0xD0, 0x4F, 0x0D, 0xDC, 0x41, 0xF6, 0x6E, 0x28, 0x9C, 0xF0, 0xFE, 0x0A,
    0xEB, 0xCF, 0x42, 0x12, 0xEB, 0xE6, 0x1D, 0x84, 0x83, 0xA7, 0x7C, 0xF4,
    0xC5, 0xA9, 0x4D, 0x66, 0xC7, 0x95, 0xA8, 0x55, 0xA7, 0x23, 0x56, 0x6B,
    0x6D, 0x67, 0x9C, 0xAF, 0x6A, 0x18, 0x7D, 0xC3, 0x41, 0x99, 0xD6, 0xCE,
    0x6E, 0x64, 0xC5, 0xC8, 0xE8, 0xB6, 0xC2, 0x89, 0x00, 0x00, 0x00, 0x00,
    0x00, 0x00, 0x00, 0x00, 0x00, 0x00, 0x00, 0x00, 0x00, 0x00, 0x00, 0x00,
    0x00, 0x00, 0x00, 0x00, 0x00, 0x00, 0x00, 0x00, 0x00, 0x00, 0x00, 0x00,
    0x00, 0x00, 0x00, 0x00, 0x00, 0x00, 0x00, 0x00, 0x00, 0x00, 0x00, 0x00,
    0x00, 0x00, 0x00, 0x00, 0x00, 0x00, 0x00, 0x00, 0x00, 0x00, 0x00, 0x00,
    0x00, 0x00, 0x00, 0x00, 0x00, 0x00, 0x00, 0x00, 0x00, 0x00, 0x00, 0x00,
    0x00, 0x00, 0x00, 0x00, 0x00, 0x00, 0x00, 0x00, 0x00, 0x00, 0x00, 0x00,
    0x00, 0x00, 0x00, 0x00, 0x00, 0x00, 0x00, 0x00, 0x00, 0x00, 0x00, 0x00,
    0x00, 0x00, 0x00, 0x00, 0x00, 0x00, 0x00, 0x00, 0x00, 0x00, 0x00, 0x00,
    0x00, 0x00, 0x00, 0x00, 0x00, 0x00, 0x00, 0x00, 0x00, 0x00, 0x00, 0x00,
    0x00, 0x00, 0x00, 0x00, 0x00, 0x00, 0x00, 0x00, 0x00, 0x00, 0x00, 0x00,
    0x00, 0x00, 0x00, 0x00, 0x00, 0x00, 0x00, 0x00, 0x00, 0x00, 0x00, 0x00,
    0x00, 0x00, 0x00, 0x00, 0x00, 0x00, 0x00, 0x00, 0x00, 0x00, 0x00, 0x00,
    0x00, 0x00, 0x00, 0x00, 0x00, 0x00, 0x00, 0x00, 0x00, 0x00, 0x00, 0x00,
    0x00, 0x00, 0x00, 0x00, 0x00, 0x00, 0x00, 0x00, 0x00, 0x00, 0x00, 0x00,
    0x00, 0x00, 0x00, 0x00, 0x00, 0x00, 0x00, 0x00, 0x00, 0x00, 0x00, 0x00,
    0x00, 0x00, 0x00, 0x00, 0x00, 0x00, 0x00, 0x00, 0x00, 0x00, 0x00, 0x00,
    0x00, 0x00, 0x00, 0x00, 0x00, 0x00, 0x00, 0x00, 0x00, 0x00, 0x00, 0x00,
    0x00, 0x00, 0x00, 0x00, 0x00, 0x00, 0x00, 0x00, 0x00, 0x00, 0x00, 0x00,
    0x00, 0x00, 0x00, 0x00, 0x00, 0x00, 0x00, 0x00, 0x00, 0x00, 0x00, 0x00,
    0x00, 0x00, 0x00, 0x00, 0x00, 0x00, 0x00, 0x00, 0x00, 0x00, 0x00, 0x00,
    0x00, 0x00, 0x00, 0x00, 0x00, 0x00, 0x00, 0x00, 0x00, 0x00, 0x00, 0x00,
    0x00, 0x00, 0x00, 0x00, 0x00, 0x00, 0x00, 0x00, 0x00, 0x00, 0x00, 0x00,
    0x00, 0x00, 0x00, 0x00, 0x00, 0x00, 0x00, 0x00, 0x00, 0x00, 0x00, 0x00,
    0x00, 0x00, 0x00, 0x00, 0x00, 0x00, 0x00, 0x00, 0x00, 0x00, 0x00, 0x00,
    0x00, 0x00, 0x00, 0x00, 0x00, 0x00, 0x00, 0x00, 0x00, 0x00, 0x00, 0x00,
    0x00, 0x00, 0x00, 0x00, 0x00, 0x00, 0x00, 0x00, 0x00, 0x00, 0x00, 0x00,
    0x00, 0x00, 0x00, 0x00, 0x00, 0x00, 0x00, 0x00, 0x00, 0x00, 0x00, 0x00,
    0x00, 0x00, 0x00, 0x00, 0x00, 0x00, 0x00, 0x00, 0x00, 0x00, 0x00, 0x00,
    0x00, 0x00, 0x00, 0x00, 0x00, 0x00, 0x00, 0x00, 0x00, 0x00, 0x00, 0x00,
    0x00, 0x00, 0x00, 0x00, 0x00, 0x00, 0x00, 0x00, 0x00, 0x00, 0x00, 0x00,
    0x00, 0x00, 0x00, 0x00, 0x00, 0x00, 0x00, 0x00, 0x00, 0x00, 0x00, 0x00,
    0x00, 0x00, 0x00, 0x00, 0x00, 0x00, 0x00, 0x00, 0x00, 0x00, 0x00, 0x00,
    0x00, 0x00, 0x00, 0x00, 0x00, 0x00, 0x00, 0x00, 0x00, 0x00, 0x00, 0x00,
    0x00, 0x00, 0x00, 0x00, 0x00, 0x00, 0x00, 0x00, 0x00, 0x00, 0x00, 0x00,
    0x00, 0x00, 0x00, 0x00, 0x00, 0x00, 0x00, 0x00, 0x00, 0x00, 0x00, 0x00,
    0x00, 0x00, 0x00, 0x00, 0x00, 0x00, 0x00, 0x00, 0x00, 0x00, 0x00, 0x00,
    0x00, 0x00, 0x00, 0x00, 0x00, 0x00, 0x00, 0x00, 0x00, 0x00, 0x00, 0x00
};
static const size_t  fc200relu_weights_size = sizeof(fc200relu_weights);
