/*
 * Auto-generated from: conv_in_height_1_vela.npz
 * Do not edit by hand.
 *
 * Generated for Ethos-U direct driver invocation (no TFLM).
 * Assumes a single NPU command stream with no CPU fallback.
 */
#pragma once
#include <stdint.h>
#include <stddef.h>

// Weight region index chosen by Vela:
#define CONV_IN_HEIGHT_1_WEIGHT_REGION 0

__attribute__((aligned(32)))
static const uint8_t conv_in_height_1_weights[] = {
    0x00, 0x00, 0x00, 0x00, 0x63, 0xD1, 0x1E, 0x4B, 0x29, 0x00, 0x00, 0x00,
    0x00, 0x00, 0x02, 0x00, 0xFC, 0x4A, 0x29, 0x00, 0x00, 0x00, 0x00, 0x00,
    0x63, 0x57, 0x2B, 0x4A, 0x29, 0x00, 0x00, 0x00, 0x00, 0x00, 0xB3, 0xA0,
    0x23, 0x4A, 0x29, 0x00, 0x00, 0x00, 0x00, 0x00, 0xC1, 0xE8, 0xCF, 0x4A,
    0x29, 0x00, 0x00, 0x00, 0x00, 0x00, 0xD5, 0x00, 0xF0, 0x4A, 0x29, 0x00,
    0x00, 0x00, 0x00, 0x00, 0xBF, 0xEB, 0xED, 0x4A, 0x29, 0x00, 0x00, 0x00,
    0x00, 0x00, 0x84, 0xE2, 0xF0, 0x48, 0x29, 0x00, 0x00, 0x00, 0x00, 0x00,
    0xA8, 0xD2, 0xC2, 0x4A, 0x29, 0x00, 0x00, 0x00, 0x00, 0x00, 0x7F, 0x77,
    0x37, 0x4B, 0x29, 0x00, 0x00, 0x00, 0x00, 0x00, 0x3A, 0x98, 0xC3, 0x4A,
    0x29, 0x00, 0x00, 0x00, 0x00, 0x00, 0xD8, 0x8E, 0x7A, 0x4A, 0x29, 0x00,
    0x00, 0x00, 0x00, 0x00, 0xBC, 0xAF, 0x7D, 0x4A, 0x29, 0x00, 0x00, 0x00,
    0x00, 0x00, 0x59, 0xB7, 0x38, 0x4B, 0x29, 0x00, 0x00, 0x00, 0x00, 0x00,
    0xEF, 0xBF, 0x2D, 0x4B, 0x29, 0x00, 0x00, 0x00, 0x00, 0x00, 0x95, 0x88,
    0x31, 0x4B, 0x29, 0x00, 0x00, 0x00, 0x00, 0x00, 0xC8, 0x08, 0xF8, 0x49,
    0x29, 0x00, 0x00, 0x00, 0x00, 0x00, 0xE7, 0x08, 0x9E, 0x49, 0x29, 0x00,
    0x00, 0x00, 0x00, 0x00, 0xFD, 0xDE, 0x26, 0x4B, 0x29, 0x00, 0x00, 0x00,
    0x00, 0x00, 0xAD, 0x8A, 0xBE, 0x4A, 0x29, 0x00, 0x00, 0x00, 0x00, 0x00,
    0xFB, 0xC1, 0xAC, 0x4A, 0x29, 0x00, 0x00, 0x00, 0x00, 0x00, 0x23, 0x2F,
    0x05, 0x4B, 0x29, 0x00, 0x00, 0x00, 0x00, 0x00, 0x18, 0xAF, 0x7F, 0x4A,
    0x29, 0x00, 0x00, 0x00, 0x00, 0x00, 0x8F, 0x5F, 0x15, 0x4B, 0x29, 0x00,
    0x00, 0x00, 0x00, 0x00, 0x3F, 0x55, 0x9B, 0x4A, 0x29, 0x00, 0x00, 0x00,
    0x00, 0x00, 0x94, 0x3B, 0xD8, 0x4A, 0x29, 0x00, 0x00, 0x00, 0x00, 0x00,
    0x19, 0x56, 0x14, 0x49, 0x29, 0x00, 0x00, 0x00, 0x00, 0x00, 0x31, 0x11,
    0x1D, 0x4B, 0x29, 0x00, 0x00, 0x00, 0x00, 0x00, 0xAB, 0xAB, 0xF3, 0x4A,
    0x29, 0x00, 0x00, 0x00, 0x00, 0x00, 0x9E, 0x91, 0xE1, 0x4A, 0x29, 0x00,
    0x00, 0x00, 0x00, 0x00, 0x0B, 0xFE, 0x35, 0x4B, 0x29, 0x00, 0x00, 0x00,
    0x00, 0x00, 0xBF, 0xC0, 0xC9, 0x4A, 0x29, 0x00, 0x00, 0x00, 0x00, 0x00,
    0x33, 0x79, 0x49, 0x4A, 0x29, 0x00, 0x00, 0x00, 0x00, 0x00, 0x78, 0x1E,
    0x26, 0x4B, 0x29, 0x00, 0x00, 0x00, 0x00, 0x00, 0x4E, 0x00, 0x77, 0x4A,
    0x29, 0x00, 0x00, 0x00, 0x00, 0x00, 0x1D, 0x3B, 0xB5, 0x49, 0x29, 0x00,
    0x00, 0x00, 0x00, 0x00, 0x63, 0xB0, 0x9D, 0x48, 0x29, 0x00, 0x00, 0x00,
    0x00, 0x00, 0xD3, 0x85, 0x22, 0x4B, 0x29, 0x00, 0x00, 0x00, 0x00, 0x00,
    0xBC, 0x2F, 0xF5, 0x4A, 0x29, 0x00, 0x00, 0x00, 0x00, 0x00, 0x00, 0x33,
    0x0F, 0x4B, 0x29, 0x00, 0x00, 0x00, 0x00, 0x00, 0xCA, 0xBB, 0xF0, 0x4A,
    0x29, 0x00, 0x00, 0x00, 0x00, 0x00, 0xAB, 0xDA, 0x1A, 0x4A, 0x29, 0x00,
    0x00, 0x00, 0x00, 0x00, 0x1E, 0xF1, 0xD6, 0x4A, 0x29, 0x00, 0x00, 0x00,
    0x00, 0x00, 0x83, 0x9D, 0xD2, 0x4A, 0x29, 0x00, 0x00, 0x00, 0x00, 0x00,
    0xF5, 0xC6, 0x09, 0x4B, 0x29, 0x00, 0x00, 0x00, 0x00, 0x00, 0x4F, 0xF5,
    0x16, 0x4B, 0x29, 0x00, 0x00, 0x00, 0x00, 0x00, 0x08, 0x8A, 0xAA, 0x4A,
    0x29, 0x00, 0x00, 0x00, 0x00, 0x00, 0x88, 0xC6, 0xC2, 0x4A, 0x29, 0x00,
    0x28, 0xD7, 0x5C, 0x01, 0x8C, 0x00, 0x00, 0x92, 0x2E, 0x97, 0x11, 0x00,
    0x73, 0x99, 0x00, 0x70, 0x12, 0x19, 0xD4, 0x90, 0x60, 0xC3, 0x26, 0x0E,
    0x00, 0x12, 0x21, 0x64, 0xE4, 0x25, 0x07, 0x25, 0x4B, 0x4B, 0xDB, 0x2D,
    0x29, 0xAA, 0x07, 0x93, 0x10, 0x00, 0xE0, 0x31, 0x14, 0x44, 0x35, 0xF7,
    0x61, 0xCE, 0x06, 0x00, 0x46, 0x61, 0x1B, 0xD8, 0x99, 0x8A, 0x85, 0x5B,
    0x55, 0x0E, 0xB5, 0x72, 0x39, 0x0F, 0xA8, 0x5C, 0x00, 0xF0, 0x5B, 0x42,
    0xB9, 0x46, 0x31, 0xB2, 0x26, 0x06, 0x00, 0x0A, 0xF2, 0x52, 0xFB, 0x7B,
    0x33, 0xDE, 0x94, 0x35, 0x84, 0x61, 0x6A, 0x1A, 0xD4, 0x39, 0x87, 0x00,
    0x10, 0x1A, 0xDC, 0xC8, 0x3E, 0xFF, 0x2C, 0xE8, 0x00, 0x00, 0x27, 0x44,
    0xE1, 0x97, 0xFB, 0xD3, 0x3B, 0x3A, 0xBC, 0x10, 0xBC, 0x03, 0x88, 0xCB,
    0x52, 0xC3, 0x00, 0xF0, 0x66, 0x95, 0xAF, 0x7F, 0xEE, 0x3D, 0x57, 0x0B,
    0x00, 0x67, 0x1B, 0xE8, 0x28, 0x4C, 0xFC, 0x1E, 0x81, 0x1C, 0x51, 0x4A,
    0x5F, 0xC8, 0x08, 0x0D, 0xEA, 0x00, 0xD0, 0xAB, 0x8F, 0xEA, 0x71, 0x3E,
    0x65, 0x73, 0x0B, 0x00, 0x92, 0xB3, 0x85, 0x16, 0x2F, 0x3A, 0x53, 0x7F,
    0x2B, 0xB9, 0xB1, 0x8E, 0xBA, 0xB3, 0x48, 0xE1, 0x00, 0x40, 0x28, 0x9E,
    0xE5, 0x66, 0x2D, 0xFF, 0x89, 0x00, 0x00, 0x87, 0x5E, 0xD9, 0x57, 0x77,
    0x24, 0x50, 0x16, 0xC6, 0x3B, 0x58, 0xB5, 0xB4, 0x21, 0x2B, 0xB4, 0x00,
    0x60, 0x99, 0xE4, 0x78, 0x3E, 0xFE, 0x65, 0x85, 0x05, 0x00, 0x9A, 0xF6,
    0xB2, 0x4D, 0xB1, 0x12, 0xA4, 0x32, 0x24, 0x04, 0x53, 0xFD, 0xA6, 0x75,
    0x84, 0xC1, 0x00, 0x20, 0xC9, 0xD3, 0xD8, 0x46, 0x62, 0x3D, 0xCA, 0x0C,
    0x00, 0x46, 0x38, 0x11, 0x0D, 0x31, 0xAC, 0xF9, 0x90, 0x64, 0xAE, 0x5B,
    0xEE, 0x15, 0xB6, 0x56, 0x5F, 0x00, 0x30, 0xB7, 0xDC, 0xFC, 0xDE, 0x20,
    0xEC, 0x12, 0x07, 0x00, 0x81, 0x6C, 0xA5, 0xC6, 0xF0, 0x21, 0xDE, 0xB5,
    0x60, 0x15, 0x09, 0xC2, 0xD1, 0x80, 0xD8, 0x2F, 0x00, 0x92, 0xF2, 0xDE,
    0xB3, 0xD7, 0xFE, 0xDC, 0xE6, 0x03, 0x00, 0x0E, 0x8F, 0x30, 0xF8, 0x46,
    0x40, 0x18, 0x3A, 0xB4, 0x45, 0xE7, 0x35, 0x39, 0x43, 0xE5, 0x47, 0x00,
    0x50, 0xA2, 0xF4, 0x22, 0x7A, 0x7D, 0xAB, 0xC6, 0x0A, 0x00, 0x66, 0xA6,
    0xDB, 0x9F, 0x91, 0x0F, 0xC5, 0x58, 0x54, 0x7A, 0x28, 0xA6, 0x09, 0x8A,
    0x37, 0x1A, 0x00, 0xC0, 0x30, 0x85, 0x6F, 0x99, 0x91, 0x36, 0x21, 0x0E,
    0x00, 0x6D, 0x2B, 0x28, 0xBA, 0x85, 0x4F, 0x0F, 0x29, 0x06, 0xBB, 0x82,
    0x0C, 0x98, 0x47, 0x42, 0xC3, 0x00, 0x50, 0x99, 0x90, 0xD2, 0x0F, 0x9D,
    0xC4, 0x61, 0x0B, 0x00, 0x6E, 0x56, 0x38, 0xB6, 0xAC, 0x3A, 0x02, 0x23,
    0x87, 0x8E, 0xCD, 0x73, 0x8C, 0xBE, 0xD4, 0x87, 0x00, 0x70, 0x72, 0x8E,
    0x50, 0x28, 0xB2, 0x27, 0x00, 0x02, 0x00, 0x09, 0x07, 0x28, 0xAC, 0xBD,
    0x43, 0x51, 0xCE, 0x03, 0x9F, 0xE7, 0xE0, 0xBF, 0x0F, 0x77, 0x37, 0x00,
    0x40, 0xE3, 0x66, 0x42, 0x4D, 0xF0, 0xC6, 0x20, 0xF5, 0xFF, 0x95, 0x39,
    0x29, 0x62, 0x83, 0x9A, 0x5B, 0x7B, 0xFF, 0x2F, 0x45, 0x8F, 0x20, 0x56,
    0x52, 0x3D, 0xCA, 0xFB, 0xFF, 0xFF, 0xFF, 0xFF, 0xFF, 0xFF, 0xFF, 0xFF,
    0xFF, 0xFF, 0xFF, 0xFF, 0xFF, 0xFF, 0xFF, 0xFF, 0xFF, 0xFF, 0xFF, 0xFF,
    0xFF, 0xFF, 0xFF, 0xFF, 0xFF, 0xFF, 0xFF, 0xFF, 0x0F, 0x00, 0x00, 0x00,
    0xE9, 0x89, 0x95, 0x02, 0x00, 0x67, 0xCF, 0x00, 0x90, 0xC2, 0xC7, 0x25,
    0xBD, 0x0A, 0x92, 0xCF, 0x09, 0x00, 0xA6, 0xA2, 0x11, 0xAB, 0x24, 0xD3,
    0x02, 0x5C, 0x6A, 0xC7, 0xC9, 0x51, 0xE0, 0x66, 0xA9, 0xFB, 0x00, 0x20,
    0x32, 0xB7, 0xD6, 0x2C, 0xFE, 0x0C, 0x83, 0x0B, 0x00, 0x58, 0x0F, 0xB2,
    0x93, 0x40, 0xA4, 0xC9, 0x97, 0x4B, 0xD3, 0x9D, 0x2F, 0x33, 0xDC, 0xCE,
    0xDB, 0x00, 0xA0, 0xB8, 0xE2, 0x08, 0xBA, 0x38, 0x48, 0x0A, 0x0B, 0x00,
    0x92, 0xB3, 0x28, 0xDF, 0xDB, 0x1D, 0x54, 0xF2, 0xD7, 0x3D, 0x0E, 0x22,
    0x95, 0x1C, 0x35, 0x1A, 0x00, 0x90, 0x89, 0x1E, 0x88, 0x76, 0xA8, 0x29,
    0x61, 0x09, 0x00, 0x78, 0xEF, 0x6A, 0x9D, 0x49, 0x01, 0x57, 0x5A, 0x48,
    0x5C, 0xF1, 0xB6, 0x0D, 0xBC, 0x01, 0x1F, 0x02, 0xB0, 0xCC, 0x6B, 0xCE,
    0xF5, 0x86, 0x87, 0xEF, 0x04, 0x00, 0x10, 0xD6, 0x73, 0xD0, 0xD9, 0xB7,
    0x08, 0xB8, 0x66, 0x5C, 0xF8, 0xE2, 0x0E, 0x56, 0x82, 0xA2, 0x00, 0x40,
    0xDD, 0x0A, 0x83, 0x02, 0x45, 0x3B, 0xF5, 0x04, 0x00, 0x21, 0x57, 0x82,
    0x0B, 0x48, 0xF3, 0xAE, 0x9B, 0x16, 0x5F, 0xFB, 0xA3, 0x8E, 0x36, 0x1B,
    0xB0, 0x00, 0x20, 0x93, 0x5C, 0x4C, 0xFB, 0x32, 0x09, 0xB3, 0x0A, 0x00,
    0xDF, 0x09, 0x8A, 0x1D, 0x00, 0x73, 0xD9, 0x96, 0x94, 0xB5, 0xB1, 0xEB,
    0x46, 0x10, 0x31, 0x4A, 0x00, 0x90, 0xCE, 0x77, 0x1F, 0x6C, 0x9E, 0xC8,
    0xB7, 0x09, 0x00, 0x44, 0xA3, 0x18, 0x1D, 0xDB, 0x56, 0x48, 0xF5, 0xAD,
    0xCC, 0x5F, 0xAD, 0x5D, 0xC1, 0xC0, 0x59, 0x00, 0xD0, 0xF6, 0xA7, 0x6B,
    0x1E, 0xDE, 0xB7, 0x5A, 0x04, 0x00, 0x89, 0x5E, 0x91, 0x26, 0xB6, 0xD3,
    0x48, 0xE8, 0x21, 0x77, 0xB0, 0xD8, 0x42, 0x83, 0x26, 0xD5, 0x00, 0x70,
    0x52, 0xC7, 0x33, 0x87, 0xA7, 0xA3, 0x37, 0x05, 0x00, 0x35, 0xCA, 0xDB,
    0x35, 0x23, 0xB4, 0x7B, 0x73, 0xC9, 0x69, 0x3F, 0xEA, 0xAF, 0xCA, 0x26,
    0xD2, 0x00, 0xD0, 0xCF, 0xAB, 0x33, 0x98, 0xBA, 0x23, 0x68, 0x00, 0x00,
    0xBF, 0x07, 0xF3, 0xDF, 0xE2, 0x1B, 0x30, 0x7A, 0x6A, 0xF6, 0x0B, 0x5F,
    0x87, 0xA5, 0xFD, 0x80, 0x00, 0xD0, 0x29, 0x44, 0xA2, 0xB9, 0xE6, 0x63,
    0xCA, 0x08, 0x00, 0xDB, 0xAD, 0x63, 0xB6, 0xFA, 0x46, 0xC3, 0x5A, 0x5C,
    0x55, 0xB8, 0x5F, 0x85, 0x45, 0xC6, 0x7A, 0x00, 0x60, 0x1E, 0xA6, 0x1F,
    0x38, 0x60, 0xDA, 0xBE, 0x00, 0x00, 0x89, 0x6D, 0xC9, 0x1F, 0xE8, 0x7C,
    0x62, 0x46, 0x5A, 0x69, 0x36, 0xA7, 0x45, 0x5C, 0x88, 0xD6, 0x08, 0x20,
    0x47, 0xF6, 0x34, 0x00, 0xB7, 0x04, 0xAE, 0x01, 0x00, 0x41, 0xD1, 0x54,
    0x05, 0xDD, 0x6F, 0x49, 0x56, 0x00, 0x80, 0xD9, 0xC9, 0xDF, 0x09, 0x63,
    0xB9, 0xF4, 0x79, 0xDC, 0xCF, 0x43, 0xB1, 0x55, 0xDD, 0x61, 0x0C, 0x00,
    0x4D, 0x88, 0xE6, 0xD8, 0xA7, 0x5C, 0x78, 0x11, 0xF0, 0x4F, 0xFC, 0x17,
    0xA9, 0x83, 0xFB, 0xBB, 0xBB, 0xFD, 0xFF, 0xE5, 0x65, 0xE9, 0x70, 0x73,
    0x7F, 0x60, 0x46, 0xFF, 0xCF, 0x5E, 0xFD, 0x54, 0x31, 0xBC, 0xE9, 0x16,
    0xF5, 0xFF, 0xFF, 0xFF, 0xFF, 0xFF, 0xFF, 0xFF, 0xFF, 0xFF, 0xFF, 0xFF,
    0xFF, 0xFF, 0xFF, 0xFF, 0xFF, 0xFF, 0xFF, 0xFF, 0xFF, 0xFF, 0xFF, 0xFF,
    0xFF, 0xFF, 0xFF, 0xFF, 0x1F, 0x00, 0x00, 0x00, 0xAC, 0x8E, 0x73, 0xE9,
    0x69, 0x8F, 0x44, 0x05, 0x00, 0x40, 0x13, 0x1F, 0x59, 0xD6, 0x4B, 0x88,
    0xF4, 0x13, 0x85, 0xE9, 0xEB, 0x13, 0x95, 0x07, 0x03, 0x0B, 0x00, 0xE1,
    0x2B, 0x5A, 0xA3, 0xE5, 0x59, 0xD2, 0xFB, 0x00, 0x60, 0x72, 0xB3, 0xC4,
    0x8F, 0x28, 0xDC, 0x0A, 0xD4, 0xFE, 0x2C, 0x69, 0x62, 0x27, 0x62, 0x32,
    0x02, 0x00, 0x92, 0x7F, 0xA0, 0x32, 0x9C, 0xDF, 0x64, 0x34, 0x00, 0x90,
    0x0A, 0x24, 0x71, 0x98, 0x4C, 0xD0, 0xCC, 0xE3, 0xB4, 0xB0, 0x64, 0x11,
    0xE8, 0x79, 0x36, 0x04, 0x00, 0x17, 0x71, 0x9F, 0xED, 0xCD, 0xEE, 0x2D,
    0x9F, 0x00, 0xD0, 0xBA, 0xAB, 0xB1, 0xC8, 0x7A, 0xFC, 0x11, 0x13, 0x29,
    0xFE, 0xD4, 0xED, 0xA1, 0x2E, 0xD7, 0x08, 0x00, 0x00, 0x4B, 0xB7, 0x59,
    0x04, 0x86, 0x2B, 0xDF, 0x00, 0x50, 0x68, 0x4F, 0x2D, 0xF5, 0x21, 0x46,
    0x59, 0xBA, 0xDB, 0x1D, 0x79, 0xDF, 0x10, 0xB1, 0x4E, 0x0E, 0x00, 0x2E,
    0x0E, 0xBE, 0x9E, 0xAA, 0x98, 0xEA, 0xAE, 0x00, 0x10, 0x13, 0x2E, 0x8C,
    0x7E, 0x0B, 0x0C, 0xED, 0xEE, 0x7D, 0xBF, 0x7F, 0x45, 0x8B, 0x3A, 0x06,
    0x01, 0x00, 0x9D, 0x37, 0xE9, 0xEA, 0xB2, 0x6F, 0x6B, 0x69, 0x00, 0xB0,
    0xA4, 0x3D, 0xBD, 0xC8, 0x7D, 0x3E, 0xF2, 0x71, 0x21, 0x0E, 0xF1, 0x73,
    0xEE, 0x3D, 0x0D, 0x03, 0x00, 0xD8, 0x92, 0x63, 0x74, 0xA7, 0x4E, 0x01,
    0x4C, 0x00, 0x20, 0x28, 0x6D, 0xE1, 0xEC, 0x96, 0x0A, 0xA6, 0x98, 0xCE,
    0xAB, 0x0B, 0x67, 0xA2, 0x1A, 0x08, 0x06, 0x00, 0x84, 0xD0, 0xE1, 0xF5,
    0x25, 0x56, 0x48, 0x0E, 0x00, 0x00, 0x60, 0xC6, 0x81, 0x21, 0x11, 0x5E,
    0x43, 0xC6, 0x2C, 0x69, 0x49, 0x7D, 0x98, 0x59, 0x44, 0x09, 0x00, 0x5F,
    0xCD, 0xBF, 0x57, 0x28, 0x4B, 0xC0, 0x02, 0x00, 0xD0, 0x5D, 0xA7, 0xCB,
    0xCF, 0xF5, 0x59, 0x73, 0x33, 0xB0, 0x5F, 0xE5, 0x11, 0x30, 0xF0, 0x45,
    0x00, 0x00, 0x63, 0x8C, 0xEE, 0x95, 0xEE, 0x2B, 0xFC, 0x13, 0x00, 0xD0,
    0x16, 0x22, 0x58, 0x3C, 0x9F, 0x96, 0x76, 0xE8, 0x70, 0xFA, 0x06, 0xEE,
    0x5B, 0x0C, 0x5D, 0x06, 0x00, 0x51, 0xC9, 0x4F, 0x51, 0xF3, 0xE6, 0x55,
    0x1A, 0x00, 0xC0, 0x71, 0xCC, 0x8A, 0xDC, 0xB1, 0xD1, 0x24, 0x6A, 0x01,
    0x2C, 0xB5, 0x90, 0xF5, 0x34, 0x65, 0x0B, 0x00, 0x9A, 0xAC, 0x26, 0xE3,
    0xCB, 0xDA, 0x0A, 0x8D, 0x00, 0xB0, 0x13, 0x16, 0x9C, 0xD6, 0xFF, 0xD9,
    0x12, 0xB8, 0xBE, 0xC7, 0x78, 0x30, 0xA4, 0xD7, 0xA7, 0x0B, 0x00, 0x6B,
    0xCC, 0x95, 0x4B, 0x59, 0xAC, 0xD3, 0x11, 0x00, 0x00, 0x8A, 0x76, 0x26,
    0xAE, 0xF3, 0xE2, 0xC0, 0x84, 0x61, 0x9A, 0xAE, 0x23, 0x59, 0xB6, 0x3E,
    0x02, 0x00, 0x15, 0x2F, 0x15, 0x27, 0x59, 0xED, 0xBE, 0x8C, 0x00, 0x90,
    0x69, 0x79, 0x4F, 0xB1, 0xC5, 0xFF, 0x4A, 0x59, 0x5D, 0xA8, 0xC6, 0x88,
    0x07, 0xB9, 0xB9, 0x03, 0xF1, 0x1A, 0x0C, 0xFA, 0x60, 0x11, 0xC8, 0xD5,
    0x51, 0xFF, 0x4F, 0xA9, 0x85, 0x45, 0x90, 0x4D, 0x7A, 0x64, 0xFF, 0xFF,
    0xE0, 0x66, 0x9C, 0x03, 0x52, 0x57, 0x77, 0x78, 0xFF, 0xFF, 0xFF, 0xFF,
    0xFF, 0xFF, 0xFF, 0xFF, 0xFF, 0xFF, 0xFF, 0xFF, 0xFF, 0xFF, 0xFF, 0xFF,
    0xFF, 0xFF, 0xFF, 0xFF, 0xFF, 0xFF, 0xFF, 0xFF, 0xFF, 0xFF, 0xFF, 0xFF,
    0x0F, 0x00, 0x00, 0x50, 0xA3, 0x0A, 0x78, 0xF5, 0x17, 0x39, 0xF2, 0x0D,
    0x00, 0x2A, 0x22, 0xEC, 0x51, 0xF3, 0x6F, 0x59, 0x51, 0x00, 0xA0, 0x0C,
    0x10, 0x23, 0x07, 0x49, 0x36, 0x55, 0x14, 0xCF, 0x7F, 0xAF, 0x6C, 0xA9,
    0xD0, 0xA5, 0x00, 0x00, 0xD6, 0x88, 0xD0, 0xD6, 0x52, 0xC3, 0xB1, 0xA7,
    0x00, 0x80, 0x94, 0x4B, 0xFE, 0xC6, 0x51, 0x4A, 0xA0, 0x85, 0xD9, 0x0F,
    0xBB, 0xD9, 0xF2, 0x34, 0x3E, 0x04, 0x00, 0xAB, 0x50, 0xC9, 0x08, 0x87,
    0x3F, 0x2C, 0x80, 0x00, 0x40, 0x79, 0x3B, 0xD3, 0xC3, 0x6F, 0x57, 0x8C,
    0x4A, 0x87, 0x25, 0xBF, 0xA3, 0xBE, 0x5A, 0x6F, 0x04, 0x00, 0x05, 0xBC,
    0x6F, 0xA8, 0xC2, 0xAB, 0xE2, 0x93, 0x00, 0xB0, 0x82, 0x51, 0xF8, 0x8C,
    0xFF, 0x3D, 0x03, 0xEE, 0xB2, 0x0A, 0x85, 0xB0, 0xCF, 0xFA, 0x50, 0x06,
    0x00, 0xD5, 0xD0, 0xE6, 0xF6, 0x09, 0x55, 0x39, 0x54, 0x80, 0xA0, 0x09,
    0xCA, 0xA3, 0x51, 0xB2, 0xF6, 0x27, 0x2F, 0x00, 0x81, 0xB5, 0x96, 0x4C,
    0x5C, 0x12, 0x0B, 0x00, 0x71, 0x09, 0xE2, 0x34, 0x70, 0x40, 0xB8, 0xCA,
    0x00, 0xF0, 0x79, 0xF1, 0x0B, 0xCE, 0x79, 0x5A, 0x3C, 0x4F, 0x94, 0x29,
    0x4F, 0x28, 0xE0, 0x4D, 0xBA, 0x08, 0x00, 0x75, 0xE3, 0xCF, 0x95, 0xD2,
    0x2D, 0xAB, 0x71, 0x00, 0x60, 0xD0, 0xF8, 0x45, 0x01, 0xBE, 0x8C, 0x75,
    0xEC, 0xBD, 0x3E, 0xB6, 0xBE, 0x1F, 0xD6, 0xA8, 0x87, 0x00, 0x5B, 0xF5,
    0x10, 0x66, 0x30, 0x4B, 0x5B, 0x5A, 0x00, 0x00, 0x54, 0xAD, 0x9F, 0x73,
    0x2A, 0x7B, 0x6A, 0x04, 0x00, 0xB1, 0x6A, 0x5C, 0x50, 0x5E, 0x6C, 0x94,
    0xC4, 0x19, 0x1D, 0x6E, 0x3B, 0xA2, 0x8D, 0x3D, 0x6B, 0x00, 0x00, 0x70,
    0x06, 0x35, 0xBE, 0x20, 0x91, 0xFB, 0x00, 0x00, 0x75, 0x43, 0x15, 0xFA,
    0x4A, 0x46, 0x6A, 0x86, 0x4E, 0x2E, 0xEE, 0x38, 0x2E, 0x43, 0x8A, 0xAE,
    0x00, 0x60, 0x92, 0xDD, 0x40, 0x8E, 0x3E, 0xFE, 0xED, 0x0C, 0x00, 0x1F,
    0xFB, 0x78, 0x89, 0x9A, 0xAB, 0x00, 0xCD, 0x9C, 0x4F, 0x6B, 0x8E, 0x50,
    0x49, 0xFD, 0x5E, 0x00, 0xD0, 0x89, 0x85, 0x76, 0xCB, 0xCB, 0xD3, 0x2F,
    0x05, 0x00, 0xD9, 0x31, 0x11, 0xB7, 0x4F, 0x14, 0x0F, 0x3A, 0xBE, 0x67,
    0x47, 0x1C, 0x59, 0x7E, 0x15, 0x3E, 0x00, 0x60, 0x13, 0x27, 0x01, 0xD5,
    0xEB, 0xF8, 0x6D, 0x0A, 0x00, 0x54, 0xD8, 0x19, 0x0C, 0x44, 0x22, 0x23,
    0x51, 0x2E, 0x93, 0x2D, 0x56, 0x8E, 0x31, 0x0A, 0xD9, 0x00, 0xB0, 0x15,
    0x6F, 0x7A, 0xEE, 0x1B, 0x87, 0xB2, 0x0E, 0x00, 0xA2, 0x4F, 0xF1, 0x23,
    0x4E, 0x0E, 0xC1, 0x14, 0xB3, 0x0C, 0x80, 0x06, 0x3B, 0x21, 0xE6, 0x10,
    0x00, 0x80, 0xE3, 0x68, 0x09, 0x30, 0xB8, 0x73, 0xD8, 0x04, 0x00, 0xC0,
    0x35, 0xC3, 0xD1, 0xD7, 0x3D, 0x6D, 0x6B, 0xE8, 0x0C, 0x88, 0xB4, 0xF2,
    0xF0, 0x11, 0x2F, 0x00, 0x40, 0x5E, 0x44, 0xF6, 0x3C, 0x42, 0x1E, 0x95,
    0xF7, 0xFF, 0xA0, 0xF8, 0x57, 0x48, 0x3A, 0xB6, 0xD0, 0x69, 0xFF, 0xAF,
    0xF5, 0x8C, 0x2F, 0xA5, 0x48, 0x68, 0xA6, 0xF7, 0xFF, 0xFF, 0xFF, 0xFF,
    0xFF, 0xFF, 0xFF, 0xFF, 0xFF, 0xFF, 0xFF, 0xFF, 0xFF, 0xFF, 0xFF, 0xFF,
    0xFF, 0xFF, 0xFF, 0xFF, 0xFF, 0xFF, 0xFF, 0xFF, 0xFF, 0xFF, 0xFF, 0xFF,
    0x0F, 0x00, 0x00, 0x38, 0x52, 0x61, 0x2E, 0x08, 0x36, 0xC7, 0xF7, 0x00,
    0xD0, 0xDC, 0x1F, 0x80, 0x38, 0x84, 0x40, 0xCF, 0x0D, 0x00, 0x05, 0xF0,
    0xF2, 0xCE, 0x65, 0x95, 0x2C, 0xEC, 0xDE, 0x96, 0x68, 0xF7, 0xD1, 0x1B,
    0xE5, 0xDA, 0x00, 0xD0, 0xE1, 0xB7, 0xD6, 0x46, 0x0B, 0xE0, 0xFD, 0x0C,
    0x00, 0x2D, 0xC5, 0x1E, 0x9E, 0xB2, 0x4D, 0xEC, 0x06, 0xEB, 0xF1, 0x76,
    0xC8, 0xA5, 0x92, 0x4F, 0x2B, 0x00, 0x40, 0x79, 0x7A, 0xAB, 0x91, 0x3E,
    0xF7, 0x10, 0x0A, 0x00, 0x3E, 0xAC, 0xDA, 0x5D, 0x90, 0xE6, 0x32, 0x16,
    0x83, 0x1E, 0xF3, 0x20, 0x11, 0x36, 0x2A, 0x6D, 0x00, 0xD0, 0xE8, 0x1C,
    0xC2, 0x56, 0x0D, 0xA5, 0x05, 0x02, 0x00, 0x1E, 0x1B, 0xD0, 0x3D, 0xE8,
    0x02, 0x84, 0x92, 0xFC, 0xC9, 0xA0, 0xA7, 0xC9, 0x1E, 0x0F, 0x4D, 0x00,
    0xF0, 0x03, 0xF7, 0xA3, 0x78, 0xB5, 0x1B, 0x81, 0x07, 0x00, 0x52, 0xFC,
    0x9A, 0xEF, 0x83, 0xA5, 0x05, 0x10, 0x13, 0x9F, 0x17, 0x44, 0x20, 0x25,
    0x21, 0xFC, 0x00, 0x00, 0xD9, 0x86, 0x71, 0xF3, 0x23, 0xA6, 0x68, 0x07,
    0x00, 0x0C, 0x8E, 0xC9, 0xA2, 0xBD, 0x2B, 0xCD, 0x2A, 0x47, 0xF1, 0xD5,
    0x97, 0xBA, 0x8A, 0x83, 0xFB, 0x00, 0x40, 0xBB, 0x62, 0x13, 0x92, 0x53,
    0x26, 0xBD, 0x09, 0x00, 0xF9, 0x0C, 0x0B, 0xB6, 0xEE, 0x2C, 0x5E, 0x9F,
    0xEB, 0x4F, 0xCD, 0xBB, 0x91, 0xD4, 0x60, 0xA4, 0x00, 0x60, 0xBD, 0x1B,
    0xD3, 0x85, 0xB3, 0x04, 0x30, 0x09, 0x00, 0x77, 0xC8, 0xE6, 0x04, 0xA0,
    0x57, 0x58, 0x03, 0x5C, 0x31, 0x9C, 0x12, 0xF8, 0x94, 0xFB, 0xEC, 0x00,
    0x20, 0x8B, 0x19, 0x62, 0x9E, 0xE9, 0xE7, 0x59, 0x04, 0x00, 0x63, 0x0A,
    0x50, 0x56, 0xE4, 0xD0, 0xAC, 0x6C, 0x9D, 0x89, 0x71, 0x2A, 0x0A, 0xC2,
    0xB9, 0xE6, 0x00, 0x00, 0xBA, 0xDB, 0x6C, 0xB7, 0x97, 0x4E, 0xB5, 0x00,
    0x00, 0x0A, 0xE4, 0x96, 0xEB, 0x87, 0xEF, 0x64, 0xEA, 0xEA, 0xE7, 0xB2,
    0x43, 0x5B, 0x9B, 0x29, 0x5F, 0x00, 0x30, 0xDE, 0xED, 0xD2, 0x9F, 0x6C,
    0x99, 0x21, 0x01, 0x00, 0xB7, 0x46, 0xDA, 0x31, 0xC0, 0xA5, 0x4F, 0x12,
    0x49, 0x00, 0xD2, 0x5B, 0x8B, 0x2C, 0x2A, 0x91, 0x00, 0x50, 0x79, 0x1C,
    0x0F, 0x46, 0x97, 0x27, 0x35, 0x06, 0x00, 0x7C, 0x72, 0x49, 0x26, 0x40,
    0x32, 0x77, 0x7A, 0x1A, 0xEA, 0x76, 0x07, 0xA5, 0xAA, 0x0C, 0xBB, 0x00,
    0x20, 0x09, 0xE4, 0xD2, 0x88, 0x5A, 0xCD, 0x3C, 0x0F, 0x00, 0x64, 0x6D,
    0x2C, 0x98, 0x44, 0xC5, 0x18, 0xA9, 0x41, 0xD2, 0x5D, 0xC3, 0x5B, 0x37,
    0xAB, 0x55, 0x00, 0xF0, 0x96, 0x8A, 0x8A, 0x22, 0x96, 0x81, 0xED, 0x0B,
    0x00, 0xAA, 0x78, 0x27, 0xA8, 0x7E, 0x9C, 0x6D, 0x9C, 0x73, 0xBA, 0xFB,
    0x99, 0xF0, 0x31, 0xF3, 0x2C, 0x00, 0x50, 0x9D, 0x3D, 0x03, 0xCE, 0x56,
    0xE8, 0x5D, 0x06, 0x00, 0x73, 0x99, 0x10, 0x7F, 0xA1, 0xC8, 0x3A, 0x17,
    0xE8, 0xF7, 0x64, 0x0E, 0x84, 0xAE, 0x5B, 0x84, 0xF0, 0xAF, 0x02, 0x1B,
    0xA7, 0xB8, 0xAF, 0xCD, 0x90, 0xF2, 0xFF, 0x0C, 0xE9, 0xF8, 0x96, 0x1C,
    0xAC, 0x8B, 0xBC, 0xFF, 0xFF, 0xFF, 0xFF, 0xFF, 0xFF, 0xFF, 0xFF, 0xFF,
    0xFF, 0xFF, 0xFF, 0xFF, 0xFF, 0xFF, 0xFF, 0xFF, 0xFF, 0xFF, 0xFF, 0xFF,
    0xFF, 0xFF, 0xFF, 0xFF, 0xFF, 0xFF, 0xFF, 0xFF, 0x0F, 0x00, 0x00, 0x00,
    0xA6, 0x6C, 0xAB, 0x94, 0x70, 0x2A, 0x04, 0x34, 0x92, 0x03, 0xBB, 0x79,
    0xE1, 0x05, 0x7E, 0xE3, 0x00, 0x80, 0x4C, 0x96, 0xFD, 0x09, 0x14, 0x7A,
    0xA7, 0x09, 0x00, 0xBC, 0xB7, 0xA1, 0x8F, 0x45, 0x07, 0x20, 0xC5, 0xBE,
    0x66, 0xBC, 0xE4, 0xD7, 0x96, 0x94, 0x9A, 0x08, 0x00, 0x5B, 0x8F, 0x51,
    0xF5, 0x17, 0x08, 0x5C, 0x0B, 0x00, 0x17, 0x3A, 0xB3, 0xBC, 0xAD, 0xB8,
    0xD0, 0xB7, 0xFA, 0xA8, 0xFC, 0x68, 0x2B, 0x82, 0x10, 0xA5, 0x00, 0xB0,
    0xD7, 0x9B, 0x76, 0xD3, 0x7A, 0xA7, 0x6C, 0x08, 0x00, 0x1B, 0xAB, 0x68,
    0xD8, 0x69, 0xFA, 0xF6, 0x3B, 0x09, 0x86, 0x1A, 0x37, 0x6B, 0xC0, 0x93,
    0xE0, 0x00, 0x80, 0x2D, 0x88, 0xC8, 0x11, 0x58, 0x87, 0x4F, 0x0D, 0x00,
    0x57, 0xDE, 0xBA, 0xBA, 0x59, 0xDB, 0x09, 0xF3, 0xA2, 0x08, 0x18, 0x9F,
    0x8B, 0xDF, 0x1F, 0x6C, 0x00, 0xB0, 0x47, 0xAD, 0x18, 0x7F, 0x51, 0x4B,
    0xE7, 0x05, 0x00, 0xA2, 0xEF, 0xCC, 0xAF, 0x39, 0x26, 0xA5, 0x61, 0x95,
    0xCA, 0x4C, 0x10, 0xA9, 0x7E, 0xDE, 0x43, 0x00, 0xB0, 0x28, 0xFE, 0x31,
    0x26, 0x5C, 0xE4, 0xD7, 0x0A, 0x00, 0x3C, 0xCA, 0x7C, 0x56, 0x51, 0x4F,
    0xC4, 0x3A, 0x51, 0xED, 0x96, 0xD4, 0x37, 0x24, 0xCD, 0x5A, 0x00, 0xD0,
    0x13, 0x77, 0x01, 0xC2, 0x25, 0x03, 0x6D, 0x06, 0x00, 0x52, 0xCB, 0xCC,
    0xDC, 0x2B, 0xF3, 0x35, 0x49, 0x6A, 0xDF, 0xD3, 0xBB, 0xB4, 0x83, 0xE4,
    0xB9, 0x00, 0xE0, 0xD6, 0xCF, 0xBE, 0xB6, 0x06, 0x27, 0x24, 0x0D, 0x00,
    0xC2, 0xC3, 0xB5, 0xE1, 0xB6, 0x3F, 0xC7, 0x0F, 0x83, 0x73, 0x17, 0xC1,
    0xFB, 0xDF, 0xCB, 0x59, 0x08, 0xE0, 0xE3, 0x04, 0x4B, 0xA1, 0x23, 0x31,
    0x2E, 0x0A, 0x00, 0xE9, 0xCD, 0x8C, 0x23, 0x0F, 0xC4, 0xE5, 0x70, 0x1C,
    0x69, 0x22, 0xE7, 0x23, 0x84, 0xC0, 0xE7, 0x00, 0xC0, 0x9C, 0xC0, 0xA5,
    0xA2, 0x92, 0xA6, 0x6A, 0x00, 0x00, 0x2A, 0x98, 0xFB, 0x5A, 0x0B, 0x0B,
    0x35, 0xA6, 0x9E, 0x1D, 0x94, 0xE6, 0xB7, 0xAB, 0x13, 0x44, 0x00, 0x70,
    0x97, 0x9A, 0x41, 0xF1, 0x96, 0x51, 0x80, 0x07, 0x00, 0xC3, 0x2B, 0x08,
    0xBF, 0x8C, 0xC0, 0x3A, 0xB7, 0x82, 0xB1, 0x72, 0x5A, 0xC7, 0x2A, 0x78,
    0xCC, 0x00, 0x20, 0xD3, 0xDE, 0xD8, 0xEA, 0x32, 0xDF, 0xEB, 0x05, 0x00,
    0x37, 0x61, 0xAC, 0x34, 0xCA, 0x6D, 0x2D, 0x1F, 0x99, 0xE8, 0xCF, 0xAD,
    0x0F, 0x5D, 0xB8, 0xEE, 0x00, 0x10, 0x12, 0xB0, 0x7E, 0x06, 0xA0, 0xD3,
    0xF0, 0x00, 0x08, 0xC3, 0xE1, 0x23, 0x23, 0x38, 0x7B, 0x67, 0x1F, 0x1C,
    0x82, 0x60, 0xCB, 0x4F, 0x83, 0x2C, 0xAD, 0x00, 0x20, 0x9E, 0x91, 0x16,
    0xB2, 0x48, 0xF7, 0xF1, 0x0A, 0x00, 0x0B, 0x26, 0x6B, 0x3C, 0x09, 0xF6,
    0x97, 0xE0, 0xDA, 0xC4, 0x79, 0xC8, 0x63, 0xE0, 0xB6, 0xB5, 0x00, 0x10,
    0x81, 0xB7, 0xC7, 0x06, 0x16, 0xA1, 0x4C, 0x0E, 0xF0, 0x12, 0x8E, 0x99,
    0xD7, 0x35, 0x09, 0xB1, 0x55, 0xFF, 0x4F, 0xC4, 0xBC, 0x6C, 0x24, 0xBC,
    0x7B, 0xF5, 0xFA, 0xFF, 0x93, 0x4E, 0x0C, 0x9F, 0x81, 0x49, 0x73, 0x71,
    0xFF, 0xFF, 0xFF, 0xFF, 0xFF, 0xFF, 0xFF, 0xFF, 0xFF, 0xFF, 0xFF, 0xFF,
    0xFF, 0xFF, 0xFF, 0xFF, 0xFF, 0xFF, 0xFF, 0xFF, 0xFF, 0xFF, 0xFF, 0xFF,
    0xFF, 0xFF, 0xFF, 0xFF, 0x0F, 0x00, 0x00, 0x40, 0x36, 0x36, 0xB8, 0x08,
    0xBC, 0xE9, 0x05, 0x06, 0x00, 0xF6, 0xD3, 0xBE, 0x05, 0x7B, 0xC3, 0x22,
    0x81, 0xB2, 0xC6, 0xAB, 0x71, 0x60, 0x20, 0x51, 0xA0, 0x00, 0xE0, 0x22,
    0x6D, 0xFA, 0x9D, 0x26, 0x98, 0x91, 0x0E, 0x00, 0x34, 0xA4, 0x26, 0xBC,
    0xFD, 0x6B, 0xB3, 0xB1, 0xE7, 0x68, 0x5A, 0xCD, 0x28, 0x15, 0x97, 0x79,
    0x00, 0x60, 0xC0, 0x6F, 0x69, 0x4A, 0xC7, 0xC9, 0xBF, 0x09, 0x00, 0x81,
    0xCE, 0xAE, 0x85, 0xF1, 0x71, 0x28, 0xB7, 0x01, 0xEE, 0xDF, 0x86, 0x7B,
    0x48, 0x96, 0x23, 0x00, 0xC0, 0x45, 0x27, 0x35, 0x9B, 0xF6, 0x29, 0x64,
    0x05, 0x00, 0xBC, 0x11, 0x60, 0x8B, 0xD5, 0x42, 0x93, 0xDE, 0xE4, 0x70,
    0x10, 0xFA, 0xD9, 0xA8, 0x13, 0x58, 0x00, 0xB0, 0xFE, 0x43, 0x4D, 0x4A,
    0x42, 0xAD, 0xB0, 0x05, 0x00, 0x9A, 0x70, 0xB7, 0x8B, 0xB1, 0x89, 0x7B,
    0x2A, 0x50, 0x57, 0x3C, 0x7E, 0xFD, 0xE9, 0x4C, 0x30, 0x00, 0x50, 0x5A,
    0x05, 0xAF, 0xA3, 0xF2, 0x88, 0x5E, 0x00, 0x00, 0x73, 0xFD, 0x57, 0x49,
    0x3B, 0xAD, 0xA6, 0x0A, 0xFB, 0xEA, 0x0D, 0xE6, 0xB3, 0x4A, 0xD7, 0x48,
    0x00, 0x60, 0xA6, 0x4B, 0x4D, 0xC2, 0xBF, 0xDF, 0xF2, 0x0A, 0x00, 0xBF,
    0x7A, 0xD2, 0xD3, 0x9A, 0xA3, 0x0B, 0x0C, 0x14, 0x46, 0x2C, 0xF5, 0x60,
    0xB7, 0x9D, 0x37, 0x00, 0x70, 0x35, 0x19, 0x2E, 0x2E, 0x57, 0x3B, 0x2F,
    0x04, 0x00, 0xF5, 0x64, 0xA3, 0xDF, 0x61, 0x12, 0x99, 0x2A, 0x90, 0xF7,
    0x14, 0x0A, 0xDD, 0xB9, 0xD5, 0x8F, 0x00, 0x20, 0x77, 0x28, 0xB6, 0x8F,
    0x63, 0x1E, 0x00, 0x01, 0x00, 0x88, 0xCA, 0xA2, 0x9B, 0xC3, 0x66, 0x3D,
    0x6C, 0xAF, 0x20, 0x28, 0x52, 0x3A, 0x0C, 0x22, 0x01, 0x00, 0xC0, 0x15,
    0x3C, 0x9F, 0xDC, 0x0F, 0x72, 0x90, 0x01, 0x00, 0xDE, 0x37, 0x81, 0xE5,
    0x61, 0x02, 0x74, 0x1F, 0xAF, 0xEB, 0x5F, 0x54, 0x1F, 0x05, 0x05, 0x29,
    0x00, 0x20, 0xC9, 0x15, 0x49, 0xD0, 0xE6, 0x94, 0xD8, 0x05, 0x00, 0xD3,
    0x87, 0x68, 0xF9, 0x6C, 0x1C, 0x42, 0x4F, 0xA5, 0x6B, 0xDE, 0xE1, 0xC9,
    0x81, 0x65, 0xF4, 0x00, 0xD0, 0x96, 0x9B, 0xD8, 0x42, 0xFE, 0x39, 0x75,
    0x05, 0x00, 0x1C, 0xF2, 0xBC, 0x09, 0x08, 0xF3, 0xA0, 0xD1, 0xD5, 0x35,
    0xF6, 0x11, 0x64, 0x22, 0x82, 0x75, 0x00, 0x20, 0x63, 0x6A, 0x71, 0x39,
    0xAD, 0x39, 0x40, 0x05, 0x00, 0x7C, 0xE7, 0x00, 0xCA, 0x2C, 0xBB, 0x26,
    0xBA, 0x80, 0xDA, 0x28, 0x87, 0x07, 0x6A, 0x95, 0x35, 0x00, 0xF0, 0xB8,
    0xC5, 0x48, 0x73, 0x03, 0xFD, 0x82, 0x03, 0x00, 0x25, 0x66, 0xD8, 0xEF,
    0x41, 0x72, 0x5F, 0x96, 0x80, 0x1B, 0xFD, 0x71, 0x40, 0xED, 0x4E, 0xDB,
    0x00, 0x80, 0x40, 0xD9, 0x37, 0xA9, 0xED, 0xEA, 0xD3, 0x08, 0x00, 0xE4,
    0xD1, 0x65, 0x21, 0xC5, 0x2F, 0xE4, 0xCA, 0xB5, 0xBB, 0x8B, 0x16, 0x94,
    0x0F, 0x55, 0xB6, 0x00, 0xF0, 0x06, 0x5C, 0x59, 0x69, 0x36, 0x7E, 0x44,
    0xF0, 0xFF, 0xD7, 0xDC, 0x57, 0x78, 0x60, 0x56, 0xD6, 0x87, 0xFF, 0x2F,
    0x1A, 0xED, 0x5D, 0xC6, 0x36, 0x8D, 0xCE, 0xFA, 0xFF, 0xFF, 0xFF, 0xFF,
    0xFF, 0xFF, 0xFF, 0xFF, 0xFF, 0xFF, 0xFF, 0xFF, 0xFF, 0xFF, 0xFF, 0xFF,
    0xFF, 0xFF, 0xFF, 0xFF, 0xFF, 0xFF, 0xFF, 0xFF, 0xFF, 0xFF, 0xFF, 0xFF,
    0x0F, 0x00, 0x00, 0xB8, 0x10, 0x00, 0xBF, 0xC5, 0x63, 0x09, 0xCA, 0x00,
    0x40, 0x3B, 0x55, 0xFB, 0xDC, 0x39, 0xB8, 0xCE, 0x08, 0x00, 0xA6, 0x95,
    0x17, 0x4B, 0x7A, 0x34, 0x0E, 0xB7, 0x11, 0xD3, 0xD4, 0x71, 0xC1, 0xF5,
    0x4E, 0x21, 0x00, 0x20, 0x69, 0x6E, 0xA9, 0x19, 0x69, 0x59, 0x51, 0x0D,
    0x00, 0x48, 0xCE, 0x17, 0x01, 0xA2, 0x8F, 0x72, 0x0E, 0x90, 0x9D, 0xF5,
    0xE8, 0x7A, 0xE4, 0xD6, 0xAD, 0x00, 0x00, 0x88, 0xD1, 0x23, 0xCC, 0x16,
    0x59, 0x1A, 0x2A, 0x00, 0xD3, 0xF1, 0x5D, 0xD7, 0x1D, 0xE6, 0x7F, 0xC9,
    0x00, 0x00, 0xF4, 0x59, 0xD0, 0xBB, 0xE2, 0x08, 0x8F, 0x5A, 0xC9, 0x67,
    0x07, 0x22, 0x40, 0xA7, 0x61, 0x01, 0x00, 0x05, 0x66, 0x9A, 0x33, 0x82,
    0x75, 0x8D, 0x10, 0x00, 0xE0, 0xE7, 0x0E, 0x8C, 0xBB, 0x51, 0x5F, 0x5C,
    0x2F, 0x57, 0xC3, 0xFA, 0xC8, 0x22, 0xE9, 0x22, 0x02, 0x00, 0x38, 0x5B,
    0xB4, 0x2A, 0x64, 0x53, 0xF6, 0x77, 0x00, 0xF0, 0xF6, 0x74, 0xD5, 0x72,
    0x49, 0x80, 0x8C, 0x6B, 0x33, 0x9E, 0x84, 0xE7, 0xC1, 0xAA, 0xE5, 0x0B,
    0x00, 0xE7, 0x3C, 0x0E, 0x75, 0x51, 0xDD, 0xB4, 0x25, 0x00, 0x00, 0x06,
    0x29, 0x4F, 0x6E, 0xF7, 0x21, 0xCF, 0x21, 0x11, 0x4A, 0x84, 0x61, 0x48,
    0xDD, 0x11, 0x06, 0x00, 0xBF, 0x5B, 0x67, 0x6F, 0x10, 0x45, 0xA7, 0x15,
    0x00, 0xB0, 0xBD, 0xC9, 0xFF, 0x0D, 0x5A, 0x6D, 0x69, 0x04, 0x70, 0x5D,
    0x10, 0xD0, 0x6F, 0x0F, 0xD1, 0x08, 0x00, 0xF5, 0xD0, 0x32, 0x61, 0x54,
    0x63, 0x07, 0xDB, 0x00, 0xE0, 0xB1, 0x3E, 0x88, 0x45, 0x72, 0x98, 0x0A,
    0xDD, 0x59, 0xA0, 0x95, 0xC0, 0x10, 0xA2, 0xF4, 0x07, 0x00, 0x92, 0xE9,
    0xB9, 0x50, 0xE5, 0x93, 0xE2, 0xAA, 0x00, 0x90, 0x52, 0x5D, 0xF4, 0xFD,
    0x59, 0x1C, 0x47, 0x49, 0x23, 0xD0, 0xC2, 0xFA, 0x93, 0x66, 0x07, 0x0A,
    0x00, 0x0A, 0x60, 0xC5, 0x9D, 0xDA, 0x24, 0x0C, 0xE1, 0x00, 0x90, 0x9C,
    0x57, 0x26, 0xA5, 0x37, 0xC7, 0xEE, 0x56, 0x66, 0x80, 0x54, 0x45, 0x1A,
    0x85, 0x18, 0x0B, 0x00, 0x4B, 0x7A, 0x39, 0x61, 0x47, 0xC5, 0x56, 0x78,
    0x00, 0xE0, 0x04, 0x89, 0xFC, 0x02, 0x77, 0x7B, 0xDC, 0x95, 0x6B, 0x39,
    0xC4, 0x60, 0xE6, 0x3D, 0x3C, 0x0F, 0x00, 0xD1, 0xCF, 0x6C, 0x12, 0x3C,
    0xFC, 0x35, 0x92, 0x00, 0xA0, 0xA7, 0x10, 0xB1, 0x95, 0xE2, 0x09, 0xB6,
    0x56, 0x1A, 0x4E, 0x42, 0x1F, 0xE3, 0x59, 0xBD, 0x02, 0x00, 0xAD, 0x14,
    0xDB, 0x44, 0x20, 0xEF, 0x66, 0x19, 0x00, 0xA0, 0xAB, 0x08, 0x40, 0xD7,
    0x05, 0x91, 0x30, 0xB7, 0xF3, 0x7C, 0x79, 0x2B, 0x9A, 0xDE, 0x4C, 0x01,
    0x00, 0xB3, 0xCD, 0x63, 0xCF, 0x99, 0x66, 0x13, 0xE6, 0x00, 0x40, 0x4E,
    0x8B, 0x83, 0x43, 0x08, 0x48, 0x89, 0xEC, 0x64, 0xDA, 0x5C, 0x86, 0xE0,
    0x91, 0xB3, 0x06, 0x00, 0x57, 0x9E, 0xB7, 0xFA, 0xBF, 0x93, 0xCF, 0xDB,
    0xF0, 0x9F, 0xC8, 0x39, 0x40, 0x80, 0xE7, 0x5B, 0x79, 0xFA, 0xFF, 0xFC,
    0x9E, 0x97, 0x87, 0xC9, 0x7F, 0xAF, 0xA4, 0xFF, 0x4F, 0xCF, 0x81, 0x03,
    0x59, 0xCE, 0xFC, 0x75, 0xFD, 0xFF, 0xFF, 0xFF, 0xFF, 0xFF, 0xFF, 0xFF,
    0xFF, 0xFF, 0xFF, 0xFF, 0xFF, 0xFF, 0xFF, 0xFF, 0xFF, 0xFF, 0xFF, 0xFF,
    0xFF, 0xFF, 0xFF, 0xFF, 0xFF, 0xFF, 0xFF, 0xFF, 0x0F, 0x00, 0x00, 0x00,
    0x24, 0xAF, 0x51, 0x76, 0x11, 0x8C, 0xE2, 0xE6, 0x00, 0x51, 0xE0, 0xC6,
    0xB1, 0x76, 0x77, 0xE2, 0x1C, 0xBA, 0xF5, 0x1D, 0x11, 0xC1, 0x31, 0x63,
    0xD7, 0x0A, 0x00, 0xB9, 0x72, 0xF9, 0x80, 0x68, 0xE6, 0x37, 0xB0, 0x00,
    0xD0, 0xC2, 0xAF, 0xCD, 0xDC, 0x52, 0xA5, 0x01, 0xC2, 0xFA, 0xB6, 0xE0,
    0x9E, 0xF5, 0xA9, 0x48, 0x09, 0x00, 0x53, 0x65, 0x85, 0x20, 0xA7, 0x25,
    0x64, 0x70, 0x00, 0x10, 0x63, 0x7E, 0xAA, 0x2D, 0x99, 0xBC, 0x4A, 0xE4,
    0xD6, 0xC8, 0x8C, 0xD1, 0x0A, 0x12, 0x5F, 0x04, 0x01, 0xB8, 0x5B, 0x66,
    0xA7, 0xC0, 0x4D, 0x80, 0xA2, 0x00, 0xE0, 0xD1, 0xDC, 0xF4, 0x3C, 0xBF,
    0xBD, 0x5B, 0x1C, 0x84, 0x63, 0x8B, 0xF3, 0x85, 0x74, 0x13, 0x06, 0x00,
    0xA2, 0x08, 0x72, 0x42, 0x71, 0x70, 0x06, 0xEF, 0x00, 0xD0, 0x28, 0x27,
    0xB5, 0xDE, 0xD8, 0x44, 0xA6, 0xD6, 0xE9, 0x93, 0xDE, 0x76, 0x7B, 0x1B,
    0x5F, 0x0A, 0x00, 0xA5, 0xB4, 0x86, 0x2B, 0x73, 0x62, 0xE4, 0x72, 0x02,
    0x50, 0x0E, 0x9D, 0xEB, 0x8D, 0xFC, 0xE3, 0x19, 0x56, 0xDF, 0xA4, 0x7E,
    0x13, 0xB3, 0x50, 0x12, 0x0E, 0x00, 0x58, 0xB6, 0xAA, 0x94, 0x7C, 0x2A,
    0x3C, 0xDF, 0x00, 0x50, 0x81, 0xCC, 0x9D, 0xCC, 0x5A, 0x31, 0x4C, 0x71,
    0x7A, 0xB3, 0xDE, 0x0A, 0xF9, 0x75, 0x1B, 0x0D, 0x00, 0xBC, 0x6A, 0xB7,
    0x8A, 0x01, 0xA8, 0xF5, 0xC6, 0x00, 0xA0, 0x60, 0x2D, 0x83, 0x29, 0x63,
    0x7D, 0x76, 0x29, 0xCF, 0xFE, 0x46, 0x2C, 0xD0, 0xC5, 0xF2, 0x00, 0x00,
    0x21, 0x51, 0x62, 0x61, 0xFC, 0x1F, 0x7C, 0x41, 0x00, 0xF0, 0x48, 0x80,
    0x7D, 0xBF, 0x7A, 0x0C, 0x71, 0x65, 0x5C, 0xC5, 0x6F, 0xF7, 0x9C, 0x4C,
    0x54, 0x08, 0x00, 0x9A, 0xAE, 0x70, 0x00, 0x2D, 0x74, 0x45, 0xF3, 0x00,
    0x40, 0xEF, 0x5C, 0xA7, 0xCF, 0x64, 0xC5, 0xA8, 0x2F, 0x9E, 0xC3, 0x47,
    0x60, 0x15, 0x11, 0x64, 0x0E, 0x00, 0x45, 0x88, 0xAB, 0x5F, 0xBC, 0x87,
    0x17, 0x20, 0x00, 0x30, 0xAB, 0xBC, 0x48, 0x52, 0x6E, 0x48, 0x89, 0x78,
    0xF8, 0x6E, 0x01, 0xB6, 0x45, 0x34, 0x16, 0x0A, 0x00, 0x5C, 0x81, 0x99,
    0x77, 0x78, 0xBA, 0x0B, 0xC6, 0x00, 0xD0, 0xA9, 0x03, 0xD2, 0xED, 0xAB,
    0x41, 0x74, 0xA3, 0xEA, 0x88, 0xAF, 0xA6, 0x69, 0x3D, 0x85, 0x01, 0x00,
    0xFA, 0xD4, 0xB1, 0xCA, 0x6C, 0x1D, 0x49, 0x38, 0x00, 0x40, 0x8A, 0xE8,
    0x5A, 0xC8, 0x08, 0xCB, 0xFB, 0x40, 0xB6, 0x9D, 0xF1, 0x06, 0x55, 0x23,
    0x09, 0x05, 0x00, 0x19, 0x10, 0xE4, 0xB6, 0xFC, 0xAD, 0xDB, 0xE3, 0x00,
    0x80, 0x03, 0x50, 0xB9, 0x2D, 0xDF, 0x54, 0x20, 0x79, 0x7B, 0x05, 0x3D,
    0x22, 0xFE, 0x5A, 0x78, 0x02, 0x00, 0xA3, 0x4B, 0x07, 0xD9, 0xCA, 0xC6,
    0x2B, 0xB1, 0x00, 0x60, 0xBA, 0xBC, 0x86, 0xC9, 0x09, 0x94, 0x9C, 0x1D,
    0x6E, 0x01, 0x96, 0xEC, 0x5E, 0x25, 0x08, 0x01, 0xF0, 0x65, 0x45, 0x8E,
    0x5E, 0x0C, 0x04, 0xAC, 0x79, 0xFF, 0x3F, 0x49, 0x28, 0x06, 0xD2, 0xA0,
    0x51, 0xAE, 0xF1, 0xFF, 0xED, 0xA6, 0x83, 0xF1, 0xE4, 0x51, 0xC2, 0x4C,
    0xFF, 0xFF, 0xFF, 0xFF, 0xFF, 0xFF, 0xFF, 0xFF, 0xFF, 0xFF, 0xFF, 0xFF,
    0xFF, 0xFF, 0xFF, 0xFF, 0xFF, 0xFF, 0xFF, 0xFF, 0xFF, 0xFF, 0xFF, 0xFF,
    0xFF, 0xFF, 0xFF, 0xFF, 0x0F, 0x00, 0x00, 0xE0, 0x09, 0x9A, 0xB4, 0xE4,
    0x47, 0x0E, 0x58, 0x04, 0x00, 0x6B, 0x45, 0x64, 0xC9, 0xBB, 0xD7, 0xCA,
    0x31, 0x00, 0x10, 0x24, 0x95, 0x65, 0xC6, 0x6E, 0xEC, 0xE1, 0x89, 0x15,
    0x75, 0x9B, 0xD4, 0xE3, 0x86, 0x3D, 0x0D, 0x00, 0xC1, 0x74, 0xC9, 0x15,
    0xC4, 0x64, 0xE6, 0x7B, 0x00, 0x60, 0x30, 0xE2, 0xF3, 0x31, 0xC7, 0x1D,
    0x35, 0x08, 0x6C, 0x84, 0x98, 0xD4, 0x58, 0xF9, 0xB0, 0x07, 0x00, 0xAB,
    0x89, 0xBB, 0x73, 0xD6, 0x10, 0x8B, 0x53, 0x00, 0x70, 0xCF, 0x00, 0xF9,
    0xA2, 0x3F, 0xEE, 0x9D, 0x69, 0xBE, 0x54, 0x58, 0x06, 0x52, 0xE2, 0xB3,
    0x01, 0x00, 0x3C, 0xC2, 0x77, 0xEF, 0x3D, 0x3D, 0x6D, 0x71, 0x00, 0x10,
    0x1F, 0x8A, 0xC4, 0xD2, 0x2A, 0x45, 0xD9, 0xB8, 0xE5, 0x73, 0xCF, 0x14,
    0xDA, 0x62, 0x42, 0x02, 0x00, 0x07, 0x61, 0x94, 0xC9, 0xC4, 0xB5, 0xE2,
    0xB3, 0x00, 0x30, 0xD4, 0x35, 0x36, 0x03, 0xE5, 0xC6, 0x2E, 0xBE, 0x64,
    0x44, 0xBF, 0x90, 0xCD, 0xB6, 0xE4, 0x09, 0x00, 0xF9, 0xE8, 0x6C, 0x8E,
    0xAA, 0xC5, 0xCB, 0xD8, 0x00, 0xD0, 0x50, 0x17, 0x18, 0x05, 0xCF, 0x0F,
    0x3E, 0xAE, 0xFE, 0xAE, 0x33, 0xD8, 0x91, 0x00, 0x48, 0x03, 0x00, 0x1F,
    0xB8, 0xB1, 0x15, 0xA5, 0x18, 0xF6, 0x56, 0x00, 0x50, 0xDD, 0x69, 0x74,
    0xA4, 0xA8, 0x08, 0xD8, 0xDA, 0x0F, 0xF9, 0x21, 0x95, 0xD2, 0x5C, 0x67,
    0x08, 0x00, 0x15, 0x5E, 0x08, 0xB5, 0x7A, 0x12, 0x09, 0xA5, 0x00, 0x40,
    0x61, 0xE9, 0xD6, 0xE5, 0x2D, 0x8D, 0xD8, 0xD2, 0x29, 0xF2, 0x35, 0xE1,
    0x4C, 0x73, 0xD9, 0x0B, 0x00, 0x6D, 0x58, 0x67, 0xB1, 0x1F, 0x46, 0xA5,
    0x7B, 0x00, 0xE0, 0xF7, 0x91, 0x96, 0x7A, 0xC0, 0x15, 0x23, 0xFB, 0x10,
    0xCD, 0x2C, 0xF5, 0x3A, 0xC4, 0x6D, 0x0B, 0x00, 0xB1, 0x48, 0x49, 0x64,
    0x99, 0x3F, 0x5D, 0x8E, 0x00, 0xB0, 0x0B, 0x4B, 0x1A, 0x05, 0x25, 0x73,
    0xFD, 0xF7, 0x36, 0xE2, 0x92, 0x56, 0x1D, 0x6C, 0x55, 0x05, 0x00, 0x9D,
    0xB7, 0xB8, 0x96, 0x3F, 0x31, 0x7C, 0xA6, 0x00, 0x30, 0xF7, 0x70, 0x38,
    0xBE, 0x9F, 0x22, 0xE0, 0xEA, 0x0A, 0x5F, 0xEA, 0x29, 0x45, 0x13, 0x50,
    0x08, 0x00, 0x84, 0xDC, 0x47, 0x7E, 0xB1, 0x3D, 0x3A, 0x2E, 0x00, 0x90,
    0x7E, 0x23, 0x1F, 0xB5, 0xA4, 0xDB, 0x37, 0xE0, 0x29, 0x42, 0xD5, 0xE7,
    0x0B, 0xC8, 0xB9, 0x04, 0x00, 0x40, 0x18, 0xF8, 0x1B, 0x08, 0x8B, 0x9B,
    0xC3, 0x00, 0x20, 0xAE, 0x08, 0x73, 0xAF, 0xEA, 0x26, 0x27, 0x20, 0x55,
    0x20, 0xE4, 0x41, 0x6A, 0x44, 0x0B, 0x05, 0x00, 0xE8, 0x95, 0x40, 0x57,
    0x00, 0x99, 0x59, 0xC9, 0x00, 0xF0, 0x51, 0x54, 0x42, 0x46, 0x2A, 0x0D,
    0x49, 0x21, 0x32, 0x28, 0x81, 0x1A, 0x5A, 0x70, 0x68, 0x0A, 0x00, 0x75,
    0x01, 0xAC, 0x56, 0xD1, 0xAA, 0x71, 0x60, 0x00, 0xE0, 0xFC, 0x76, 0xD7,
    0x8A, 0xE4, 0x41, 0xB3, 0x35, 0xE3, 0xDC, 0x09, 0xC0, 0xBC, 0x3C, 0x02,
    0xFC, 0xFF, 0xEC, 0xCF, 0x0A, 0xA2, 0x43, 0xF1, 0x83, 0x98, 0xFF, 0x2F,
    0x0D, 0x88, 0xB6, 0xEC, 0xB5, 0xCB, 0xB9, 0xFB, 0xFF, 0xFF, 0xFF, 0xFF,
    0xFF, 0xFF, 0xFF, 0xFF, 0xFF, 0xFF, 0xFF, 0xFF, 0xFF, 0xFF, 0xFF, 0xFF,
    0xFF, 0xFF, 0xFF, 0xFF, 0xFF, 0xFF, 0xFF, 0xFF, 0xFF, 0xFF, 0xFF, 0xFF,
    0x0F, 0x00, 0x00, 0x00, 0x40, 0xFD, 0x47, 0x3D, 0xCD, 0x2B, 0x75, 0x5B,
    0x67, 0xCE, 0xDE, 0x31, 0x0D, 0x11, 0xA3, 0xA7, 0x0F, 0x00, 0x36, 0x22,
    0xCA, 0xD8, 0x3E, 0xC9, 0xC8, 0xB7, 0x00, 0x10, 0x66, 0x7E, 0xFB, 0x6B,
    0x2D, 0x6F, 0x2C, 0xE4, 0x56, 0x60, 0xEA, 0x33, 0xB6, 0x4C, 0x27, 0x06,
    0x00, 0x91, 0xFA, 0xEE, 0xD2, 0x31, 0x44, 0xE7, 0x16, 0x00, 0xB0, 0xAC,
    0xA5, 0x58, 0x89, 0x64, 0xF5, 0xD3, 0x27, 0xCB, 0x55, 0x53, 0x60, 0xE9,
    0x66, 0x65, 0x05, 0x00, 0xB9, 0xAB, 0x65, 0x88, 0x64, 0xFD, 0x77, 0xBE,
    0x00, 0xD0, 0xF0, 0x1D, 0x8E, 0x76, 0x13, 0x8B, 0x3D, 0x5A, 0xCB, 0x27,
    0x4E, 0xB3, 0x0E, 0x50, 0x8B, 0x09, 0x00, 0x9E, 0x23, 0x9F, 0x79, 0xC9,
    0x74, 0x76, 0x53, 0x00, 0xE0, 0x19, 0x9F, 0xFF, 0xD0, 0x93, 0xF1, 0x9B,
    0xDB, 0xC4, 0x07, 0x90, 0xCC, 0x3C, 0x1F, 0x09, 0x0E, 0x00, 0xE9, 0x86,
    0xF5, 0xAA, 0xE7, 0x18, 0x91, 0x5A, 0x00, 0x50, 0x2B, 0x21, 0xCC, 0x64,
    0xAA, 0xA9, 0xE2, 0x50, 0xF0, 0x02, 0x7D, 0xE8, 0x48, 0x9B, 0x72, 0x0D,
    0x00, 0x8E, 0xC3, 0x0F, 0x3A, 0xE5, 0xE1, 0x44, 0xF2, 0x00, 0x30, 0x80,
    0x4F, 0xC5, 0x3B, 0x8F, 0xC3, 0x81, 0x18, 0xC1, 0x2D, 0x52, 0x46, 0xD7,
    0x8A, 0xFB, 0x07, 0x00, 0x2F, 0x40, 0xFA, 0x23, 0x74, 0x1C, 0x36, 0x24,
    0x00, 0x60, 0xBC, 0x23, 0x67, 0x46, 0xF1, 0xD0, 0xA4, 0xFB, 0x03, 0xC4,
    0x30, 0x40, 0xAA, 0x7E, 0x6D, 0x03, 0x00, 0x57, 0xFD, 0xDB, 0xC1, 0x9A,
    0x45, 0x56, 0x4B, 0x00, 0xB0, 0xD9, 0xBF, 0x23, 0x26, 0x73, 0x76, 0x04,
    0xA1, 0xCD, 0x41, 0x63, 0x4A, 0xFE, 0x3A, 0x3E, 0x04, 0x00, 0x4C, 0xA0,
    0x9B, 0xC0, 0x50, 0x51, 0xD1, 0x52, 0x00, 0x90, 0xD7, 0xEE, 0x88, 0x50,
    0xAE, 0x58, 0xFB, 0xA1, 0x4D, 0x39, 0x47, 0xCF, 0xB0, 0xE0, 0x63, 0x0D,
    0x00, 0xE9, 0x67, 0xAE, 0x97, 0xD7, 0x04, 0x9C, 0x1C, 0x00, 0xE0, 0x3C,
    0xE4, 0x81, 0xEB, 0xD0, 0xBC, 0xC4, 0x98, 0xEB, 0xBA, 0xA7, 0x23, 0x70,
    0xAC, 0xAF, 0x03, 0x00, 0x6C, 0xBF, 0xB3, 0x8B, 0x93, 0xB8, 0x83, 0xBC,
    0x00, 0x70, 0xB4, 0x1F, 0xDA, 0xFC, 0xC7, 0xA6, 0x8C, 0xA7, 0xFB, 0xAB,
    0x35, 0x6A, 0xB0, 0x5F, 0x38, 0x0A, 0x00, 0x28, 0x83, 0x8C, 0xA8, 0xA0,
    0x7E, 0xD8, 0x19, 0x00, 0xC0, 0xD6, 0x5F, 0x14, 0x4F, 0x41, 0x02, 0x1E,
    0x42, 0xD5, 0xA3, 0x49, 0x88, 0x58, 0x1B, 0x74, 0x09, 0x00, 0xD1, 0xE1,
    0xC2, 0xC0, 0x1C, 0x16, 0x8D, 0xC6, 0x00, 0xB0, 0x8E, 0x6F, 0x3B, 0xAD,
    0x72, 0xD9, 0x05, 0xB6, 0x6D, 0xAB, 0x23, 0x59, 0x36, 0x93, 0xA4, 0x03,
    0x00, 0x8D, 0x51, 0x2A, 0xC9, 0x2F, 0xD2, 0x2C, 0x08, 0x00, 0x10, 0x35,
    0x48, 0x62, 0x1F, 0xB6, 0xA9, 0x4E, 0x28, 0x31, 0x9E, 0x62, 0x8E, 0xED,
    0x05, 0xA1, 0x06, 0x00, 0xD0, 0x25, 0x48, 0x76, 0xE3, 0x76, 0x17, 0x59,
    0xF0, 0xDF, 0xAD, 0x9C, 0x03, 0x51, 0xB4, 0x70, 0x31, 0xFA, 0xFF, 0x38,
    0x7F, 0x83, 0x82, 0xBD, 0x4F, 0x26, 0x21, 0xFF, 0xBF, 0xDA, 0x9F, 0x8F,
    0xCF, 0x44, 0xA8, 0x61, 0xF3, 0xFF, 0xFF, 0xFF, 0xFF, 0xFF, 0xFF, 0xFF,
    0xFF, 0xFF, 0xFF, 0xFF, 0xFF, 0xFF, 0xFF, 0xFF, 0xFF, 0xFF, 0xFF, 0xFF,
    0xFF, 0xFF, 0xFF, 0xFF, 0xFF, 0xFF, 0xFF, 0xFF, 0x0F, 0x00, 0x00, 0x00,
    0xBD, 0x40, 0x3E, 0xA9, 0xD7, 0x47, 0x5D, 0xB8, 0x00, 0xC0, 0x56, 0xD4,
    0xC2, 0x1E, 0xEF, 0x98, 0x50, 0x7E, 0x80, 0xA1, 0x56, 0x3F, 0xCE, 0x5E,
    0x8A, 0x0E, 0x00, 0x10, 0x53, 0x3F, 0x57, 0x80, 0xF4, 0xCD, 0x5B, 0x00,
    0xD0, 0x2F, 0x62, 0xBE, 0x4C, 0xE4, 0xD8, 0xD8, 0xE4, 0xB8, 0x11, 0x21,
    0x28, 0x39, 0x49, 0xDB, 0x07, 0x00, 0x97, 0x5C, 0x44, 0x82, 0x47, 0x99,
    0xF9, 0xCD, 0x00, 0x70, 0x12, 0xC8, 0xE9, 0x72, 0xAF, 0x3C, 0x52, 0xC8,
    0xA3, 0x86, 0xD3, 0xB5, 0x41, 0xBD, 0x98, 0x05, 0x00, 0x8F, 0x7C, 0x76,
    0xC8, 0x52, 0xB7, 0x56, 0x83, 0x00, 0x11, 0x63, 0xBC, 0x58, 0x9F, 0x6B,
    0xCA, 0x6E, 0x06, 0x00, 0x27, 0x5B, 0x43, 0x6D, 0x0A, 0xB6, 0x2B, 0x24,
    0xE7, 0x17, 0x5B, 0x5E, 0xD8, 0x95, 0x93, 0x73, 0x00, 0xD0, 0xD5, 0x0B,
    0x00, 0x11, 0x53, 0xA1, 0xB0, 0x0E, 0x00, 0xA4, 0xD8, 0x78, 0x93, 0x03,
    0x1B, 0xBF, 0x43, 0x1C, 0xDC, 0x1E, 0x87, 0xDC, 0x0E, 0xB1, 0x4A, 0x00,
    0x60, 0x24, 0x6B, 0xCD, 0x24, 0x31, 0x99, 0x3D, 0x0F, 0x00, 0x26, 0xA5,
    0xDD, 0xB1, 0x9B, 0x9C, 0x14, 0x7A, 0x01, 0xBC, 0xBA, 0x63, 0xCB, 0x60,
    0xCB, 0xC7, 0x00, 0x50, 0x52, 0x19, 0xC0, 0x6C, 0x56, 0xF2, 0xD2, 0x01,
    0x00, 0xB9, 0xED, 0xF7, 0xBF, 0xDB, 0x0C, 0x25, 0x73, 0xAB, 0x37, 0xA0,
    0x27, 0x8B, 0xC1, 0xD1, 0xC3, 0x00, 0x40, 0xF8, 0xBD, 0xB4, 0x78, 0x8C,
    0x95, 0x27, 0x02, 0x00, 0xA2, 0xDB, 0x97, 0x74, 0xF7, 0x82, 0x9D, 0x82,
    0xB7, 0xBE, 0x26, 0xB7, 0x3D, 0x97, 0xCE, 0x57, 0x00, 0x60, 0xC5, 0x3D,
    0x25, 0x43, 0xB1, 0x6E, 0xE5, 0x0A, 0x00, 0xDC, 0xD3, 0xD0, 0x08, 0x14,
    0xBC, 0xA2, 0x00, 0x5B, 0xCD, 0x71, 0xDB, 0xC0, 0x08, 0x34, 0x9C, 0x00,
    0x90, 0xF9, 0xD5, 0x25, 0x64, 0x16, 0xE4, 0x9D, 0x0B, 0x00, 0xDB, 0x99,
    0xFB, 0xBE, 0x7E, 0x22, 0xEC, 0x49, 0x1D, 0x4B, 0x98, 0x04, 0x38, 0x7C,
    0xF6, 0xE3, 0x00, 0xD0, 0xEB, 0x8C, 0x4F, 0xD5, 0x5F, 0x82, 0x6F, 0x04,
    0x00, 0x59, 0xD9, 0x8F, 0x65, 0xE0, 0x63, 0x27, 0xD2, 0x33, 0xE4, 0xAA,
    0xEE, 0x71, 0x36, 0x5E, 0x5D, 0x00, 0xC0, 0x94, 0x4C, 0x2E, 0x7B, 0x82,
    0x2D, 0x20, 0x06, 0x00, 0x1D, 0x9C, 0xDD, 0x4F, 0x77, 0x9E, 0x91, 0x0F,
    0x9D, 0xC7, 0xCB, 0xCB, 0x0B, 0x24, 0x38, 0x71, 0x00, 0x60, 0xD2, 0xB7,
    0xE2, 0xA7, 0xA0, 0x58, 0x45, 0x01, 0x00, 0x49, 0xB0, 0x1A, 0x68, 0x81,
    0x5D, 0x96, 0x66, 0x42, 0x47, 0x9D, 0x9C, 0x19, 0x5F, 0x49, 0xE6, 0x00,
    0x70, 0xD9, 0xB1, 0x7A, 0x18, 0xDB, 0x01, 0x3B, 0x09, 0x00, 0xFD, 0x70,
    0x75, 0x08, 0x9C, 0x0B, 0xCA, 0xCE, 0x80, 0xC0, 0xA6, 0x22, 0x65, 0x01,
    0x73, 0xB9, 0x00, 0x10, 0xFB, 0x3B, 0xAB, 0xC4, 0xF3, 0x92, 0x51, 0x04,
    0xF0, 0xC5, 0xDF, 0xDD, 0x76, 0xD4, 0x8A, 0x56, 0xFA, 0xFF, 0xFF, 0x1E,
    0x2B, 0x1F, 0x72, 0xC4, 0xF8, 0x37, 0xFB, 0xFF, 0xDB, 0x5C, 0xE4, 0xF8,
    0x1C, 0xAD, 0x75, 0x55, 0xFF, 0xFF, 0xFF, 0xFF, 0xFF, 0xFF, 0xFF, 0xFF,
    0xFF, 0xFF, 0xFF, 0xFF, 0xFF, 0xFF, 0xFF, 0xFF, 0xFF, 0xFF, 0xFF, 0xFF,
    0xFF, 0xFF, 0xFF, 0xFF, 0xFF, 0xFF, 0xFF, 0xFF, 0x0F, 0x00, 0x20, 0x80,
    0xC8, 0x80, 0xBF, 0x90, 0x4D, 0x97, 0x8C, 0x0A, 0x00, 0x3A, 0x2E, 0x83,
    0xC2, 0x8C, 0xC2, 0xAF, 0x86, 0x66, 0x4A, 0x4F, 0x76, 0x1E, 0x04, 0xB9,
    0x34, 0x00, 0xB0, 0x0A, 0xDD, 0x22, 0x01, 0x2A, 0xD7, 0xFC, 0x01, 0x00,
    0x92, 0xA3, 0xDC, 0x86, 0xF0, 0x1B, 0xCD, 0xFA, 0x16, 0xBA, 0xA9, 0x18,
    0x32, 0x9C, 0x89, 0x34, 0x00, 0xC0, 0xF6, 0x6C, 0xE6, 0xA8, 0x26, 0x67,
    0x15, 0x06, 0x00, 0x08, 0xDD, 0xDC, 0xF2, 0x64, 0xF2, 0x63, 0xC8, 0x25,
    0x0C, 0x75, 0x82, 0xE5, 0x32, 0xB3, 0x3C, 0x00, 0x00, 0xD3, 0x68, 0x45,
    0x1B, 0xA8, 0x21, 0x3D, 0x0F, 0x00, 0xAA, 0x4A, 0x47, 0x22, 0x65, 0x62,
    0xBD, 0x67, 0x67, 0xB4, 0x32, 0x8E, 0x27, 0x1C, 0x0F, 0xEB, 0x00, 0xE0,
    0xE7, 0xD8, 0xAA, 0x9A, 0x0A, 0x22, 0xDF, 0x02, 0x00, 0x1A, 0xAF, 0x98,
    0x62, 0x10, 0x50, 0x21, 0xAB, 0x0E, 0x1A, 0x71, 0x76, 0xF7, 0x13, 0xD4,
    0x61, 0x00, 0x50, 0xB9, 0xB3, 0xA8, 0xE8, 0x09, 0xF2, 0x4E, 0x0D, 0x00,
    0xC6, 0xD2, 0x1B, 0x50, 0xED, 0xEE, 0x4F, 0x73, 0x97, 0x88, 0x82, 0xB8,
    0xA2, 0xC3, 0x59, 0xDC, 0x00, 0x70, 0xBC, 0xAC, 0xB5, 0xAF, 0xC7, 0xFE,
    0xBE, 0x0F, 0x00, 0xC9, 0xB4, 0x1B, 0x92, 0x58, 0x4E, 0x80, 0xD5, 0x29,
    0x99, 0xA8, 0x45, 0x9E, 0x75, 0x8E, 0xF8, 0x00, 0x20, 0x09, 0x3D, 0x51,
    0x47, 0xFC, 0x0D, 0xD9, 0x0D, 0x00, 0x1B, 0x9D, 0x07, 0xB0, 0xD3, 0xDE,
    0xD2, 0x26, 0x54, 0x9F, 0x66, 0x68, 0x34, 0x87, 0x29, 0x8F, 0x00, 0xA0,
    0x1E, 0xAC, 0x58, 0x6D, 0x5D, 0x97, 0x9C, 0x03, 0x00, 0x08, 0x9A, 0x07,
    0x8C, 0x18, 0xC1, 0xE1, 0x00, 0x3A, 0xA0, 0x7C, 0x1D, 0x69, 0xF5, 0xDB,
    0x50, 0x08, 0xD0, 0xF1, 0xA4, 0x80, 0x34, 0x96, 0xE6, 0x13, 0x0B, 0x00,
    0xA4, 0x2D, 0xC4, 0xE4, 0x3F, 0x13, 0x61, 0x1E, 0x78, 0xE5, 0x8F, 0x4A,
    0x1B, 0xFB, 0x69, 0x48, 0x00, 0x40, 0xE0, 0x67, 0x1D, 0x1F, 0xC6, 0x8F,
    0x13, 0x07, 0x00, 0x94, 0xA5, 0x09, 0x6C, 0x0B, 0xC0, 0xCA, 0x4E, 0xD6,
    0x02, 0x0C, 0xA0, 0x53, 0x4E, 0xDB, 0xB9, 0x00, 0xD0, 0xD6, 0x64, 0x2E,
    0x8F, 0xD7, 0x38, 0xA2, 0x0E, 0x00, 0x27, 0x5F, 0xBA, 0x94, 0xC8, 0xE1,
    0x0E, 0x2B, 0x19, 0xE4, 0x49, 0x01, 0xB9, 0xE4, 0x2A, 0xA7, 0x00, 0x50,
    0x98, 0x4D, 0x7D, 0x33, 0x91, 0x5F, 0xC8, 0x0D, 0x00, 0x5C, 0xFA, 0x04,
    0xD6, 0xC5, 0x99, 0x66, 0xBC, 0xEA, 0xE6, 0x72, 0xAB, 0x07, 0xF8, 0x8A,
    0x89, 0x00, 0xC0, 0xA4, 0x0C, 0x66, 0x3A, 0x97, 0xAA, 0x52, 0x05, 0x00,
    0xAB, 0x16, 0xE8, 0xC4, 0xB1, 0x80, 0x58, 0x19, 0x8F, 0xE8, 0xE7, 0x9F,
    0x12, 0x23, 0x48, 0xDF, 0x00, 0xC0, 0xFD, 0x87, 0x84, 0x7F, 0xF3, 0x02,
    0x9F, 0x06, 0x00, 0xD3, 0x76, 0x96, 0xE7, 0xAF, 0x42, 0x04, 0x60, 0x62,
    0x90, 0xF5, 0x55, 0xDF, 0x19, 0xC4, 0xD3, 0x00, 0x10, 0xBD, 0xA0, 0x69,
    0x33, 0xA5, 0xF2, 0x62, 0xF8, 0xFF, 0x53, 0xA6, 0x6D, 0xB1, 0x17, 0xA6,
    0xB6, 0x1C, 0xFF, 0x2F, 0xBD, 0xBF, 0x6A, 0xB5, 0x65, 0x8C, 0x3A, 0xF9,
    0xFF, 0xFF, 0xFF, 0xFF, 0xFF, 0xFF, 0xFF, 0xFF, 0xFF, 0xFF, 0xFF, 0xFF,
    0xFF, 0xFF, 0xFF, 0xFF, 0xFF, 0xFF, 0xFF, 0xFF, 0xFF, 0xFF, 0xFF, 0xFF,
    0xFF, 0xFF, 0xFF, 0xFF, 0x0F, 0x00, 0x00, 0x67, 0xDC, 0x24, 0x73, 0xFD,
    0xD9, 0x5C, 0xE7, 0x00, 0xC0, 0x93, 0xC1, 0xCD, 0x0C, 0xB8, 0xB3, 0x54,
    0x04, 0x00, 0x72, 0xCF, 0xA7, 0xEB, 0x35, 0x86, 0x49, 0xC3, 0xE1, 0xF7,
    0x51, 0xCC, 0xD9, 0x06, 0xC9, 0x8E, 0x00, 0x14, 0x16, 0x3A, 0x17, 0x88,
    0xDF, 0xA4, 0x90, 0x00, 0x00, 0x82, 0x24, 0x99, 0x17, 0x62, 0x8A, 0xA7,
    0xF9, 0x41, 0xFA, 0xED, 0x64, 0x35, 0x75, 0xF3, 0xF9, 0x00, 0x80, 0x07,
    0xC4, 0x66, 0x61, 0xB4, 0x74, 0x77, 0x05, 0x00, 0xB1, 0xB3, 0x74, 0x7A,
    0xF3, 0x70, 0x51, 0xE1, 0x07, 0x1F, 0x26, 0xF4, 0xE2, 0xD4, 0x02, 0xB3,
    0x00, 0x10, 0xBC, 0x80, 0x1F, 0xE0, 0xC1, 0xFA, 0xF2, 0x08, 0x00, 0x74,
    0x9C, 0x8F, 0x59, 0xBD, 0x1F, 0xDC, 0x2B, 0x4C, 0x9C, 0x4D, 0xCC, 0xC4,
    0x33, 0x78, 0x81, 0x00, 0x30, 0xC4, 0x38, 0x05, 0x54, 0x38, 0x59, 0xBD,
    0x01, 0x00, 0xF0, 0x38, 0x1C, 0x52, 0xF7, 0xAA, 0xD3, 0xBF, 0x21, 0x94,
    0xF4, 0xA7, 0xCC, 0xA0, 0x9B, 0xC9, 0x00, 0x00, 0x12, 0x30, 0xAB, 0xE3,
    0x79, 0xEF, 0x6A, 0x07, 0x00, 0x3F, 0x15, 0x4D, 0xEC, 0xA1, 0x05, 0x67,
    0xB8, 0xCB, 0x9E, 0x8F, 0xA5, 0x8C, 0x72, 0x3E, 0x67, 0x00, 0x50, 0xB3,
    0xFD, 0xAE, 0xF6, 0x74, 0xBA, 0x4A, 0x0B, 0x00, 0x66, 0xB3, 0xDE, 0xEB,
    0x03, 0x04, 0x0E, 0xD5, 0x55, 0x79, 0x70, 0x74, 0x4E, 0xC2, 0xC6, 0xB0,
    0x00, 0xF0, 0x75, 0x9F, 0x66, 0xE6, 0xF3, 0x5A, 0xCA, 0x05, 0x00, 0x54,
    0x06, 0xE2, 0x2D, 0xD7, 0xD3, 0x72, 0xAF, 0x6C, 0xDE, 0x7C, 0x97, 0xA3,
    0x59, 0x48, 0xFD, 0x00, 0x30, 0xDA, 0x58, 0xC5, 0xC6, 0x8E, 0xEA, 0x4C,
    0x00, 0x00, 0x5F, 0x80, 0xE1, 0x37, 0xAD, 0x85, 0x2B, 0xF7, 0x4F, 0x77,
    0xE7, 0x55, 0xEF, 0xDD, 0x8E, 0xB0, 0x00, 0x44, 0x95, 0xDC, 0xED, 0x98,
    0x1D, 0x6D, 0x24, 0x02, 0x00, 0x3B, 0x2A, 0x09, 0xF6, 0x91, 0x93, 0xA7,
    0xB1, 0x00, 0xE0, 0x7A, 0xA8, 0x8F, 0x54, 0x2E, 0xC6, 0x64, 0x95, 0x86,
    0x7D, 0x3C, 0x58, 0x42, 0x7B, 0x9A, 0x0B, 0x00, 0xDC, 0x88, 0x53, 0x31,
    0x72, 0x84, 0xBC, 0xC0, 0x00, 0xF0, 0x71, 0x82, 0xE3, 0xE4, 0x20, 0x0C,
    0xCB, 0x91, 0x4E, 0x9B, 0xC2, 0x47, 0x34, 0x3C, 0x8B, 0x0D, 0x00, 0x7C,
    0x70, 0xC2, 0x71, 0xFB, 0x6A, 0xCF, 0x40, 0x00, 0x50, 0x90, 0x61, 0xEB,
    0xF2, 0x34, 0x71, 0x78, 0xEC, 0xBB, 0x38, 0x33, 0x19, 0x40, 0x1D, 0x79,
    0x03, 0x00, 0x5C, 0x48, 0xB5, 0x4D, 0x72, 0xCF, 0xC6, 0x2D, 0x00, 0x30,
    0x88, 0x55, 0x5F, 0x21, 0xC6, 0xC5, 0x94, 0xB1, 0x37, 0xC0, 0x33, 0x04,
    0x3E, 0x52, 0xC3, 0x0B, 0x00, 0xCA, 0x29, 0x87, 0xC8, 0x40, 0x16, 0x5A,
    0x8F, 0x00, 0x20, 0xD9, 0x7C, 0xF0, 0x89, 0xF9, 0x1A, 0x42, 0x73, 0xA2,
    0xC8, 0x82, 0x8A, 0xC2, 0xC3, 0xF3, 0x09, 0x00, 0x80, 0x60, 0x46, 0xF1,
    0xB4, 0x81, 0x0B, 0xD3, 0xF0, 0xDF, 0x0A, 0xD5, 0xC2, 0x6E, 0xAA, 0x81,
    0x5C, 0xF9, 0xFF, 0x2A, 0x27, 0xF1, 0x81, 0xDF, 0x97, 0xF3, 0xDB, 0xFF,
    0x9F, 0xE3, 0x2D, 0x04, 0xC6, 0xFE, 0x93, 0xC8, 0xF3, 0xFF, 0xFF, 0xFF,
    0xFF, 0xFF, 0xFF, 0xFF, 0xFF, 0xFF, 0xFF, 0xFF, 0xFF, 0xFF, 0xFF, 0xFF,
    0xFF, 0xFF, 0xFF, 0xFF, 0xFF, 0xFF, 0xFF, 0xFF, 0xFF, 0xFF, 0xFF, 0xFF,
    0x0F, 0x00, 0x00, 0x00, 0xEC, 0xB6, 0x64, 0x0D, 0x48, 0x74, 0xAF, 0xF1,
    0x00, 0x40, 0x46, 0x9C, 0xE7, 0x25, 0x98, 0xBF, 0xF2, 0x2D, 0x8A, 0x6E,
    0x31, 0xEE, 0xC2, 0xE5, 0x05, 0x09, 0x00, 0x6C, 0x27, 0xC8, 0xA1, 0xB3,
    0x9C, 0xC6, 0x45, 0x00, 0x00, 0x9F, 0x3D, 0x45, 0x81, 0x29, 0x74, 0xD8,
    0xFC, 0xF1, 0x07, 0x93, 0x11, 0x46, 0x55, 0x0A, 0x07, 0x00, 0xB7, 0x8C,
    0xCC, 0xC7, 0x5A, 0xB9, 0x87, 0x2B, 0x00, 0x20, 0x2F, 0xA5, 0x7D, 0xB5,
    0xF0, 0xBA, 0x57, 0x5F, 0x66, 0x2B, 0xDF, 0x4D, 0x2F, 0x3E, 0x83, 0x00,
    0x00, 0xF3, 0xF7, 0x18, 0x25, 0x88, 0xBA, 0xF6, 0xD4, 0x00, 0xB0, 0x17,
    0xA8, 0x9D, 0xEA, 0x56, 0x66, 0x61, 0x71, 0xCF, 0x8D, 0x62, 0x67, 0x68,
    0x08, 0xCC, 0x01, 0x20, 0x7B, 0xEB, 0x38, 0xF8, 0xA7, 0x0F, 0xF3, 0xE5,
    0x00, 0xE0, 0x01, 0x65, 0x12, 0xB7, 0xC7, 0x46, 0x62, 0xE3, 0xA5, 0xCE,
    0x2A, 0xE4, 0x91, 0x3A, 0xD7, 0x0C, 0x00, 0x55, 0xC7, 0x0B, 0x5F, 0x8E,
    0x38, 0xC5, 0xAD, 0x00, 0x00, 0xE9, 0x82, 0xFA, 0x80, 0xCF, 0xA4, 0xB5,
    0xD4, 0xC5, 0xEE, 0x70, 0x31, 0x2B, 0x7D, 0x7A, 0x0D, 0x00, 0xD4, 0x0B,
    0x47, 0x40, 0x54, 0x85, 0x6D, 0x4A, 0x00, 0x10, 0x5E, 0xC6, 0xAC, 0x86,
    0x61, 0xAC, 0x0F, 0xEA, 0x3B, 0xC8, 0x5C, 0x2E, 0xAA, 0x8E, 0x7A, 0x08,
    0x00, 0x26, 0x05, 0x79, 0x81, 0x15, 0xAA, 0x15, 0x68, 0x00, 0x50, 0xC1,
    0xB4, 0x89, 0x93, 0x12, 0x95, 0xAE, 0x5D, 0xAD, 0x29, 0xA4, 0x81, 0xDD,
    0x64, 0x3E, 0x04, 0x08, 0xBD, 0xC1, 0xCB, 0x40, 0x80, 0x39, 0xAC, 0xA6,
    0x00, 0x10, 0x5C, 0xCF, 0x11, 0x21, 0xFF, 0xDE, 0x30, 0x7A, 0xFF, 0x72,
    0x4F, 0x73, 0x83, 0xCF, 0xC3, 0x06, 0x00, 0xF0, 0xD4, 0xCE, 0x3B, 0xBA,
    0x23, 0xC7, 0xB2, 0x00, 0x90, 0x4E, 0x11, 0xEA, 0x69, 0xF8, 0xE6, 0x44,
    0x16, 0xFF, 0x72, 0x5E, 0x5C, 0x93, 0x7A, 0xD4, 0x0A, 0x00, 0x57, 0xEE,
    0x78, 0x78, 0xE8, 0x2D, 0x9D, 0xF7, 0x00, 0xC0, 0x3E, 0xB9, 0x16, 0xA8,
    0xA8, 0x35, 0x48, 0x16, 0xA9, 0xD7, 0x6A, 0xE3, 0xD6, 0x93, 0x5F, 0x0F,
    0x00, 0x17, 0xE5, 0x49, 0xFC, 0x65, 0x9F, 0x2F, 0x82, 0x00, 0x20, 0xD9,
    0xC8, 0xDF, 0x9C, 0xC2, 0x10, 0x87, 0x0D, 0x82, 0xC7, 0x30, 0x86, 0x77,
    0x21, 0xDF, 0x07, 0x00, 0x7C, 0xD1, 0x82, 0x9C, 0xB3, 0xB0, 0x22, 0x85,
    0x00, 0xF0, 0x66, 0xE9, 0x68, 0x98, 0xA5, 0xFA, 0x14, 0x70, 0x62, 0x25,
    0x6F, 0xFD, 0x6B, 0x24, 0x8E, 0x05, 0x00, 0x1E, 0xDB, 0x5D, 0x1E, 0xD6,
    0xBB, 0xDD, 0x4F, 0x00, 0x40, 0x73, 0x00, 0x8D, 0x8B, 0xFA, 0x3D, 0xD0,
    0x71, 0xFD, 0x70, 0x26, 0x88, 0x8B, 0x5F, 0x3F, 0x05, 0x00, 0xBF, 0x38,
    0xA0, 0x5B, 0x8D, 0x6E, 0x5A, 0x6C, 0x00, 0xC0, 0x85, 0xC0, 0x80, 0xAE,
    0x41, 0x98, 0x62, 0xDE, 0x07, 0x4F, 0xD3, 0x89, 0xA5, 0xB5, 0x3E, 0x26,
    0xF0, 0x9E, 0x53, 0xCD, 0xF0, 0xEF, 0x54, 0x74, 0x60, 0xFF, 0x4F, 0x0A,
    0x34, 0xA5, 0xA8, 0x98, 0x6B, 0xE6, 0xF6, 0xFF, 0xBC, 0x15, 0x2B, 0x06,
    0x5D, 0x3F, 0x34, 0xB3, 0xFF, 0xFF, 0xFF, 0xFF, 0xFF, 0xFF, 0xFF, 0xFF,
    0xFF, 0xFF, 0xFF, 0xFF, 0xFF, 0xFF, 0xFF, 0xFF, 0xFF, 0xFF, 0xFF, 0xFF,
    0xFF, 0xFF, 0xFF, 0xFF, 0xFF, 0xFF, 0xFF, 0xFF, 0x0F, 0x00, 0x00, 0x10,
    0x14, 0x54, 0xE7, 0xF6, 0x9E, 0xBD, 0x88, 0x05, 0x00, 0x91, 0xF4, 0xDA,
    0xFC, 0x82, 0x4A, 0x6D, 0x00, 0x00, 0x40, 0x98, 0x88, 0xFE, 0xE9, 0xAD,
    0xF8, 0x56, 0x33, 0xC9, 0xDD, 0xD6, 0x5A, 0x7E, 0xED, 0xC0, 0x03, 0x00,
    0x09, 0x28, 0xC5, 0xBE, 0x18, 0xBB, 0xCD, 0x7E, 0x00, 0x00, 0x01, 0x1F,
    0x30, 0x83, 0x22, 0x6B, 0x49, 0xDF, 0xF7, 0x99, 0xF7, 0xD7, 0x57, 0x55,
    0x77, 0x0C, 0x00, 0x4E, 0x40, 0x51, 0x07, 0xB7, 0x3D, 0xBD, 0x82, 0x00,
    0x90, 0x55, 0x1C, 0xD3, 0xF1, 0x6A, 0x98, 0xC4, 0x8E, 0x3D, 0x46, 0xEB,
    0xAB, 0x7F, 0x9B, 0x32, 0x0C, 0x00, 0xC3, 0x73, 0xA8, 0x7E, 0xE3, 0x25,
    0x55, 0xFB, 0x00, 0x20, 0x38, 0x32, 0x1F, 0xA5, 0x20, 0x65, 0x1A, 0x46,
    0x55, 0x61, 0x13, 0xF2, 0x76, 0x9D, 0x17, 0x09, 0x00, 0x36, 0x05, 0x21,
    0x56, 0x62, 0x1F, 0x8E, 0x1A, 0x00, 0x80, 0xB2, 0x8E, 0xC0, 0xAA, 0xAB,
    0xA1, 0x8E, 0x46, 0x98, 0xC0, 0xFE, 0xA6, 0x42, 0x90, 0x68, 0x0C, 0x00,
    0xF4, 0xB7, 0x2B, 0x1C, 0x37, 0x73, 0xCD, 0xBF, 0x00, 0x00, 0x6B, 0x0D,
    0xD1, 0xA6, 0x92, 0x58, 0x73, 0xEF, 0x61, 0x56, 0xA4, 0x8C, 0x26, 0xD2,
    0x1E, 0x07, 0x00, 0xDD, 0x0B, 0x22, 0x73, 0x67, 0xF8, 0x5D, 0x6E, 0x00,
    0x40, 0x53, 0x26, 0xB4, 0xC2, 0x16, 0x41, 0x3C, 0x5B, 0xB7, 0x9D, 0x1D,
    0x68, 0x88, 0x0C, 0xDF, 0x0D, 0x00, 0x0B, 0x9B, 0x03, 0xFD, 0x6A, 0xE6,
    0xA4, 0x2F, 0x00, 0x10, 0xF0, 0xF7, 0x22, 0x62, 0x6B, 0xAB, 0xBF, 0x8C,
    0x8A, 0x89, 0xE7, 0x39, 0xB6, 0x0E, 0xB0, 0x0E, 0x00, 0x17, 0xBA, 0x4D,
    0xCD, 0x79, 0x1B, 0xE5, 0xC3, 0x00, 0xF0, 0x6D, 0xD2, 0x56, 0x3D, 0xE2,
    0xBE, 0x85, 0xBF, 0xBC, 0x1B, 0x1D, 0x81, 0x18, 0xE3, 0x80, 0x0C, 0x00,
    0xB0, 0x6D, 0x1A, 0xA1, 0x9C, 0xD1, 0xCB, 0xA3, 0x00, 0xB0, 0x59, 0x85,
    0x3F, 0x5A, 0x88, 0x5D, 0x9B, 0xBD, 0x12, 0x87, 0xEF, 0x29, 0xE3, 0x46,
    0x8A, 0x03, 0x00, 0x70, 0xB1, 0x5F, 0xB8, 0x52, 0x15, 0x11, 0x40, 0x00,
    0x30, 0x35, 0x13, 0x6B, 0x9D, 0xA9, 0x48, 0xD6, 0x2B, 0xFA, 0x63, 0xA2,
    0xC3, 0xE4, 0x5E, 0x4C, 0x07, 0x00, 0x6D, 0x31, 0xE2, 0xDF, 0x6B, 0xAD,
    0xC1, 0x05, 0x00, 0x60, 0x09, 0xB8, 0x51, 0x76, 0xBE, 0x05, 0x1B, 0x53,
    0x5B, 0x21, 0xC9, 0x6E, 0x8B, 0xFF, 0x0D, 0x0B, 0x00, 0x0B, 0x31, 0x73,
    0xAC, 0xCB, 0x8A, 0x6A, 0xAE, 0x00, 0x20, 0x4C, 0x5E, 0xB3, 0x7A, 0x33,
    0x9C, 0x13, 0x45, 0x4A, 0xE3, 0x08, 0x68, 0xC8, 0xB9, 0x2F, 0x04, 0x00,
    0xF2, 0x8C, 0xB1, 0x1A, 0x61, 0x36, 0x9E, 0x1A, 0x00, 0x90, 0x3E, 0xD5,
    0xE1, 0x1E, 0xD8, 0x76, 0x31, 0xA9, 0xE2, 0xBA, 0x96, 0x95, 0xA5, 0x77,
    0x21, 0x09, 0x00, 0x84, 0x4E, 0x01, 0xEA, 0xDD, 0xFD, 0xC0, 0x15, 0x00,
    0x10, 0x7E, 0xEE, 0xD2, 0x12, 0xCF, 0x14, 0x1C, 0x86, 0x55, 0xA7, 0x53,
    0xDE, 0x5A, 0xC9, 0xB6, 0xFE, 0xFF, 0x2E, 0x79, 0x4A, 0x1F, 0x68, 0x09,
    0x46, 0x2D, 0xFF, 0x1F, 0xEC, 0xCC, 0x18, 0x55, 0xA5, 0xD7, 0xFC, 0xFA,
    0xFF, 0xFF, 0xFF, 0xFF, 0xFF, 0xFF, 0xFF, 0xFF, 0xFF, 0xFF, 0xFF, 0xFF,
    0xFF, 0xFF, 0xFF, 0xFF, 0xFF, 0xFF, 0xFF, 0xFF, 0xFF, 0xFF, 0xFF, 0xFF,
    0xFF, 0xFF, 0xFF, 0xFF, 0x0F, 0x00, 0x00, 0x00, 0x50, 0x63, 0x29, 0x8B,
    0x86, 0x10, 0x1F, 0x83, 0xD7, 0x44, 0x9F, 0xAD, 0x7C, 0x5A, 0x73, 0x7A,
    0x0B, 0x00, 0x0B, 0x38, 0x16, 0x4D, 0xEC, 0x68, 0x94, 0xFD, 0x00, 0x30,
    0x6E, 0xCC, 0x20, 0xFC, 0xE9, 0x5D, 0x85, 0x87, 0x27, 0x0C, 0xEC, 0x3E,
    0xE0, 0xE0, 0x2C, 0x0B, 0x00, 0xAF, 0x09, 0xD7, 0xF1, 0x27, 0x7C, 0xA9,
    0x25, 0x00, 0x80, 0xD2, 0x6B, 0x00, 0xA7, 0x67, 0x8B, 0x50, 0x88, 0xC7,
    0x94, 0x4A, 0x2F, 0x2F, 0x7F, 0x09, 0x01, 0x00, 0x24, 0xE2, 0xDE, 0x50,
    0xB7, 0xA7, 0xAD, 0xAA, 0x00, 0x60, 0x36, 0x57, 0x39, 0x34, 0x2A, 0xA5,
    0xE1, 0xB7, 0x4F, 0x07, 0xFF, 0x46, 0x77, 0x61, 0x1E, 0x0D, 0x00, 0xA6,
    0xA1, 0x9E, 0xF6, 0xC2, 0x21, 0x67, 0x83, 0x00, 0x00, 0x64, 0x63, 0xE3,
    0x34, 0x39, 0x0F, 0x79, 0x03, 0xAB, 0x60, 0x25, 0xBC, 0x60, 0x84, 0x01,
    0x03, 0x00, 0x69, 0xAA, 0xBB, 0x00, 0xEE, 0xD8, 0xAE, 0xF6, 0x00, 0x20,
    0x78, 0x5B, 0x56, 0xC6, 0xE6, 0x37, 0xB3, 0x64, 0x53, 0x4D, 0x00, 0xE6,
    0x11, 0x4D, 0x3E, 0x02, 0x00, 0xBA, 0x3B, 0xE1, 0xB2, 0x4B, 0xAC, 0xE8,
    0x81, 0x00, 0x80, 0xED, 0x25, 0x93, 0x7F, 0x9B, 0xE5, 0x84, 0x48, 0x50,
    0xD4, 0xA1, 0x55, 0x0C, 0xDA, 0xDB, 0x0D, 0x00, 0x78, 0x4E, 0x41, 0x32,
    0xCE, 0x40, 0xEF, 0x28, 0x00, 0xE0, 0x74, 0x38, 0xA5, 0x73, 0xB2, 0x17,
    0x86, 0xDC, 0xE0, 0xD3, 0xBA, 0xC7, 0x54, 0x66, 0x41, 0x0A, 0x00, 0x0C,
    0x56, 0x09, 0x45, 0x8D, 0x48, 0x42, 0xB3, 0x00, 0x00, 0x27, 0x7C, 0x48,
    0x34, 0x7F, 0xD5, 0xA7, 0x09, 0x81, 0x15, 0x2B, 0x3B, 0xCC, 0x5F, 0xA6,
    0x06, 0x00, 0x51, 0x9A, 0x27, 0x8B, 0x9F, 0xBE, 0xA2, 0xC5, 0x00, 0x90,
    0xFB, 0x49, 0x2A, 0x99, 0x38, 0x18, 0xBF, 0x94, 0xE3, 0xEA, 0xAB, 0xC4,
    0x95, 0x07, 0xC8, 0x08, 0x00, 0xA9, 0x06, 0xC2, 0x53, 0x7D, 0xE4, 0x02,
    0xB5, 0x00, 0xB0, 0xB9, 0xE1, 0x71, 0x15, 0x94, 0xD2, 0x6A, 0x97, 0x21,
    0xB7, 0x57, 0xE5, 0x16, 0x98, 0x77, 0x02, 0x00, 0x3C, 0xB4, 0xB0, 0xEE,
    0x87, 0x16, 0xE2, 0x7A, 0x00, 0xE0, 0xA6, 0x37, 0xA9, 0xC9, 0xC6, 0x66,
    0x52, 0x84, 0x83, 0x60, 0x8A, 0xA5, 0x0F, 0x11, 0x6B, 0x01, 0x00, 0xE8,
    0x0C, 0xAC, 0x6F, 0x4C, 0x00, 0xCE, 0xBE, 0x00, 0xD0, 0xF0, 0xB8, 0x28,
    0x29, 0x57, 0xAE, 0xD9, 0xAC, 0x9F, 0x8B, 0x30, 0x58, 0x25, 0x93, 0xB2,
    0x0C, 0x00, 0xB2, 0x8A, 0x8D, 0xD1, 0xA1, 0xB3, 0x34, 0xF9, 0x00, 0xA0,
    0x4F, 0x34, 0x1F, 0xDB, 0x80, 0x44, 0xC1, 0x80, 0xA2, 0xDE, 0xF0, 0x5B,
    0xD3, 0xD5, 0x20, 0x05, 0x00, 0x2D, 0x8B, 0x70, 0x3C, 0xC4, 0x20, 0xE5,
    0x02, 0x00, 0x30, 0xB6, 0x25, 0x40, 0x6C, 0xC4, 0x7B, 0xB0, 0x49, 0x51,
    0x3B, 0xC5, 0x98, 0xF8, 0x5E, 0x0D, 0x0E, 0x00, 0x07, 0xD2, 0xAE, 0xF4,
    0x41, 0x2F, 0x09, 0x6D, 0xF0, 0x8F, 0x16, 0x29, 0x31, 0xD8, 0x0C, 0x39,
    0x5A, 0xF1, 0xFF, 0x76, 0xCB, 0x15, 0x96, 0x20, 0x6E, 0xC0, 0xBE, 0xFF,
    0x5F, 0xDA, 0xBC, 0xE6, 0xD1, 0x16, 0x38, 0x95, 0xFB, 0xFF, 0xFF, 0xFF,
    0xFF, 0xFF, 0xFF, 0xFF, 0xFF, 0xFF, 0xFF, 0xFF, 0xFF, 0xFF, 0xFF, 0xFF,
    0xFF, 0xFF, 0xFF, 0xFF, 0xFF, 0xFF, 0xFF, 0xFF, 0xFF, 0xFF, 0xFF, 0xFF,
    0x0F, 0x00, 0x00, 0x00, 0x0A, 0xF1, 0x21, 0x11, 0x2D, 0x32, 0xA9, 0xDF,
    0x00, 0xC0, 0x30, 0xAE, 0x3E, 0x1A, 0xF6, 0xF8, 0x90, 0xFD, 0x0A, 0x85,
    0x99, 0xEA, 0xEB, 0x38, 0xA0, 0x06, 0x00, 0x26, 0x3D, 0x12, 0x23, 0x52,
    0xB7, 0x39, 0x7B, 0x00, 0x30, 0x07, 0x0A, 0xFD, 0xB4, 0x28, 0xED, 0x16,
    0xAD, 0x82, 0xB8, 0x2C, 0xF0, 0x5B, 0xB2, 0xEF, 0x02, 0x00, 0x89, 0xC1,
    0x07, 0xDD, 0x89, 0xB8, 0xAF, 0xEF, 0x00, 0x60, 0xEC, 0x39, 0xEB, 0x0D,
    0x92, 0xC5, 0xDA, 0x6D, 0x76, 0x49, 0xF2, 0x62, 0x8F, 0xF2, 0xCE, 0x04,
    0x00, 0xFB, 0x8B, 0xC8, 0xBA, 0x0C, 0xC2, 0xCA, 0x0A, 0x80, 0x60, 0xE8,
    0x8A, 0xAA, 0x41, 0x29, 0xD4, 0x36, 0x05, 0x00, 0x31, 0xA6, 0x90, 0x45,
    0xCF, 0xC7, 0x5A, 0x01, 0x0E, 0x95, 0x21, 0x88, 0xF3, 0x05, 0xFD, 0xB7,
    0x00, 0x30, 0xDF, 0x87, 0x5B, 0xD5, 0x19, 0x26, 0x7C, 0x06, 0x00, 0x51,
    0x23, 0x9D, 0x8D, 0x2F, 0xEE, 0x79, 0xB0, 0x06, 0x42, 0x1F, 0xC3, 0x51,
    0xF0, 0x13, 0x57, 0x00, 0xB0, 0x5C, 0xEA, 0xD7, 0xFF, 0x29, 0xEA, 0x85,
    0x04, 0x00, 0x02, 0x9E, 0xB5, 0xC3, 0x9B, 0x85, 0x65, 0xCE, 0xB2, 0xC5,
    0xCC, 0x78, 0xE1, 0xF7, 0xC1, 0x54, 0x00, 0xD0, 0x2D, 0xB3, 0x41, 0x4F,
    0xDE, 0x1F, 0x66, 0x45, 0x00, 0xD7, 0xB6, 0xF7, 0xB4, 0x27, 0x7F, 0x35,
    0xFC, 0x34, 0xA8, 0xF6, 0xFC, 0xED, 0xC7, 0x40, 0xF6, 0x00, 0x60, 0x0D,
    0x73, 0x1A, 0xB1, 0xAB, 0xB7, 0x5A, 0x0D, 0x00, 0xB0, 0x92, 0xDE, 0x1A,
    0xEF, 0xC7, 0xEC, 0x89, 0x7C, 0xFD, 0xA5, 0x0C, 0x03, 0x8B, 0xA9, 0xC4,
    0x00, 0xD0, 0x4F, 0xF5, 0x72, 0x5B, 0x47, 0xB5, 0x74, 0x04, 0x00, 0xCA,
    0x8A, 0x66, 0x09, 0xE0, 0xFD, 0x1D, 0x6D, 0xEB, 0x86, 0xAE, 0x24, 0x8F,
    0x79, 0xC8, 0xFA, 0x00, 0x50, 0xF8, 0x86, 0x83, 0x5D, 0x89, 0xCF, 0xE4,
    0x06, 0x00, 0x85, 0x20, 0xE7, 0x44, 0xE3, 0x5D, 0xDC, 0xF8, 0xB6, 0x4F,
    0xA6, 0xCD, 0xCA, 0xF7, 0x11, 0x72, 0x00, 0x60, 0x00, 0x37, 0x2E, 0xF6,
    0x11, 0xEF, 0x91, 0x06, 0x00, 0xC0, 0x04, 0x47, 0x4F, 0x2F, 0x6B, 0xBF,
    0xAA, 0x55, 0xF1, 0x42, 0x8D, 0x58, 0xA1, 0xE9, 0xBA, 0x00, 0x20, 0x32,
    0x01, 0xC9, 0xE5, 0xB9, 0x07, 0x5B, 0x08, 0x00, 0xB0, 0x40, 0xB5, 0x07,
    0x8D, 0x04, 0x40, 0x77, 0xAB, 0xD1, 0xAA, 0x4A, 0x14, 0x8C, 0x92, 0x66,
    0x00, 0xE0, 0xF9, 0x01, 0xE2, 0x0A, 0x13, 0x0E, 0xCD, 0x06, 0x00, 0x6B,
    0x04, 0xEC, 0x18, 0xB0, 0x75, 0x26, 0xF6, 0xAA, 0x1A, 0xF6, 0x09, 0xA0,
    0xAC, 0x1C, 0xED, 0x20, 0x80, 0x9D, 0x92, 0x5D, 0xE6, 0x7A, 0xB4, 0xAB,
    0x09, 0x00, 0x8B, 0x96, 0x27, 0x06, 0xC3, 0xE0, 0xAE, 0x05, 0xEE, 0x9D,
    0x15, 0x46, 0xAA, 0xE4, 0xE9, 0xF5, 0x00, 0x00, 0x06, 0xFE, 0x5B, 0x6D,
    0xB4, 0x0F, 0xB8, 0x0D, 0xF0, 0xC7, 0x94, 0x78, 0x62, 0xBC, 0x70, 0x52,
    0xB8, 0xFF, 0x8F, 0xC2, 0xCB, 0xA7, 0x23, 0xC4, 0xF2, 0xFF, 0xFF, 0xFF,
    0xFF, 0xFF, 0xFF, 0xFF, 0xFF, 0xFF, 0xFF, 0xFF, 0xFF, 0xFF, 0xFF, 0xFF,
    0xFF, 0xFF, 0xFF, 0xFF, 0xFF, 0xFF, 0xFF, 0xFF, 0xFF, 0xFF, 0xFF, 0xFF,
    0xFF, 0xFF, 0x0F, 0x00, 0xFF, 0xFF, 0xFF, 0xFF
};
static const size_t  conv_in_height_1_weights_size = sizeof(conv_in_height_1_weights);
