/*
 * Auto-generated from: fc_in__200__o_4_relu_vela.npz
 * Do not edit by hand.
 *
 * Generated for Ethos-U direct driver invocation (no TFLM).
 * Assumes a single NPU command stream with no CPU fallback.
 */
#pragma once
#include <stdint.h>
#include <stddef.h>

// Weight region index chosen by Vela:
#define FC_IN__200__O_4_RELU_WEIGHT_REGION 0

__attribute__((aligned(32)))
static const uint8_t fc_in__200__o_4_relu_weights[] = {
    0x8B, 0xE5, 0x02, 0x00, 0x83, 0xAA, 0x05, 0x65, 0x2A, 0x00, 0x27, 0xE6,
    0x02, 0x00, 0x36, 0x73, 0xF0, 0x64, 0x2A, 0x00, 0x68, 0xE5, 0x02, 0x00,
    0x76, 0x84, 0x0A, 0x65, 0x2A, 0x00, 0xFE, 0xE5, 0x02, 0x00, 0xC4, 0x19,
    0xF6, 0x64, 0x2A, 0x00, 0x00, 0x00, 0x00, 0x00, 0x00, 0x00, 0x00, 0x00,
    0x00, 0x00, 0x00, 0x00, 0x00, 0x00, 0x00, 0x00, 0x00, 0x00, 0x00, 0x00,
    0x00, 0x00, 0x00, 0x00, 0x00, 0x00, 0x00, 0x00, 0x00, 0x00, 0x00, 0x00,
    0x00, 0x00, 0x00, 0x00, 0x00, 0x00, 0x00, 0x00, 0x00, 0x00, 0x00, 0x00,
    0x00, 0x00, 0x00, 0x00, 0x00, 0x00, 0x00, 0x00, 0x00, 0x00, 0x00, 0x00,
    0x00, 0x00, 0x00, 0x00, 0x00, 0x00, 0x00, 0x00, 0x00, 0x00, 0x00, 0x00,
    0x00, 0x00, 0x00, 0x00, 0x00, 0x00, 0x00, 0x00, 0x00, 0x00, 0x00, 0x00,
    0x00, 0x00, 0x00, 0x00, 0x00, 0x00, 0x00, 0x00, 0x00, 0x00, 0x00, 0x00,
    0x00, 0x00, 0x00, 0x00, 0x00, 0x00, 0x00, 0x00, 0x00, 0x00, 0x00, 0x00,
    0x00, 0x00, 0x00, 0x00, 0x00, 0x00, 0x00, 0x00, 0x00, 0x00, 0x00, 0x00,
    0x00, 0x00, 0x00, 0x00, 0xD8, 0x18, 0x5C, 0x01, 0x0C, 0x00, 0x9C, 0xB2,
    0x8B, 0xEE, 0xCD, 0x87, 0x1A, 0x00, 0x00, 0x80, 0xAC, 0xAF, 0xFA, 0xD2,
    0x2B, 0xFB, 0xD6, 0x0D, 0xF0, 0x71, 0x38, 0x44, 0xE5, 0xE1, 0xD6, 0x06,
    0x38, 0xFF, 0xFF, 0xE8, 0xA2, 0xEA, 0x49, 0x33, 0x09, 0xE6, 0xFC, 0xFF,
    0xEA, 0xC3, 0x87, 0x4C, 0x39, 0x27, 0x1A, 0xA9, 0x0F, 0x00, 0x00, 0xEF,
    0x4A, 0xD6, 0x28, 0x3F, 0xED, 0x5F, 0x44, 0x00, 0x50, 0xE2, 0x7A, 0xCC,
    0x60, 0x4D, 0x95, 0x8E, 0xF6, 0xFF, 0xE7, 0x0A, 0xA7, 0x80, 0x4C, 0x21,
    0xF7, 0x00, 0xFF, 0xCF, 0x7B, 0x66, 0x70, 0xEF, 0x9E, 0xAF, 0x07, 0xF6,
    0x0F, 0x00, 0x00, 0x00, 0x7C, 0x5C, 0xE0, 0xA2, 0xE8, 0x38, 0x30, 0xA3,
    0xCF, 0x32, 0x2C, 0x5A, 0xF0, 0x46, 0x1D, 0x8A, 0xF0, 0x3F, 0x3F, 0x8B,
    0x4D, 0x27, 0xDA, 0xBF, 0x46, 0xF8, 0xFF, 0xD2, 0xDC, 0x88, 0x61, 0xA3,
    0x13, 0xF3, 0x31, 0xFF, 0x0F, 0x00, 0x00, 0x00, 0x46, 0xE7, 0x93, 0xA4,
    0x09, 0x8D, 0xDC, 0x05, 0xF0, 0x97, 0xB0, 0x6C, 0x60, 0x28, 0xEB, 0xEF,
    0xCA, 0xFF, 0xEF, 0xE8, 0x67, 0xBB, 0xD3, 0x26, 0xBD, 0x94, 0xF7, 0xFF,
    0x10, 0x05, 0x84, 0xA7, 0x96, 0x67, 0x3B, 0x2F, 0x0F, 0x00, 0x00, 0x06,
    0x32, 0xE8, 0x2D, 0x97, 0x39, 0xD3, 0xBC, 0x00, 0x80, 0x50, 0x0C, 0xEF,
    0xB4, 0xED, 0x6D, 0x61, 0xF6, 0xFF, 0x31, 0x36, 0x8E, 0x49, 0xB9, 0xDE,
    0x03, 0xBA, 0xFF, 0x0F, 0x6A, 0xF9, 0x15, 0x4C, 0xDB, 0x89, 0x79, 0xF6,
    0x0F, 0x00, 0x00, 0x00, 0x94, 0xC2, 0xDC, 0x05, 0x36, 0x1D, 0xFC, 0xDD,
    0x6D, 0x3B, 0x39, 0xED, 0x34, 0x63, 0x27, 0xA1, 0xF0, 0xFF, 0xDE, 0xBE,
    0x08, 0xB8, 0x5A, 0x8F, 0xE6, 0xF1, 0xFF, 0x05, 0xDE, 0x1A, 0x9F, 0xE7,
    0xA4, 0x2F, 0x57, 0xFF, 0x0F, 0x00, 0x00, 0xA0, 0xC3, 0x8A, 0xBE, 0xC3,
    0x0E, 0x77, 0xC6, 0x07, 0xF0, 0x1E, 0x0E, 0xD2, 0x50, 0x3D, 0x65, 0x6C,
    0x49, 0xFF, 0xAF, 0xA2, 0xA4, 0x73, 0x78, 0x97, 0x86, 0xDA, 0xF5, 0xFF,
    0xFC, 0xDE, 0x72, 0x28, 0xDC, 0x42, 0x21, 0x67, 0x0F, 0x00, 0x00, 0x7A,
    0xD6, 0x20, 0xAE, 0x75, 0xEA, 0x79, 0xFA, 0x00, 0x50, 0x64, 0x69, 0x36,
    0x2D, 0xAE, 0xC1, 0xED, 0xF2, 0xFF, 0xDC, 0x74, 0xE8, 0xA3, 0x58, 0xFD,
    0xDB, 0xC5, 0xFF, 0x0F, 0x66, 0x96, 0x70, 0x73, 0xDC, 0x08, 0x4E, 0xF6,
    0x0F, 0x00, 0x00, 0x10, 0x4A, 0xE0, 0x02, 0x08, 0xCF, 0x73, 0xAC, 0x0E,
    0x2A, 0xEA, 0xD2, 0xF1, 0x19, 0x11, 0x24, 0xEF, 0xF0, 0x3F, 0xFE, 0x7D,
    0x71, 0x75, 0x11, 0x68, 0x8F, 0xF7, 0xFF, 0x39, 0x44, 0x3C, 0x53, 0x28,
    0x51, 0x42, 0x7C, 0xFF, 0x0F, 0x00, 0x00, 0xA0, 0x3B, 0xF1, 0xE1, 0x37,
    0x2E, 0xF4, 0xD7, 0x05, 0xF2, 0xB3, 0xD0, 0x09, 0x36, 0xB7, 0x2B, 0xA0,
    0x9B, 0xFF, 0x4F, 0x03, 0x9A, 0x9A, 0x9E, 0xC4, 0x04, 0x33, 0xFE, 0xFF,
    0x27, 0x37, 0x2F, 0x4D, 0xCD, 0x07, 0x8E, 0xD9, 0x0F, 0x00, 0x00, 0xE2,
    0xEC, 0xE4, 0xFD, 0xEC, 0xF4, 0x7F, 0x46, 0x00, 0xB0, 0x1E, 0x92, 0x5A,
    0x5A, 0x92, 0x07, 0xF9, 0xF7, 0xFF, 0xF5, 0x0B, 0x7D, 0x91, 0x6E, 0x63,
    0xE2, 0x9E, 0xFF, 0x1F, 0xEE, 0x33, 0x3F, 0x94, 0x59, 0x97, 0xF5, 0xF9,
    0x0F, 0x00, 0x00, 0x00, 0xEE, 0xA1, 0x26, 0x4B, 0x38, 0xBE, 0x5F, 0xA2,
    0x99, 0x79, 0x2D, 0x71, 0x3C, 0xCF, 0x40, 0x2A, 0xF0, 0x8F, 0x38, 0x1D,
    0xFC, 0x3D, 0x30, 0x69, 0xDB, 0xFB, 0xFF, 0x08, 0x83, 0x49, 0x1B, 0x09,
    0x0D, 0xF5, 0xCE, 0xFF, 0x0F, 0x00, 0x02, 0xF0, 0xE8, 0x32, 0x2E, 0x9B,
    0xC9, 0x1D, 0xB3, 0x01, 0xF0, 0x0B, 0xA6, 0x16, 0xE3, 0xDF, 0x1B, 0xD0,
    0x42, 0xFF, 0xEF, 0xCD, 0x1A, 0xA2, 0x41, 0xC6, 0xEF, 0x1E, 0xF1, 0xFF,
    0x87, 0xC4, 0x60, 0xAE, 0xFB, 0x80, 0xAC, 0xE0, 0x0F, 0x00, 0x00, 0x59,
    0x3E, 0x50, 0x24, 0x34, 0xD3, 0xBE, 0x9F, 0x00, 0x40, 0x33, 0x82, 0xE5,
    0x35, 0xD5, 0xB5, 0x1B, 0xF0, 0xFF, 0x79, 0xAF, 0xF5, 0x48, 0x61, 0xC8,
    0x27, 0x3A, 0xFF, 0xAF, 0xE3, 0x9B, 0xEA, 0x78, 0xC9, 0x16, 0x81, 0xF9,
    0x0F, 0x00, 0x00, 0x00, 0x6F, 0x44, 0x2B, 0x12, 0xE2, 0x12, 0x73, 0x1D,
    0x9C, 0xAC, 0x7D, 0xA6, 0xEE, 0x85, 0x55, 0x54, 0xF0, 0x1F, 0x74, 0x14,
    0x09, 0x12, 0xC0, 0xC3, 0x9A, 0xFD, 0xFF, 0xEB, 0x78, 0x08, 0x1C, 0xBE,
    0x68, 0xC4, 0x04, 0xFF, 0x0F, 0x00, 0x00, 0x60, 0x11, 0x70, 0xFE, 0x5B,
    0x11, 0xF6, 0x5E, 0x09, 0xF0, 0x12, 0x0D, 0xC8, 0xC2, 0x7B, 0x0D, 0x96,
    0xD1, 0xFF, 0x4F, 0xFB, 0x26, 0x7A, 0xC1, 0x3B, 0x8A, 0x65, 0xF0, 0xFF,
    0x49, 0xF9, 0x6F, 0x19, 0x4E, 0x3A, 0x6D, 0xA8, 0x0F, 0x00, 0x00, 0x1A,
    0x7D, 0x89, 0xC4, 0xA3, 0xC8, 0x15, 0x7D, 0x00, 0x30, 0xA0, 0x3B, 0xC0,
    0x95, 0xE2, 0xA6, 0xCB, 0xF9, 0xFF, 0x1A, 0xF6, 0x1F, 0x91, 0x02, 0x61,
    0x18, 0x59, 0xFF, 0xBF, 0x23, 0x2F, 0x7E, 0xCB, 0x48, 0xBA, 0x08, 0xF1,
    0x0F, 0x00, 0x00, 0x00, 0x75, 0x3D, 0x28, 0x1C, 0x0C, 0x80, 0xEF, 0x73,
    0xF2, 0xFD, 0x25, 0xDF, 0x8F, 0x05, 0xF2, 0x92, 0xF0, 0xDF, 0xD2, 0xEF,
    0x72, 0xE1, 0x30, 0x26, 0x6E, 0xF1, 0xFF, 0xBF, 0xC2, 0x48, 0xF5, 0xA7,
    0xAF, 0x80, 0x97, 0xFF, 0x0F, 0x00, 0x00, 0x20, 0x98, 0x8C, 0xFA, 0xAB,
    0x1D, 0xE7, 0xA4, 0x0E, 0xF0, 0xE6, 0xF3, 0xD3, 0xF9, 0x33, 0x28, 0xDE,
    0x6D, 0xFF, 0xFF, 0x64, 0x4A, 0x08, 0x7F, 0xA9, 0xD7, 0xBC, 0xF5, 0xFF,
    0x57, 0x5C, 0x08, 0xE5, 0x72, 0x5E, 0xD7, 0x3A, 0x0F, 0x00, 0x00, 0x8D,
    0x0E, 0xF1, 0x32, 0x51, 0x87, 0x14, 0x8B, 0x00, 0xB0, 0x32, 0x10, 0x66,
    0xF7, 0x33, 0xAD, 0xA3, 0xFC, 0xFF, 0x66, 0x3F, 0xF0, 0x80, 0x72, 0x22,
    0xF3, 0x24, 0xFF, 0x7F, 0x28, 0x8D, 0xE7, 0xF1, 0x7C, 0xC3, 0xB5, 0xFC,
    0x0F, 0x00, 0x00, 0x00, 0xB8, 0xF0, 0x0D, 0x2F, 0xC5, 0x2D, 0xBF, 0x06,
    0xDC, 0xF5, 0x5C, 0x78, 0xA0, 0x5B, 0x19, 0x9F, 0xF0, 0x3F, 0x93, 0xE0,
    0xAA, 0xCE, 0x62, 0xA8, 0xB9, 0xF1, 0xFF, 0x32, 0xE7, 0x73, 0x29, 0x9F,
    0x46, 0x6C, 0x18, 0xFF, 0x0F, 0x00, 0x00, 0x70, 0x24, 0x02, 0xFD, 0xF0,
    0xAB, 0x74, 0x02, 0x0A, 0xF0, 0x75, 0x52, 0xE2, 0xC2, 0x08, 0xAA, 0x96,
    0xF8, 0xFF, 0x8F, 0xF9, 0xB7, 0xAF, 0x34, 0x5A, 0xF1, 0x25, 0xF2, 0xFF,
    0xF1, 0xA8, 0xC1, 0x00, 0xA8, 0xF5, 0x86, 0x3A, 0x0F, 0x00, 0x00, 0xE8,
    0x52, 0x8E, 0x94, 0x85, 0x31, 0x73, 0x97, 0x00, 0x60, 0x33, 0x93, 0xCA,
    0x62, 0x04, 0x5F, 0xB7, 0xFF, 0xFF, 0x34, 0x8E, 0x89, 0x05, 0x1A, 0xFA,
    0xAC, 0x3D, 0xFF, 0xCF, 0xC9, 0xB4, 0x4E, 0xBB, 0x78, 0xF5, 0x42, 0xF5,
    0x0F, 0x00, 0x00, 0x02, 0xF0, 0x7B, 0x2C, 0x4A, 0x46, 0xCF, 0x9B, 0x13,
    0xF0, 0xFF, 0x47, 0xEF, 0xF4, 0x9E, 0x6F, 0x6A, 0x70, 0xFE, 0xFF, 0x9D,
    0x8F, 0xFC, 0x2F, 0x3F, 0x6E, 0x0D, 0xA8, 0xFF, 0x9F, 0x4A, 0x12, 0x31,
    0x42, 0xA2, 0x53, 0x95, 0x02, 0x00, 0x00, 0x90, 0x05, 0x63, 0xC8, 0xF3,
    0x11, 0x44, 0x12, 0x0E, 0xF0, 0x4E, 0x87, 0x3C, 0x07, 0x6B, 0x3F, 0xCB,
    0x52, 0xFF, 0x3F, 0x3E, 0x20, 0x95, 0xF3, 0xFF, 0xFF, 0xFF, 0xFF, 0xFF,
    0xFF, 0xFF, 0xFF, 0xFF, 0xFF, 0xFF, 0xFF, 0xFF, 0xFF, 0xFF, 0xFF, 0xFF,
    0xFF, 0xFF, 0xFF, 0xFF, 0xFF, 0xFF, 0xFF, 0xFF, 0xFF, 0xFF, 0xFF, 0xFF,
    0xFF, 0xFF, 0xFF, 0xFF, 0xFF, 0xFF, 0xFF, 0xFF, 0xFF, 0xFF, 0xFF, 0xFF,
    0xFF, 0xFF, 0xFF, 0xFF, 0xFF, 0xFF, 0xFF, 0xFF, 0xFF, 0xFF, 0xFF, 0xFF,
    0xFF, 0xFF, 0xFF, 0xFF, 0x0F, 0xFF, 0xFF, 0xFF, 0xFF, 0xFF, 0xFF, 0xFF,
    0xFF, 0xFF, 0xFF, 0xFF, 0xFF, 0xFF, 0xFF, 0xFF
};
static const size_t  fc_in__200__o_4_relu_weights_size = sizeof(fc_in__200__o_4_relu_weights);
