/*
 * Auto-generated from: resnet_v1_8_32_tfs_int8_17_2_vela.npz
 * Do not edit by hand.
 *
 * Generated for Ethos-U direct driver invocation (no TFLM).
 * Assumes a single NPU command stream with no CPU fallback.
 */
#pragma once
#include <stdint.h>
#include <stddef.h>

// Weight region index chosen by Vela:
#define RESNET_V1_8_32_TFS_INT8_17_2_WEIGHT_REGION 0

__attribute__((aligned(32)))
static const uint8_t resnet_v1_8_32_tfs_int8_17_2_weights[] = {
    0xF9, 0x09, 0x00, 0x00, 0x4E, 0xB7, 0x6D, 0x4D, 0x26, 0x00, 0x06, 0x0E,
    0x00, 0x00, 0x26, 0xB0, 0x91, 0x50, 0x28, 0x00, 0xEF, 0x01, 0x00, 0x00,
    0x93, 0x0B, 0xA4, 0x6B, 0x27, 0x00, 0x66, 0xFE, 0xFF, 0xFF, 0x45, 0x52,
    0x62, 0x70, 0x29, 0x00, 0xBD, 0x11, 0x00, 0x00, 0x87, 0xC3, 0xF8, 0x4C,
    0x27, 0x00, 0x5B, 0x0B, 0x00, 0x00, 0x2B, 0xF3, 0xB5, 0x53, 0x27, 0x00,
    0x14, 0x0F, 0x00, 0x00, 0x77, 0xC3, 0x0A, 0x75, 0x28, 0x00, 0x44, 0x18,
    0x00, 0x00, 0xDB, 0x51, 0x6A, 0x7F, 0x28, 0x00, 0x6A, 0x1E, 0x00, 0x00,
    0x7C, 0x67, 0xC6, 0x7B, 0x29, 0x00, 0x19, 0x3A, 0x00, 0x00, 0x6E, 0x6F,
    0x6C, 0x69, 0x29, 0x00, 0xBF, 0x0E, 0x00, 0x00, 0xF8, 0x23, 0x28, 0x46,
    0x27, 0x00, 0xB9, 0x58, 0xFF, 0xFF, 0x82, 0xC0, 0xA1, 0x59, 0x2A, 0x00,
    0x33, 0x04, 0x00, 0x00, 0x5A, 0x99, 0xFB, 0x50, 0x26, 0x00, 0x6E, 0x38,
    0x00, 0x00, 0xAE, 0xC1, 0xF4, 0x7C, 0x29, 0x00, 0x32, 0xFF, 0xFF, 0xFF,
    0xAB, 0x2A, 0x7F, 0x50, 0x28, 0x00, 0xC8, 0x0F, 0x00, 0x00, 0xE5, 0xE0,
    0xCC, 0x53, 0x27, 0x00, 0x01, 0x00, 0x00, 0x00, 0x00, 0x00, 0x00, 0x00,
    0x00, 0x00, 0x00, 0x00, 0x00, 0x00, 0x3A, 0x36, 0x00, 0xB0, 0x41, 0xE2,
    0xCE, 0x01, 0x02, 0x2D, 0x3A, 0x2C, 0x28, 0x00, 0x61, 0x82, 0x9E, 0x08,
    0x1D, 0xF3, 0x00, 0x00, 0x00, 0x00, 0x00, 0x00, 0x1B, 0x12, 0xC5, 0x00,
    0x00, 0x00, 0x00, 0x00, 0x00, 0xFD, 0x02, 0x00, 0x00, 0x00, 0x00, 0x00,
    0xEA, 0xF2, 0xFB, 0x00, 0x00, 0x00, 0x00, 0x00, 0xFD, 0xFE, 0x08, 0x00,
    0x00, 0x00, 0x00, 0x00, 0xFE, 0x02, 0xF7, 0x00, 0x00, 0x00, 0x00, 0x00,
    0x3D, 0xF8, 0xC8, 0x00, 0x00, 0x00, 0x00, 0x00, 0xDC, 0x02, 0xFA, 0x00,
    0x00, 0x00, 0x00, 0x00, 0x00, 0x00, 0x00, 0x00, 0x00, 0x00, 0x00, 0x00,
    0x00, 0x00, 0x00, 0x00, 0x00, 0x00, 0x00, 0x00, 0x00, 0x00, 0x00, 0x00,
    0x00, 0x00, 0x00, 0x00, 0x00, 0x00, 0x00, 0x00, 0x00, 0x00, 0x00, 0x00,
    0x00, 0x00, 0x00, 0x00, 0x00, 0x00, 0x00, 0x00, 0x00, 0x00, 0x00, 0x00,
    0x00, 0x00, 0x00, 0x00, 0x00, 0x00, 0x00, 0x00, 0x00, 0x00, 0x00, 0x00,
    0x00, 0x00, 0x00, 0x00, 0x00, 0x00, 0x00, 0x00, 0xF8, 0xFB, 0xFE, 0x00,
    0x00, 0x00, 0x00, 0x00, 0xFF, 0x16, 0x04, 0x00, 0x00, 0x00, 0x00, 0x00,
    0x06, 0xFB, 0x01, 0x00, 0x00, 0x00, 0x00, 0x00, 0x09, 0x0F, 0xFF, 0x00,
    0x00, 0x00, 0x00, 0x00, 0x04, 0xFC, 0x08, 0x00, 0x00, 0x00, 0x00, 0x00,
    0xFC, 0x06, 0x02, 0x00, 0x00, 0x00, 0x00, 0x00, 0x7F, 0xF8, 0x91, 0x00,
    0x00, 0x00, 0x00, 0x00, 0xFC, 0x18, 0x1A, 0x00, 0x00, 0x00, 0x00, 0x00,
    0x00, 0x00, 0x00, 0x00, 0x00, 0x00, 0x00, 0x00, 0x00, 0x00, 0x00, 0x00,
    0x00, 0x00, 0x00, 0x00, 0x00, 0x00, 0x00, 0x00, 0x00, 0x00, 0x00, 0x00,
    0x00, 0x00, 0x00, 0x00, 0x00, 0x00, 0x00, 0x00, 0x00, 0x00, 0x00, 0x00,
    0x00, 0x00, 0x00, 0x00, 0x00, 0x00, 0x00, 0x00, 0x00, 0x00, 0x00, 0x00,
    0x00, 0x00, 0x00, 0x00, 0x00, 0x00, 0x00, 0x00, 0x00, 0x00, 0x00, 0x00,
    0x00, 0x00, 0x00, 0x00, 0xE8, 0x1B, 0x05, 0x00, 0x00, 0x00, 0x00, 0x00,
    0x0E, 0x08, 0xD8, 0x00, 0x00, 0x00, 0x00, 0x00, 0x02, 0xFA, 0x03, 0x00,
    0x00, 0x00, 0x00, 0x00, 0x18, 0x0D, 0x02, 0x00, 0x00, 0x00, 0x00, 0x00,
    0xF0, 0xFC, 0x02, 0x00, 0x00, 0x00, 0x00, 0x00, 0x0A, 0xFE, 0x0F, 0x00,
    0x00, 0x00, 0x00, 0x00, 0x5A, 0xE2, 0xAB, 0x00, 0x00, 0x00, 0x00, 0x00,
    0xF9, 0x00, 0xF8, 0x00, 0x00, 0x00, 0x00, 0x00, 0x00, 0x00, 0x00, 0x00,
    0x00, 0x00, 0x00, 0x00, 0x00, 0x00, 0x00, 0x00, 0x00, 0x00, 0x00, 0x00,
    0x00, 0x00, 0x00, 0x00, 0x00, 0x00, 0x00, 0x00, 0x00, 0x00, 0x00, 0x00,
    0x00, 0x00, 0x00, 0x00, 0x00, 0x00, 0x00, 0x00, 0x00, 0x00, 0x00, 0x00,
    0x00, 0x00, 0x00, 0x00, 0x00, 0x00, 0x00, 0x00, 0x00, 0x00, 0x00, 0x00,
    0x00, 0x00, 0x00, 0x00, 0x00, 0x00, 0x00, 0x00, 0x00, 0x00, 0x00, 0x00,
    0xB8, 0x2A, 0x26, 0x00, 0x00, 0x00, 0x00, 0x00, 0xD1, 0xF8, 0x3C, 0x00,
    0x00, 0x00, 0x00, 0x00, 0xF3, 0x07, 0x03, 0x00, 0x00, 0x00, 0x00, 0x00,
    0xDF, 0xD3, 0xE9, 0x00, 0x00, 0x00, 0x00, 0x00, 0x06, 0x03, 0xFF, 0x00,
    0x00, 0x00, 0x00, 0x00, 0xD4, 0x81, 0xCD, 0x00, 0x00, 0x00, 0x00, 0x00,
    0x07, 0x14, 0x00, 0x00, 0x00, 0x00, 0x00, 0x00, 0x0F, 0xFC, 0xDF, 0x00,
    0x00, 0x00, 0x00, 0x00, 0x00, 0x00, 0x00, 0x00, 0x00, 0x00, 0x00, 0x00,
    0x00, 0x00, 0x00, 0x00, 0x00, 0x00, 0x00, 0x00, 0x00, 0x00, 0x00, 0x00,
    0x00, 0x00, 0x00, 0x00, 0x00, 0x00, 0x00, 0x00, 0x00, 0x00, 0x00, 0x00,
    0x00, 0x00, 0x00, 0x00, 0x00, 0x00, 0x00, 0x00, 0x00, 0x00, 0x00, 0x00,
    0x00, 0x00, 0x00, 0x00, 0x00, 0x00, 0x00, 0x00, 0x00, 0x00, 0x00, 0x00,
    0x00, 0x00, 0x00, 0x00, 0x00, 0x00, 0x00, 0x00, 0xCF, 0xF8, 0x33, 0x00,
    0x00, 0x00, 0x00, 0x00, 0x8B, 0xE7, 0x7F, 0x00, 0x00, 0x00, 0x00, 0x00,
    0x00, 0x7F, 0x8A, 0x00, 0x00, 0x00, 0x00, 0x00, 0xEB, 0xFC, 0xDF, 0x00,
    0x00, 0x00, 0x00, 0x00, 0xD0, 0x90, 0x81, 0x00, 0x00, 0x00, 0x00, 0x00,
    0x38, 0x43, 0x4D, 0x00, 0x00, 0x00, 0x00, 0x00, 0x03, 0x05, 0xF2, 0x00,
    0x00, 0x00, 0x00, 0x00, 0x67, 0x7F, 0x68, 0x00, 0x00, 0x00, 0x00, 0x00,
    0x00, 0x00, 0x00, 0x00, 0x00, 0x00, 0x00, 0x00, 0x00, 0x00, 0x00, 0x00,
    0x00, 0x00, 0x00, 0x00, 0x00, 0x00, 0x00, 0x00, 0x00, 0x00, 0x00, 0x00,
    0x00, 0x00, 0x00, 0x00, 0x00, 0x00, 0x00, 0x00, 0x00, 0x00, 0x00, 0x00,
    0x00, 0x00, 0x00, 0x00, 0x00, 0x00, 0x00, 0x00, 0x00, 0x00, 0x00, 0x00,
    0x00, 0x00, 0x00, 0x00, 0x00, 0x00, 0x00, 0x00, 0x00, 0x00, 0x00, 0x00,
    0x00, 0x00, 0x00, 0x00, 0x7F, 0xCD, 0xAF, 0x00, 0x00, 0x00, 0x00, 0x00,
    0x15, 0x26, 0xEB, 0x00, 0x00, 0x00, 0x00, 0x00, 0xF5, 0x0A, 0xFF, 0x00,
    0x00, 0x00, 0x00, 0x00, 0x00, 0x06, 0x24, 0x00, 0x00, 0x00, 0x00, 0x00,
    0x48, 0x74, 0x68, 0x00, 0x00, 0x00, 0x00, 0x00, 0xFC, 0x0D, 0xF4, 0x00,
    0x00, 0x00, 0x00, 0x00, 0xF5, 0xE8, 0x11, 0x00, 0x00, 0x00, 0x00, 0x00,
    0xAB, 0x94, 0x90, 0x00, 0x00, 0x00, 0x00, 0x00, 0x00, 0x00, 0x00, 0x00,
    0x00, 0x00, 0x00, 0x00, 0x00, 0x00, 0x00, 0x00, 0x00, 0x00, 0x00, 0x00,
    0x00, 0x00, 0x00, 0x00, 0x00, 0x00, 0x00, 0x00, 0x00, 0x00, 0x00, 0x00,
    0x00, 0x00, 0x00, 0x00, 0x00, 0x00, 0x00, 0x00, 0x00, 0x00, 0x00, 0x00,
    0x00, 0x00, 0x00, 0x00, 0x00, 0x00, 0x00, 0x00, 0x00, 0x00, 0x00, 0x00,
    0x00, 0x00, 0x00, 0x00, 0x00, 0x00, 0x00, 0x00, 0x00, 0x00, 0x00, 0x00,
    0x27, 0xDB, 0xFC, 0x00, 0x00, 0x00, 0x00, 0x00, 0xD9, 0x52, 0xB9, 0x00,
    0x00, 0x00, 0x00, 0x00, 0x08, 0xFB, 0xFE, 0x00, 0x00, 0x00, 0x00, 0x00,
    0x50, 0x63, 0x61, 0x00, 0x00, 0x00, 0x00, 0x00, 0x1C, 0x2B, 0x31, 0x00,
    0x00, 0x00, 0x00, 0x00, 0xF9, 0x03, 0xF7, 0x00, 0x00, 0x00, 0x00, 0x00,
    0xB6, 0x14, 0x35, 0x00, 0x00, 0x00, 0x00, 0x00, 0x2F, 0x3C, 0x1E, 0x00,
    0x00, 0x00, 0x00, 0x00, 0x00, 0x00, 0x00, 0x00, 0x00, 0x00, 0x00, 0x00,
    0x00, 0x00, 0x00, 0x00, 0x00, 0x00, 0x00, 0x00, 0x00, 0x00, 0x00, 0x00,
    0x00, 0x00, 0x00, 0x00, 0x00, 0x00, 0x00, 0x00, 0x00, 0x00, 0x00, 0x00,
    0x00, 0x00, 0x00, 0x00, 0x00, 0x00, 0x00, 0x00, 0x00, 0x00, 0x00, 0x00,
    0x00, 0x00, 0x00, 0x00, 0x00, 0x00, 0x00, 0x00, 0x00, 0x00, 0x00, 0x00,
    0x00, 0x00, 0x00, 0x00, 0x00, 0x00, 0x00, 0x00, 0xE8, 0x16, 0x07, 0x00,
    0x00, 0x00, 0x00, 0x00, 0x84, 0x21, 0x69, 0x00, 0x00, 0x00, 0x00, 0x00,
    0xE4, 0x45, 0xCE, 0x00, 0x00, 0x00, 0x00, 0x00, 0x36, 0x3B, 0x12, 0x00,
    0x00, 0x00, 0x00, 0x00, 0xD2, 0xD7, 0xD6, 0x00, 0x00, 0x00, 0x00, 0x00,
    0xC3, 0xDA, 0xE0, 0x00, 0x00, 0x00, 0x00, 0x00, 0x9A, 0x28, 0x6A, 0x00,
    0x00, 0x00, 0x00, 0x00, 0xCA, 0xB9, 0xF9, 0x00, 0x00, 0x00, 0x00, 0x00,
    0x00, 0x00, 0x00, 0x00, 0x00, 0x00, 0x00, 0x00, 0x00, 0x00, 0x00, 0x00,
    0x00, 0x00, 0x00, 0x00, 0x00, 0x00, 0x00, 0x00, 0x00, 0x00, 0x00, 0x00,
    0x00, 0x00, 0x00, 0x00, 0x00, 0x00, 0x00, 0x00, 0x00, 0x00, 0x00, 0x00,
    0x00, 0x00, 0x00, 0x00, 0x00, 0x00, 0x00, 0x00, 0x00, 0x00, 0x00, 0x00,
    0x00, 0x00, 0x00, 0x00, 0x00, 0x00, 0x00, 0x00, 0x00, 0x00, 0x00, 0x00,
    0x00, 0x00, 0x00, 0x00, 0xE8, 0x1D, 0xF5, 0x00, 0x00, 0x00, 0x00, 0x00,
    0xC0, 0x18, 0x14, 0x00, 0x00, 0x00, 0x00, 0x00, 0x04, 0xFC, 0x07, 0x00,
    0x00, 0x00, 0x00, 0x00, 0xA2, 0x81, 0xA3, 0x00, 0x00, 0x00, 0x00, 0x00,
    0x04, 0xFF, 0xFD, 0x00, 0x00, 0x00, 0x00, 0x00, 0x48, 0x2C, 0x30, 0x00,
    0x00, 0x00, 0x00, 0x00, 0x89, 0x11, 0x48, 0x00, 0x00, 0x00, 0x00, 0x00,
    0x0F, 0xED, 0xF7, 0x00, 0x00, 0x00, 0x00, 0x00, 0x00, 0x00, 0x00, 0x00,
    0x00, 0x00, 0x00, 0x00, 0x00, 0x00, 0x00, 0x00, 0x00, 0x00, 0x00, 0x00,
    0x00, 0x00, 0x00, 0x00, 0x00, 0x00, 0x00, 0x00, 0x00, 0x00, 0x00, 0x00,
    0x00, 0x00, 0x00, 0x00, 0x00, 0x00, 0x00, 0x00, 0x00, 0x00, 0x00, 0x00,
    0x00, 0x00, 0x00, 0x00, 0x00, 0x00, 0x00, 0x00, 0x00, 0x00, 0x00, 0x00,
    0x00, 0x00, 0x00, 0x00, 0x00, 0x00, 0x00, 0x00, 0x00, 0x00, 0x00, 0x00,
    0x00, 0x00, 0x00, 0x00, 0x00, 0x00, 0x00, 0x00, 0x00, 0x00, 0x00, 0x00,
    0x00, 0x00, 0x00, 0x00, 0x00, 0x00, 0x00, 0x00, 0x00, 0x00, 0x00, 0x00,
    0x00, 0x00, 0x00, 0x00, 0x00, 0x00, 0x00, 0x00, 0x00, 0x00, 0x00, 0x00,
    0x00, 0x00, 0x00, 0x00, 0x00, 0x00, 0x00, 0x00, 0x00, 0x00, 0x00, 0x00,
    0x00, 0x00, 0x00, 0x00, 0x00, 0x00, 0x00, 0x00, 0x00, 0x00, 0x00, 0x00,
    0x00, 0x00, 0x00, 0x00, 0x00, 0x00, 0x00, 0x00, 0x00, 0x00, 0x00, 0x00,
    0x00, 0x00, 0x00, 0x00, 0x00, 0x00, 0x00, 0x00, 0x00, 0x00, 0x00, 0x00,
    0x00, 0x00, 0x00, 0x00, 0x00, 0x00, 0x00, 0x00, 0x00, 0x00, 0x00, 0x00,
    0x00, 0x00, 0x00, 0x00, 0x00, 0x00, 0x00, 0x00, 0x00, 0x00, 0x00, 0x00,
    0x00, 0x00, 0x00, 0x00, 0x00, 0x00, 0x00, 0x00, 0x00, 0x00, 0x00, 0x00,
    0x00, 0x00, 0x00, 0x00, 0x00, 0x00, 0x00, 0x00, 0xF5, 0xF8, 0xF3, 0x00,
    0x00, 0x00, 0x00, 0x00, 0x22, 0x46, 0x5B, 0x00, 0x00, 0x00, 0x00, 0x00,
    0xFB, 0xFC, 0x02, 0x00, 0x00, 0x00, 0x00, 0x00, 0x12, 0x08, 0x08, 0x00,
    0x00, 0x00, 0x00, 0x00, 0xFA, 0x01, 0x00, 0x00, 0x00, 0x00, 0x00, 0x00,
    0x0D, 0x36, 0xED, 0x00, 0x00, 0x00, 0x00, 0x00, 0x09, 0xEF, 0xFA, 0x00,
    0x00, 0x00, 0x00, 0x00, 0x1C, 0xE7, 0xEB, 0x00, 0x00, 0x00, 0x00, 0x00,
    0x00, 0x00, 0x00, 0x00, 0x00, 0x00, 0x00, 0x00, 0x00, 0x00, 0x00, 0x00,
    0x00, 0x00, 0x00, 0x00, 0x00, 0x00, 0x00, 0x00, 0x00, 0x00, 0x00, 0x00,
    0x00, 0x00, 0x00, 0x00, 0x00, 0x00, 0x00, 0x00, 0x00, 0x00, 0x00, 0x00,
    0x00, 0x00, 0x00, 0x00, 0x00, 0x00, 0x00, 0x00, 0x00, 0x00, 0x00, 0x00,
    0x00, 0x00, 0x00, 0x00, 0x00, 0x00, 0x00, 0x00, 0x00, 0x00, 0x00, 0x00,
    0x00, 0x00, 0x00, 0x00, 0xD1, 0x06, 0xD8, 0x00, 0x00, 0x00, 0x00, 0x00,
    0x6F, 0x61, 0x6C, 0x00, 0x00, 0x00, 0x00, 0x00, 0xEF, 0x03, 0x02, 0x00,
    0x00, 0x00, 0x00, 0x00, 0x57, 0x60, 0x5C, 0x00, 0x00, 0x00, 0x00, 0x00,
    0x19, 0xE8, 0x00, 0x00, 0x00, 0x00, 0x00, 0x00, 0xC2, 0xCB, 0x08, 0x00,
    0x00, 0x00, 0x00, 0x00, 0xEC, 0xED, 0xF6, 0x00, 0x00, 0x00, 0x00, 0x00,
    0x0C, 0xF7, 0x15, 0x00, 0x00, 0x00, 0x00, 0x00, 0x00, 0x00, 0x00, 0x00,
    0x00, 0x00, 0x00, 0x00, 0x00, 0x00, 0x00, 0x00, 0x00, 0x00, 0x00, 0x00,
    0x00, 0x00, 0x00, 0x00, 0x00, 0x00, 0x00, 0x00, 0x00, 0x00, 0x00, 0x00,
    0x00, 0x00, 0x00, 0x00, 0x00, 0x00, 0x00, 0x00, 0x00, 0x00, 0x00, 0x00,
    0x00, 0x00, 0x00, 0x00, 0x00, 0x00, 0x00, 0x00, 0x00, 0x00, 0x00, 0x00,
    0x00, 0x00, 0x00, 0x00, 0x00, 0x00, 0x00, 0x00, 0x00, 0x00, 0x00, 0x00,
    0xE1, 0x06, 0xBE, 0x00, 0x00, 0x00, 0x00, 0x00, 0x32, 0x31, 0x1E, 0x00,
    0x00, 0x00, 0x00, 0x00, 0x22, 0x2A, 0x22, 0x00, 0x00, 0x00, 0x00, 0x00,
    0x98, 0xC2, 0xFA, 0x00, 0x00, 0x00, 0x00, 0x00, 0xF5, 0x06, 0x06, 0x00,
    0x00, 0x00, 0x00, 0x00, 0x81, 0x8F, 0xF0, 0x00, 0x00, 0x00, 0x00, 0x00,
    0x04, 0xF1, 0x0A, 0x00, 0x00, 0x00, 0x00, 0x00, 0x0C, 0xF3, 0xF0, 0x00,
    0x00, 0x00, 0x00, 0x00, 0x00, 0x00, 0x00, 0x00, 0x00, 0x00, 0x00, 0x00,
    0x00, 0x00, 0x00, 0x00, 0x00, 0x00, 0x00, 0x00, 0x00, 0x00, 0x00, 0x00,
    0x00, 0x00, 0x00, 0x00, 0x00, 0x00, 0x00, 0x00, 0x00, 0x00, 0x00, 0x00,
    0x00, 0x00, 0x00, 0x00, 0x00, 0x00, 0x00, 0x00, 0x00, 0x00, 0x00, 0x00,
    0x00, 0x00, 0x00, 0x00, 0x00, 0x00, 0x00, 0x00, 0x00, 0x00, 0x00, 0x00,
    0x00, 0x00, 0x00, 0x00, 0x00, 0x00, 0x00, 0x00, 0xF1, 0x01, 0xEA, 0x00,
    0x00, 0x00, 0x00, 0x00, 0x10, 0xE4, 0xC8, 0x00, 0x00, 0x00, 0x00, 0x00,
    0x4C, 0x21, 0x0D, 0x00, 0x00, 0x00, 0x00, 0x00, 0xF9, 0xFE, 0xE9, 0x00,
    0x00, 0x00, 0x00, 0x00, 0x01, 0xF3, 0x0D, 0x00, 0x00, 0x00, 0x00, 0x00,
    0x19, 0x0C, 0x6A, 0x00, 0x00, 0x00, 0x00, 0x00, 0x7F, 0x72, 0x6F, 0x00,
    0x00, 0x00, 0x00, 0x00, 0x04, 0xF2, 0x20, 0x00, 0x00, 0x00, 0x00, 0x00,
    0x00, 0x00, 0x00, 0x00, 0x00, 0x00, 0x00, 0x00, 0x00, 0x00, 0x00, 0x00,
    0x00, 0x00, 0x00, 0x00, 0x00, 0x00, 0x00, 0x00, 0x00, 0x00, 0x00, 0x00,
    0x00, 0x00, 0x00, 0x00, 0x00, 0x00, 0x00, 0x00, 0x00, 0x00, 0x00, 0x00,
    0x00, 0x00, 0x00, 0x00, 0x00, 0x00, 0x00, 0x00, 0x00, 0x00, 0x00, 0x00,
    0x00, 0x00, 0x00, 0x00, 0x00, 0x00, 0x00, 0x00, 0x00, 0x00, 0x00, 0x00,
    0x00, 0x00, 0x00, 0x00, 0xBA, 0xE5, 0xDB, 0x00, 0x00, 0x00, 0x00, 0x00,
    0xA6, 0x81, 0xA8, 0x00, 0x00, 0x00, 0x00, 0x00, 0x81, 0x86, 0xCD, 0x00,
    0x00, 0x00, 0x00, 0x00, 0x73, 0x7F, 0x54, 0x00, 0x00, 0x00, 0x00, 0x00,
    0x7F, 0xA9, 0xDF, 0x00, 0x00, 0x00, 0x00, 0x00, 0x4D, 0x60, 0x6E, 0x00,
    0x00, 0x00, 0x00, 0x00, 0xE7, 0x12, 0x16, 0x00, 0x00, 0x00, 0x00, 0x00,
    0xA5, 0xC5, 0x7F, 0x00, 0x00, 0x00, 0x00, 0x00, 0x00, 0x00, 0x00, 0x00,
    0x00, 0x00, 0x00, 0x00, 0x00, 0x00, 0x00, 0x00, 0x00, 0x00, 0x00, 0x00,
    0x00, 0x00, 0x00, 0x00, 0x00, 0x00, 0x00, 0x00, 0x00, 0x00, 0x00, 0x00,
    0x00, 0x00, 0x00, 0x00, 0x00, 0x00, 0x00, 0x00, 0x00, 0x00, 0x00, 0x00,
    0x00, 0x00, 0x00, 0x00, 0x00, 0x00, 0x00, 0x00, 0x00, 0x00, 0x00, 0x00,
    0x00, 0x00, 0x00, 0x00, 0x00, 0x00, 0x00, 0x00, 0x00, 0x00, 0x00, 0x00,
    0xE1, 0xE3, 0xC8, 0x00, 0x00, 0x00, 0x00, 0x00, 0xD4, 0xDE, 0xE4, 0x00,
    0x00, 0x00, 0x00, 0x00, 0x01, 0x09, 0x03, 0x00, 0x00, 0x00, 0x00, 0x00,
    0x2D, 0x1E, 0x34, 0x00, 0x00, 0x00, 0x00, 0x00, 0xE8, 0x0B, 0x0A, 0x00,
    0x00, 0x00, 0x00, 0x00, 0x23, 0x1D, 0xB6, 0x00, 0x00, 0x00, 0x00, 0x00,
    0xAD, 0x9E, 0x90, 0x00, 0x00, 0x00, 0x00, 0x00, 0xFC, 0xEF, 0x24, 0x00,
    0x00, 0x00, 0x00, 0x00, 0x00, 0x00, 0x00, 0x00, 0x00, 0x00, 0x00, 0x00,
    0x00, 0x00, 0x00, 0x00, 0x00, 0x00, 0x00, 0x00, 0x00, 0x00, 0x00, 0x00,
    0x00, 0x00, 0x00, 0x00, 0x00, 0x00, 0x00, 0x00, 0x00, 0x00, 0x00, 0x00,
    0x00, 0x00, 0x00, 0x00, 0x00, 0x00, 0x00, 0x00, 0x00, 0x00, 0x00, 0x00,
    0x00, 0x00, 0x00, 0x00, 0x00, 0x00, 0x00, 0x00, 0x00, 0x00, 0x00, 0x00,
    0x00, 0x00, 0x00, 0x00, 0x00, 0x00, 0x00, 0x00, 0x3A, 0xF0, 0x26, 0x00,
    0x00, 0x00, 0x00, 0x00, 0xEA, 0x0A, 0xDE, 0x00, 0x00, 0x00, 0x00, 0x00,
    0xFA, 0x09, 0xFE, 0x00, 0x00, 0x00, 0x00, 0x00, 0xDF, 0x91, 0xF2, 0x00,
    0x00, 0x00, 0x00, 0x00, 0xFB, 0x0D, 0xF5, 0x00, 0x00, 0x00, 0x00, 0x00,
    0xEB, 0x08, 0xCE, 0x00, 0x00, 0x00, 0x00, 0x00, 0x06, 0x07, 0xF6, 0x00,
    0x00, 0x00, 0x00, 0x00, 0x20, 0xD9, 0x0D, 0x00, 0x00, 0x00, 0x00, 0x00,
    0x00, 0x00, 0x00, 0x00, 0x00, 0x00, 0x00, 0x00, 0x00, 0x00, 0x00, 0x00,
    0x00, 0x00, 0x00, 0x00, 0x00, 0x00, 0x00, 0x00, 0x00, 0x00, 0x00, 0x00,
    0x00, 0x00, 0x00, 0x00, 0x00, 0x00, 0x00, 0x00, 0x00, 0x00, 0x00, 0x00,
    0x00, 0x00, 0x00, 0x00, 0x00, 0x00, 0x00, 0x00, 0x00, 0x00, 0x00, 0x00,
    0x00, 0x00, 0x00, 0x00, 0x00, 0x00, 0x00, 0x00, 0x00, 0x00, 0x00, 0x00,
    0x00, 0x00, 0x00, 0x00, 0x5B, 0x3E, 0x7F, 0x00, 0x00, 0x00, 0x00, 0x00,
    0xD8, 0xE7, 0x02, 0x00, 0x00, 0x00, 0x00, 0x00, 0xDE, 0xE0, 0x0B, 0x00,
    0x00, 0x00, 0x00, 0x00, 0x38, 0x03, 0x1C, 0x00, 0x00, 0x00, 0x00, 0x00,
    0xEC, 0x07, 0x10, 0x00, 0x00, 0x00, 0x00, 0x00, 0x23, 0x0C, 0xE0, 0x00,
    0x00, 0x00, 0x00, 0x00, 0xEC, 0xFB, 0xF1, 0x00, 0x00, 0x00, 0x00, 0x00,
    0x0C, 0xD0, 0x20, 0x00, 0x00, 0x00, 0x00, 0x00, 0x00, 0x00, 0x00, 0x00,
    0x00, 0x00, 0x00, 0x00, 0x00, 0x00, 0x00, 0x00, 0x00, 0x00, 0x00, 0x00,
    0x00, 0x00, 0x00, 0x00, 0x00, 0x00, 0x00, 0x00, 0x00, 0x00, 0x00, 0x00,
    0x00, 0x00, 0x00, 0x00, 0x00, 0x00, 0x00, 0x00, 0x00, 0x00, 0x00, 0x00,
    0x00, 0x00, 0x00, 0x00, 0x00, 0x00, 0x00, 0x00, 0x00, 0x00, 0x00, 0x00,
    0x00, 0x00, 0x00, 0x00, 0x00, 0x00, 0x00, 0x00, 0x00, 0x00, 0x00, 0x00,
    0x2C, 0x14, 0x41, 0x00, 0x00, 0x00, 0x00, 0x00, 0xE4, 0xEB, 0xF3, 0x00,
    0x00, 0x00, 0x00, 0x00, 0x51, 0x31, 0x01, 0x00, 0x00, 0x00, 0x00, 0x00,
    0xCB, 0x9E, 0xB7, 0x00, 0x00, 0x00, 0x00, 0x00, 0xF6, 0x08, 0xFF, 0x00,
    0x00, 0x00, 0x00, 0x00, 0xEE, 0xE5, 0xDA, 0x00, 0x00, 0x00, 0x00, 0x00,
    0x07, 0x06, 0x07, 0x00, 0x00, 0x00, 0x00, 0x00, 0x24, 0xEF, 0xE3, 0x00,
    0x00, 0x00, 0x00, 0x00, 0x00, 0x00, 0x00, 0x00, 0x00, 0x00, 0x00, 0x00,
    0x00, 0x00, 0x00, 0x00, 0x00, 0x00, 0x00, 0x00, 0x00, 0x00, 0x00, 0x00,
    0x00, 0x00, 0x00, 0x00, 0x00, 0x00, 0x00, 0x00, 0x00, 0x00, 0x00, 0x00,
    0x00, 0x00, 0x00, 0x00, 0x00, 0x00, 0x00, 0x00, 0x00, 0x00, 0x00, 0x00,
    0x00, 0x00, 0x00, 0x00, 0x00, 0x00, 0x00, 0x00, 0x00, 0x00, 0x00, 0x00,
    0x00, 0x00, 0x00, 0x00, 0x00, 0x00, 0x00, 0x00, 0x00, 0x00, 0x00, 0x00,
    0x00, 0x00, 0x00, 0x00, 0x00, 0x00, 0x00, 0x00, 0x00, 0x00, 0x00, 0x00,
    0x00, 0x00, 0x00, 0x00, 0x00, 0x00, 0x00, 0x00, 0x00, 0x00, 0x00, 0x00,
    0x00, 0x00, 0x00, 0x00, 0x00, 0x00, 0x00, 0x00, 0x00, 0x00, 0x00, 0x00,
    0x00, 0x00, 0x00, 0x00, 0x00, 0x00, 0x00, 0x00, 0x00, 0x00, 0x00, 0x00,
    0x00, 0x00, 0x00, 0x00, 0x00, 0x00, 0x00, 0x00, 0x00, 0x00, 0x00, 0x00,
    0x00, 0x00, 0x00, 0x00, 0x00, 0x00, 0x00, 0x00, 0x00, 0x00, 0x00, 0x00,
    0x00, 0x00, 0x00, 0x00, 0x00, 0x00, 0x00, 0x00, 0x00, 0x00, 0x00, 0x00,
    0x00, 0x00, 0x00, 0x00, 0x00, 0x00, 0x00, 0x00, 0x00, 0x00, 0x00, 0x00,
    0x00, 0x00, 0x00, 0x00, 0x00, 0x00, 0x00, 0x00, 0x00, 0x00, 0x00, 0x00,
    0x00, 0x00, 0x00, 0x00, 0x00, 0x00, 0x00, 0x00, 0x00, 0x00, 0x00, 0x00,
    0x00, 0x00, 0x00, 0x00
};
static const size_t  resnet_v1_8_32_tfs_int8_17_2_weights_size = sizeof(resnet_v1_8_32_tfs_int8_17_2_weights);
